{
  "version": "1.0",
  "truncation": null,
  "padding": null,
  "added_tokens": [
    {
      "id": 0,
      "content": "[PAD]",
      "single_word": false,
      "lstrip": false,
      "rstrip": false,
      "normalized": false,
      "special": true
    },
    {
      "id": 1,
      "content": "[UNK]",
      "single_word": false,
      "lstrip": false,
      "rstrip": false,
      "normalized": false,
      "special": true
    },
    {
      "id": 2,
      "content": "[CLS]",
      "single_word": false,
      "lstrip": false,
      "rstrip": false,
      "normalized": false,
      "special": true
    },
    {
      "id": 3,
      "content": "[SEP]",
      "single_word": false,
      "lstrip": false,
      "rstrip": false,
      "normalized": false,
      "special": true
    },
    {
      "id": 4,
      "content": "[MASK]",
      "single_word": false,
      "lstrip": false,
      "rstrip": false,
      "normalized": false,
      "special": true
    }
  ],
  "normalizer": {
    "type": "BertNormalizer",
    "clean_text": true,
    "handle_chinese_chars": true,
    "strip_accents": null,
    "lowercase": true
  },
  "pre_tokenizer": {
    "type": "BertPreTokenizer"
  },
  "post_processor": {
    "type": "TemplateProcessing",
    "single": [
      {
        "SpecialToken": {
          "id": "[CLS]",
          "type_id": 0
        }
      },
      {
        "Sequence": {
          "id": "A",
          "type_id": 0
        }
      },
      {
        "SpecialToken": {
          "id": "[SEP]",
          "type_id": 0
        }
      }
    ],
    "pair": [
      {
        "SpecialToken": {
          "id": "[CLS]",
          "type_id": 0
        }
      },
      {
        "Sequence": {
          "id": "A",
          "type_id": 0
        }
      },
      {
        "SpecialToken": {
          "id": "[SEP]",
          "type_id": 0
        }
      },
      {
        "Sequence": {
          "id": "B",
          "type_id": 1
        }
      },
      {
        "SpecialToken": {
          "id": "[SEP]",
          "type_id": 1
        }
      }
    ],
    "special_tokens": {
      "[CLS]": {
        "id": "[CLS]",
        "ids": [
          2
        ],
        "tokens": [
          "[CLS]"
        ]
      },
      "[SEP]": {
        "id": "[SEP]",
        "ids": [
          3
        ],
        "tokens": [
          "[SEP]"
        ]
      }
    }
  },
  "decoder": {
    "type": "WordPiece",
    "prefix": "##",
    "cleanup": true
  },
  "model": {
    "type": "WordPiece",
    "unk_token": "[UNK]",
    "continuing_subword_prefix": "##",
    "max_input_chars_per_word": 100,
    "vocab": {
      "[PAD]": 0,
      "[UNK]": 1,
      "[CLS]": 2,
      "[SEP]": 3,
      "[MASK]": 4,
      "!": 5,
      "\"": 6,
      "#": 7,
      "$": 8,
      "%": 9,
      "&": 10,
      "'": 11,
      "(": 12,
      ")": 13,
      "*": 14,
      "+": 15,
      ",": 16,
      "-": 17,
      ".": 18,
      "/": 19,
      "0": 20,
      "1": 21,
      "2": 22,
      "3": 23,
      "4": 24,
      "5": 25,
      "6": 26,
      "7": 27,
      "8": 28,
      "9": 29,
      ":": 30,
      ";": 31,
      "<": 32,
      "=": 33,
      ">": 34,
      "?": 35,
      "@": 36,
      "[": 37,
      "\\": 38,
      "]": 39,
      "^": 40,
      "_": 41,
      "`": 42,
      "a": 43,
      "b": 44,
      "c": 45,
      "d": 46,
      "e": 47,
      "f": 48,
      "g": 49,
      "h": 50,
      "i": 51,
      "j": 52,
      "k": 53,
      "l": 54,
      "m": 55,
      "n": 56,
      "o": 57,
      "p": 58,
      "q": 59,
      "r": 60,
      "s": 61,
      "t": 62,
      "u": 63,
      "v": 64,
      "w": 65,
      "x": 66,
      "y": 67,
      "z": 68,
      "{": 69,
      "|": 70,
      "}": 71,
      "~": 72,
      "##v": 73,
      "##s": 74,
      "##c": 75,
      "##h": 76,
      "##2": 77,
      "##1": 78,
      "##7": 79,
      "##m": 80,
      "##z": 81,
      "##w": 82,
      "##o": 83,
      "##0": 84,
      "##5": 85,
      "##4": 86,
      "##k": 87,
      "##r": 88,
      "##n": 89,
      "##e": 90,
      "##p": 91,
      "##a": 92,
      "##8": 93,
      "##3": 94,
      "##u": 95,
      "##i": 96,
      "##g": 97,
      "##l": 98,
      "##j": 99,
      "##q": 100,
      "##6": 101,
      "##d": 102,
      "##b": 103,
      "##f": 104,
      "##t": 105,
      "##y": 106,
      "##x": 107,
      "##9": 108,
      "##er": 109,
      "th": 110,
      "##ti": 111,
      "##on": 112,
      "the": 113,
      "##en": 114,
      "##es": 115,
      "##ed": 116,
      "##an": 117,
      "##in": 118,
      "of": 119,
      "##or": 120,
      "in": 121,
      "an": 122,
      "##al": 123,
      "##at": 124,
      "##ar": 125,
      "##tion": 126,
      "##ent": 127,
      "and": 128,
      "##ec": 129,
      "##it": 130,
      "to": 131,
      "##om": 132,
      "##ur": 133,
      "##is": 134,
      "##ing": 135,
      "##ic": 136,
      "##em": 137,
      "##as": 138,
      "pr": 139,
      "re": 140,
      "com": 141,
      "##ation": 142,
      "##il": 143,
      "##re": 144,
      "or": 145,
      "##ts": 146,
      "for": 147,
      "##ch": 148,
      "as": 149,
      "comp": 150,
      "con": 151,
      "##ol": 152,
      "##ve": 153,
      "##ou": 154,
      "su": 155,
      "##00": 156,
      "ex": 157,
      "##ce": 158,
      "be": 159,
      "##ement": 160,
      "pro": 161,
      "st": 162,
      "##ly": 163,
      "##th": 164,
      "##id": 165,
      "##st": 166,
      "##le": 167,
      "##ir": 168,
      "##ter": 169,
      "##ate": 170,
      "no": 171,
      "##se": 172,
      "inc": 173,
      "##ment": 174,
      "ac": 175,
      "sh": 176,
      "compan": 177,
      "##tin": 178,
      "on": 179,
      "##ab": 180,
      "de": 181,
      "##ith": 182,
      "by": 183,
      "company": 184,
      "##lo": 185,
      "##li": 186,
      "##ers": 187,
      "##ect": 188,
      "200": 189,
      "##ated": 190,
      "##ay": 191,
      "with": 192,
      "is": 193,
      "##tr": 194,
      "any": 195,
      "##ting": 196,
      "##nd": 197,
      "##ci": 198,
      "##im": 199,
      "##qu": 200,
      "res": 201,
      "##ess": 202,
      "##ul": 203,
      "##et": 204,
      "##ac": 205,
      "ag": 206,
      "wh": 207,
      "##ig": 208,
      "##ant": 209,
      "19": 210,
      "##ver": 211,
      "##ity": 212,
      "##ther": 213,
      "##por": 214,
      "not": 215,
      "##ere": 216,
      "##os": 217,
      "al": 218,
      "##oun": 219,
      "such": 220,
      "##ain": 221,
      "##tive": 222,
      "##all": 223,
      "par": 224,
      "##ag": 225,
      "sec": 226,
      "op": 227,
      "##oc": 228,
      "##able": 229,
      "that": 230,
      "##ties": 231,
      "##est": 232,
      "ad": 233,
      "199": 234,
      "per": 235,
      "##ber": 236,
      "##pp": 237,
      "##ance": 238,
      "are": 239,
      "##end": 240,
      "##fic": 241,
      "other": 242,
      "at": 243,
      "##ro": 244,
      "shall": 245,
      "am": 246,
      "##ations": 247,
      "tr": 248,
      "##ud": 249,
      "agre": 250,
      "##mp": 251,
      "fin": 252,
      "##el": 253,
      "acc": 254,
      "fr": 255,
      "##uc": 256,
      "##od": 257,
      "this": 258,
      "##ion": 259,
      "##ib": 260,
      "our": 261,
      "##ut": 262,
      "sub": 263,
      "##ition": 264,
      "##ff": 265,
      "##ase": 266,
      "##ust": 267,
      "comm": 268,
      "##ich": 269,
      "##us": 270,
      "##cial": 271,
      "app": 272,
      "agreement": 273,
      "inter": 274,
      "##ee": 275,
      "##ue": 276,
      "finan": 277,
      "##ans": 278,
      "##and": 279,
      "##ear": 280,
      "from": 281,
      "##nder": 282,
      "##iv": 283,
      "##ad": 284,
      "exp": 285,
      "rec": 286,
      "which": 287,
      "ch": 288,
      "##ock": 289,
      "##for": 290,
      "cons": 291,
      "##ary": 292,
      "stat": 293,
      "dis": 294,
      "stock": 295,
      "pl": 296,
      "its": 297,
      "dec": 298,
      "en": 299,
      "financial": 300,
      "##ities": 301,
      "##red": 302,
      "##ember": 303,
      "##ted": 304,
      "un": 305,
      "pur": 306,
      "##um": 307,
      "under": 308,
      "##illi": 309,
      "ser": 310,
      "##ies": 311,
      "##illion": 312,
      "prov": 313,
      "year": 314,
      "ha": 315,
      "##fer": 316,
      "##ard": 317,
      "reg": 318,
      "mar": 319,
      "shar": 320,
      "##erm": 321,
      "all": 322,
      "##tain": 323,
      "we": 324,
      "##ements": 325,
      "million": 326,
      "##am": 327,
      "##lud": 328,
      "##ang": 329,
      "##ure": 330,
      "oper": 331,
      "part": 332,
      "##tions": 333,
      "term": 334,
      "ind": 335,
      "##ill": 336,
      "##ens": 337,
      "##old": 338,
      "may": 339,
      "##ap": 340,
      "##ign": 341,
      "##su": 342,
      "##low": 343,
      "have": 344,
      "##ip": 345,
      "co": 346,
      "includ": 347,
      "##orpor": 348,
      "man": 349,
      "pay": 350,
      "31": 351,
      "le": 352,
      "##ual": 353,
      "requ": 354,
      "contr": 355,
      "serv": 356,
      "##ments": 357,
      "lo": 358,
      "10": 359,
      "##igh": 360,
      "##ased": 361,
      "##ors": 362,
      "li": 363,
      "##duc": 364,
      "##form": 365,
      "secur": 366,
      "##ord": 367,
      "##loy": 368,
      "resp": 369,
      "##dition": 370,
      "emp": 371,
      "servic": 372,
      "accoun": 373,
      "december": 374,
      "000": 375,
      "##ach": 376,
      "employ": 377,
      "##age": 378,
      "##iz": 379,
      "it": 380,
      "##ome": 381,
      "##ial": 382,
      "ta": 383,
      "##eral": 384,
      "##irect": 385,
      "repor": 386,
      "##cip": 387,
      "amoun": 388,
      "##ility": 389,
      "ne": 390,
      "##act": 391,
      "provid": 392,
      "mat": 393,
      "was": 394,
      "interest": 395,
      "ass": 396,
      "will": 397,
      "date": 398,
      "cer": 399,
      "inv": 400,
      "has": 401,
      "rel": 402,
      "##ating": 403,
      "produc": 404,
      "sal": 405,
      "##ow": 406,
      "direct": 407,
      "mark": 408,
      "section": 409,
      "eff": 410,
      "val": 411,
      "resul": 412,
      "tim": 413,
      "##istr": 414,
      "plan": 415,
      "##iness": 416,
      "##ank": 417,
      "here": 418,
      "bus": 419,
      "appro": 420,
      "requir": 421,
      "business": 422,
      "##ates": 423,
      "asse": 424,
      "##ective": 425,
      "##ven": 426,
      "gr": 427,
      "corpor": 428,
      "trans": 429,
      "statements": 430,
      "##pr": 431,
      "equ": 432,
      "if": 433,
      "##un": 434,
      "se": 435,
      "there": 436,
      "exec": 437,
      "me": 438,
      "##ty": 439,
      "##lic": 440,
      "##min": 441,
      "##iod": 442,
      "period": 443,
      "##uring": 444,
      "end": 445,
      "tax": 446,
      "##oss": 447,
      "bank": 448,
      "ob": 449,
      "##pt": 450,
      "form": 451,
      "each": 452,
      "##row": 453,
      "time": 454,
      "##ld": 455,
      "##aw": 456,
      "cas": 457,
      "cl": 458,
      "manag": 459,
      "offic": 460,
      "int": 461,
      "gen": 462,
      "##ef": 463,
      "net": 464,
      "##ail": 465,
      "##tic": 466,
      "##per": 467,
      "##ange": 468,
      "cap": 469,
      "shares": 470,
      "subs": 471,
      "bo": 472,
      "up": 473,
      "##ence": 474,
      "##ings": 475,
      "incre": 476,
      "##air": 477,
      "sp": 478,
      "##ru": 479,
      "us": 480,
      "##its": 481,
      "securities": 482,
      "income": 483,
      "pre": 484,
      "##ited": 485,
      "these": 486,
      "##ents": 487,
      "##ior": 488,
      "##olid": 489,
      "##lig": 490,
      "cred": 491,
      "disc": 492,
      "purch": 493,
      "corporation": 494,
      "##ould": 495,
      "execu": 496,
      "common": 497,
      "##ell": 498,
      "##if": 499,
      "assets": 500,
      "##ners": 501,
      "cash": 502,
      "##ision": 503,
      "##ice": 504,
      "imp": 505,
      "consolid": 506,
      "ab": 507,
      "##ise": 508,
      "mor": 509,
      "##urr": 510,
      "pres": 511,
      "##oll": 512,
      "rece": 513,
      "ow": 514,
      "##ific": 515,
      "fil": 516,
      "addition": 517,
      "##hip": 518,
      "##uar": 519,
      "##ital": 520,
      "ev": 521,
      "ben": 522,
      "##og": 523,
      "##tial": 524,
      "##pos": 525,
      "operations": 526,
      "##idi": 527,
      "credit": 528,
      "##ately": 529,
      "amount": 530,
      "value": 531,
      "ins": 532,
      "been": 533,
      "were": 534,
      "subsidi": 535,
      "def": 536,
      "ar": 537,
      "during": 538,
      "fol": 539,
      "share": 540,
      "follow": 541,
      "proper": 542,
      "including": 543,
      "##ative": 544,
      "management": 545,
      "act": 546,
      "##erial": 547,
      "righ": 548,
      "executive": 549,
      "##ied": 550,
      "bor": 551,
      "ii": 552,
      "##ous": 553,
      "issu": 554,
      "##gh": 555,
      "market": 556,
      "invest": 557,
      "##of": 558,
      "material": 559,
      "ann": 560,
      "registr": 561,
      "##isc": 562,
      "new": 563,
      "borrow": 564,
      "consolidated": 565,
      "than": 566,
      "acqu": 567,
      "##ees": 568,
      "general": 569,
      "ma": 570,
      "hold": 571,
      "##ough": 572,
      "##ive": 573,
      "##ject": 574,
      "##fter": 575,
      "##xim": 576,
      "certain": 577,
      "based": 578,
      "##ge": 579,
      "##ade": 580,
      "rate": 581,
      "##ces": 582,
      "related": 583,
      "##ized": 584,
      "##tit": 585,
      "12": 586,
      "##ferred": 587,
      "2002": 588,
      "##our": 589,
      "##ection": 590,
      "aff": 591,
      "ended": 592,
      "des": 593,
      "capital": 594,
      "cos": 595,
      "##are": 596,
      "##ot": 597,
      "trust": 598,
      "amend": 599,
      "oblig": 600,
      "lim": 601,
      "report": 602,
      "##cess": 603,
      "2003": 604,
      "services": 605,
      "##hold": 606,
      "costs": 607,
      "2004": 608,
      "loss": 609,
      "upon": 610,
      "##erson": 611,
      "go": 612,
      "##iscal": 613,
      "prin": 614,
      "fiscal": 615,
      "##ures": 616,
      "15": 617,
      "inform": 618,
      "over": 619,
      "sign": 620,
      "cust": 621,
      "reven": 622,
      "person": 623,
      "pursu": 624,
      "accounting": 625,
      "##ticip": 626,
      "years": 627,
      "information": 628,
      "##ong": 629,
      "sales": 630,
      "##und": 631,
      "##ory": 632,
      "applic": 633,
      "curr": 634,
      "pursuant": 635,
      "products": 636,
      "##arr": 637,
      "##nership": 638,
      "30": 639,
      "contin": 640,
      "##iss": 641,
      "fac": 642,
      "##ke": 643,
      "item": 644,
      "##ected": 645,
      "princip": 646,
      "loan": 647,
      "law": 648,
      "custom": 649,
      "##aid": 650,
      "##itt": 651,
      "day": 652,
      "notes": 653,
      "non": 654,
      "approxim": 655,
      "liab": 656,
      "##los": 657,
      "##ilities": 658,
      "mon": 659,
      "##ense": 660,
      "es": 661,
      "2005": 662,
      "benef": 663,
      "regul": 664,
      "au": 665,
      "##out": 666,
      "required": 667,
      "provided": 668,
      "2001": 669,
      "##hib": 670,
      "##tim": 671,
      "##ame": 672,
      "red": 673,
      "##anding": 674,
      "##ine": 675,
      "##ose": 676,
      "##ason": 677,
      "##so": 678,
      "##rough": 679,
      "termin": 680,
      "13": 681,
      "directors": 682,
      "##ork": 683,
      "due": 684,
      "board": 685,
      "##ical": 686,
      "operating": 687,
      "##trib": 688,
      "el": 689,
      "11": 690,
      "##ants": 691,
      "respect": 692,
      "made": 693,
      "approximately": 694,
      "##ceed": 695,
      "deter": 696,
      "annual": 697,
      "subject": 698,
      "control": 699,
      "##ass": 700,
      "spec": 701,
      "provision": 702,
      "condition": 703,
      "##velo": 704,
      "prior": 705,
      "exch": 706,
      "through": 707,
      "one": 708,
      "##enses": 709,
      "oc": 710,
      "rem": 711,
      "##ution": 712,
      "set": 713,
      "##ia": 714,
      "determin": 715,
      "##uts": 716,
      "##tiv": 717,
      "own": 718,
      "following": 719,
      "after": 720,
      "##urance": 721,
      "##velop": 722,
      "##tw": 723,
      "##gr": 724,
      "also": 725,
      "##aries": 726,
      "num": 727,
      "2000": 728,
      "perform": 729,
      "receiv": 730,
      "develop": 731,
      "statement": 732,
      "option": 733,
      "exhib": 734,
      "##op": 735,
      "outs": 736,
      "fund": 737,
      "purchase": 738,
      "reason": 739,
      "their": 740,
      "fir": 741,
      "exchange": 742,
      "##tal": 743,
      "deb": 744,
      "sy": 745,
      "14": 746,
      "particip": 747,
      "##enc": 748,
      "payment": 749,
      "char": 750,
      "current": 751,
      "certi": 752,
      "price": 753,
      "2006": 754,
      "total": 755,
      "lend": 756,
      "results": 757,
      "intern": 758,
      "property": 759,
      "compens": 760,
      "party": 761,
      "##ist": 762,
      "accord": 763,
      "##erc": 764,
      "agent": 765,
      "fair": 766,
      "number": 767,
      "he": 768,
      "##ues": 769,
      "registrant": 770,
      "##ified": 771,
      "incorpor": 772,
      "note": 773,
      "additional": 774,
      "expenses": 775,
      "noti": 776,
      "terms": 777,
      "loans": 778,
      "1999": 779,
      "estim": 780,
      "subsidiaries": 781,
      "ear": 782,
      "cla": 783,
      "1998": 784,
      "transac": 785,
      "principal": 786,
      "employee": 787,
      "##ivid": 788,
      "record": 789,
      "into": 790,
      "fut": 791,
      "distrib": 792,
      "cost": 793,
      "##cept": 794,
      "##ission": 795,
      "bas": 796,
      "##led": 797,
      "1997": 798,
      "inst": 799,
      "##ily": 800,
      "rights": 801,
      "officer": 802,
      "effect": 803,
      "compensation": 804,
      "coll": 805,
      "prim": 806,
      "borrower": 807,
      "respective": 808,
      "##ish": 809,
      "quar": 810,
      "partnership": 811,
      "quarter": 812,
      "service": 813,
      "##ast": 814,
      "##stem": 815,
      "future": 816,
      "lease": 817,
      "effective": 818,
      "##ond": 819,
      "do": 820,
      "exhibit": 821,
      "refer": 822,
      "wr": 823,
      "##les": 824,
      "inde": 825,
      "##use": 826,
      "state": 827,
      "outst": 828,
      "##hn": 829,
      "system": 830,
      "##cr": 831,
      "applicable": 832,
      "##erg": 833,
      "outstanding": 834,
      "ext": 835,
      "obligations": 836,
      "1996": 837,
      "##ward": 838,
      "amounts": 839,
      "increase": 840,
      "##ire": 841,
      "rep": 842,
      "##par": 843,
      "result": 844,
      "##eld": 845,
      "grant": 846,
      "exerc": 847,
      "auth": 848,
      "##ub": 849,
      "##ible": 850,
      "debt": 851,
      "por": 852,
      "##ident": 853,
      "repr": 854,
      "more": 855,
      "rev": 856,
      "can": 857,
      "##ree": 858,
      "##ati": 859,
      "##een": 860,
      "av": 861,
      "##ational": 862,
      "##ificant": 863,
      "##holders": 864,
      "filed": 865,
      "##ined": 866,
      "significant": 867,
      "ris": 868,
      "20": 869,
      "ten": 870,
      "deli": 871,
      "##isition": 872,
      "##ix": 873,
      "admin": 874,
      "main": 875,
      "sale": 876,
      "first": 877,
      "month": 878,
      "acquisition": 879,
      "est": 880,
      "repres": 881,
      "sch": 882,
      "notice": 883,
      "supp": 884,
      "sell": 885,
      "author": 886,
      "##ases": 887,
      "deliver": 888,
      "risk": 889,
      "bec": 890,
      "options": 891,
      "##cent": 892,
      "dated": 893,
      "enter": 894,
      "expense": 895,
      "aud": 896,
      "##mm": 897,
      "cont": 898,
      "restr": 899,
      "claim": 900,
      "march": 901,
      "would": 902,
      "bal": 903,
      "herein": 904,
      "paid": 905,
      "tw": 906,
      "equity": 907,
      "proceed": 908,
      "insurance": 909,
      "certific": 910,
      "##ances": 911,
      "issued": 912,
      "chang": 913,
      "limited": 914,
      "##lement": 915,
      "##tg": 916,
      "event": 917,
      "##ie": 918,
      "ful": 919,
      "administr": 920,
      "betw": 921,
      "between": 922,
      "reference": 923,
      "accordance": 924,
      "##verage": 925,
      "conn": 926,
      "##arily": 927,
      "president": 928,
      "without": 929,
      "coun": 930,
      "doc": 931,
      "##oin": 932,
      "##ying": 933,
      "##ects": 934,
      "use": 935,
      "mortg": 936,
      "continu": 937,
      "tec": 938,
      "could": 939,
      "less": 940,
      "##mit": 941,
      "fe": 942,
      "basis": 943,
      "ord": 944,
      "avail": 945,
      "##ons": 946,
      "forth": 947,
      "str": 948,
      "within": 949,
      "change": 950,
      "account": 951,
      "docu": 952,
      "cal": 953,
      "##ey": 954,
      "##uted": 955,
      "pol": 956,
      "incorporated": 957,
      "increased": 958,
      "jun": 959,
      "ca": 960,
      "##ious": 961,
      "earn": 962,
      "class": 963,
      "##olog": 964,
      "design": 965,
      "##ult": 966,
      "techn": 967,
      "##pend": 968,
      "loc": 969,
      "long": 970,
      "##tained": 971,
      "##ress": 972,
      "provisions": 973,
      "##anu": 974,
      "ref": 975,
      "table": 976,
      "contract": 977,
      "agreements": 978,
      "used": 979,
      "investment": 980,
      "employees": 981,
      "high": 982,
      "##wise": 983,
      "##port": 984,
      "percent": 985,
      "##oci": 986,
      "adver": 987,
      "janu": 988,
      "january": 989,
      "25": 990,
      "included": 991,
      "guar": 992,
      "occ": 993,
      "pow": 994,
      "disclos": 995,
      "adv": 996,
      "1995": 997,
      "otherwise": 998,
      "##ili": 999,
      "pub": 1000,
      "##ace": 1001,
      "##av": 1002,
      "development": 1003,
      "marke": 1004,
      "##fact": 1005,
      "termination": 1006,
      "benefit": 1007,
      "guarant": 1008,
      "revenue": 1009,
      "associ": 1010,
      "respectively": 1011,
      "##ced": 1012,
      "##ner": 1013,
      "fed": 1014,
      "##ved": 1015,
      "director": 1016,
      "stand": 1017,
      "ret": 1018,
      "payments": 1019,
      "real": 1020,
      "sched": 1021,
      "customers": 1022,
      "except": 1023,
      "##urn": 1024,
      "activ": 1025,
      "##ustr": 1026,
      "##ute": 1027,
      "provide": 1028,
      "##ogn": 1029,
      "june": 1030,
      "var": 1031,
      "product": 1032,
      "changes": 1033,
      "connection": 1034,
      "nor": 1035,
      "facility": 1036,
      "federal": 1037,
      "states": 1038,
      "liabilities": 1039,
      "primarily": 1040,
      "security": 1041,
      "##ential": 1042,
      "days": 1043,
      "adj": 1044,
      "##ters": 1045,
      "present": 1046,
      "but": 1047,
      "##oup": 1048,
      "lender": 1049,
      "requirements": 1050,
      "##utions": 1051,
      "amended": 1052,
      "recogn": 1053,
      "available": 1054,
      "##uction": 1055,
      "##lie": 1056,
      "##ata": 1057,
      "##ipment": 1058,
      "subsidiary": 1059,
      "##gin": 1060,
      "united": 1061,
      "revenues": 1062,
      "##uly": 1063,
      "progr": 1064,
      "parties": 1065,
      "16": 1066,
      "those": 1067,
      "##ves": 1068,
      "##reg": 1069,
      "see": 1070,
      "compar": 1071,
      "rates": 1072,
      "land": 1073,
      "thir": 1074,
      "enti": 1075,
      "##ability": 1076,
      "committ": 1077,
      "flow": 1078,
      "bu": 1079,
      "fore": 1080,
      "had": 1081,
      "standard": 1082,
      "##vern": 1083,
      "employment": 1084,
      "qual": 1085,
      "subst": 1086,
      "right": 1087,
      "warr": 1088,
      "govern": 1089,
      "##by": 1090,
      "polic": 1091,
      "equipment": 1092,
      "lic": 1093,
      "when": 1094,
      "##urred": 1095,
      "belie": 1096,
      "public": 1097,
      "##ule": 1098,
      "divid": 1099,
      "##ving": 1100,
      "##ost": 1101,
      "assign": 1102,
      "include": 1103,
      "##ever": 1104,
      "taxes": 1105,
      "balance": 1106,
      "att": 1107,
      "##eto": 1108,
      "comple": 1109,
      "##ack": 1110,
      "##ereto": 1111,
      "min": 1112,
      "off": 1113,
      "##ite": 1114,
      "cor": 1115,
      "industr": 1116,
      "##til": 1117,
      "fact": 1118,
      "committee": 1119,
      "offer": 1120,
      "decre": 1121,
      "del": 1122,
      "##now": 1123,
      "thereof": 1124,
      "generally": 1125,
      "series": 1126,
      "program": 1127,
      "te": 1128,
      "performance": 1129,
      "good": 1130,
      "restric": 1131,
      "mortgage": 1132,
      "liability": 1133,
      "ph": 1134,
      "##ove": 1135,
      "##gan": 1136,
      "compe": 1137,
      "remain": 1138,
      "power": 1139,
      "payable": 1140,
      "manu": 1141,
      "group": 1142,
      "technolog": 1143,
      "##ency": 1144,
      "manufact": 1145,
      "18": 1146,
      "##king": 1147,
      "affili": 1148,
      "so": 1149,
      "##fore": 1150,
      "##lish": 1151,
      "carr": 1152,
      "adjust": 1153,
      "leg": 1154,
      "##tiz": 1155,
      "trustee": 1156,
      "##ide": 1157,
      "make": 1158,
      "iii": 1159,
      "instru": 1160,
      "fees": 1161,
      "losses": 1162,
      "##less": 1163,
      "##greg": 1164,
      "data": 1165,
      "##ief": 1166,
      "accounts": 1167,
      "conditions": 1168,
      "represent": 1169,
      "whe": 1170,
      "sept": 1171,
      "defined": 1172,
      "consid": 1173,
      "september": 1174,
      "##uct": 1175,
      "tenant": 1176,
      "prem": 1177,
      "suc": 1178,
      "##go": 1179,
      "##ole": 1180,
      "preferred": 1181,
      "well": 1182,
      "cour": 1183,
      "elect": 1184,
      "case": 1185,
      "di": 1186,
      "transactions": 1187,
      "how": 1188,
      "again": 1189,
      "chief": 1190,
      "depos": 1191,
      "participant": 1192,
      "sf": 1193,
      "companies": 1194,
      "dividend": 1195,
      "##isting": 1196,
      "reporting": 1197,
      "aggreg": 1198,
      "##fici": 1199,
      "internal": 1200,
      "##to": 1201,
      "amendment": 1202,
      "whether": 1203,
      "allow": 1204,
      "21": 1205,
      "##ater": 1206,
      "sen": 1207,
      "17": 1208,
      "##itten": 1209,
      "administrative": 1210,
      "##ecess": 1211,
      "exercise": 1212,
      "held": 1213,
      "benefits": 1214,
      "##enture": 1215,
      "against": 1216,
      "sfas": 1217,
      "two": 1218,
      "##under": 1219,
      "adverse": 1220,
      "add": 1221,
      "then": 1222,
      "three": 1223,
      "reser": 1224,
      "above": 1225,
      "senior": 1226,
      "deferred": 1227,
      "owned": 1228,
      "activities": 1229,
      "process": 1230,
      "name": 1231,
      "third": 1232,
      "written": 1233,
      "##liance": 1234,
      "laws": 1235,
      "plans": 1236,
      "mr": 1237,
      "acquir": 1238,
      "##ally": 1239,
      "commission": 1240,
      "##ges": 1241,
      "##oint": 1242,
      "average": 1243,
      "br": 1244,
      "##poses": 1245,
      "earnings": 1246,
      "contrib": 1247,
      "##fe": 1248,
      "mod": 1249,
      "consider": 1250,
      "received": 1251,
      "##mental": 1252,
      "determined": 1253,
      "##crib": 1254,
      "##vel": 1255,
      "substan": 1256,
      "pos": 1257,
      "recorded": 1258,
      "same": 1259,
      "cr": 1260,
      "##ight": 1261,
      "success": 1262,
      "his": 1263,
      "##ness": 1264,
      "commer": 1265,
      "1994": 1266,
      "prof": 1267,
      "defa": 1268,
      "##io": 1269,
      "##emn": 1270,
      "purposes": 1271,
      "limit": 1272,
      "gas": 1273,
      "##edi": 1274,
      "contrac": 1275,
      "distribution": 1276,
      "vice": 1277,
      "##emp": 1278,
      "extent": 1279,
      "substantial": 1280,
      "aggregate": 1281,
      "##ys": 1282,
      "work": 1283,
      "mee": 1284,
      "action": 1285,
      "##ization": 1286,
      "##atory": 1287,
      "order": 1288,
      "officers": 1289,
      "customer": 1290,
      "mean": 1291,
      "audit": 1292,
      "23": 1293,
      "##pendent": 1294,
      "##eric": 1295,
      "asset": 1296,
      "33": 1297,
      "##mitted": 1298,
      "pric": 1299,
      "indemn": 1300,
      "full": 1301,
      "out": 1302,
      "systems": 1303,
      "means": 1304,
      "however": 1305,
      "##ither": 1306,
      "below": 1307,
      "##ffer": 1308,
      "##ortiz": 1309,
      "commit": 1310,
      "necess": 1311,
      "properties": 1312,
      "only": 1313,
      "sim": 1314,
      "reasonable": 1315,
      "28": 1316,
      "##ablish": 1317,
      "clos": 1318,
      "trad": 1319,
      "establish": 1320,
      "##man": 1321,
      "##ably": 1322,
      "##val": 1323,
      "meeting": 1324,
      "50": 1325,
      "contracts": 1326,
      "##gment": 1327,
      "prev": 1328,
      "##ning": 1329,
      "##iew": 1330,
      "compared": 1331,
      "exc": 1332,
      "facilities": 1333,
      "const": 1334,
      "meth": 1335,
      "##ile": 1336,
      "feb": 1337,
      "deem": 1338,
      "where": 1339,
      "commercial": 1340,
      "##iting": 1341,
      "##ruary": 1342,
      "february": 1343,
      "##lord": 1344,
      "ll": 1345,
      "##ages": 1346,
      "claims": 1347,
      "##ful": 1348,
      "documents": 1349,
      "198": 1350,
      "transfer": 1351,
      "tre": 1352,
      "award": 1353,
      "##cing": 1354,
      "electr": 1355,
      "method": 1356,
      "portion": 1357,
      "100": 1358,
      "entit": 1359,
      "dem": 1360,
      "rest": 1361,
      "continued": 1362,
      "estimated": 1363,
      "ini": 1364,
      "hereof": 1365,
      "relating": 1366,
      "amortiz": 1367,
      "respons": 1368,
      "investments": 1369,
      "landlord": 1370,
      "##rement": 1371,
      "orig": 1372,
      "24": 1373,
      "##yp": 1374,
      "position": 1375,
      "origin": 1376,
      "27": 1377,
      "default": 1378,
      "cent": 1379,
      "who": 1380,
      "##one": 1381,
      "##ound": 1382,
      "##aph": 1383,
      "##ises": 1384,
      "incurred": 1385,
      "##loc": 1386,
      "equal": 1387,
      "fail": 1388,
      "hereby": 1389,
      "22": 1390,
      "ro": 1391,
      "reti": 1392,
      "fur": 1393,
      "##over": 1394,
      "##pri": 1395,
      "know": 1396,
      "##ateral": 1397,
      "impair": 1398,
      "hereunder": 1399,
      "existing": 1400,
      "acquired": 1401,
      "holders": 1402,
      "40": 1403,
      "prom": 1404,
      "certificate": 1405,
      "americ": 1406,
      "expected": 1407,
      "##ergy": 1408,
      "follows": 1409,
      "further": 1410,
      "##ests": 1411,
      "flows": 1412,
      "giv": 1413,
      "##cribed": 1414,
      "artic": 1415,
      "granted": 1416,
      "stockholders": 1417,
      "consent": 1418,
      "##ands": 1419,
      "##te": 1420,
      "vi": 1421,
      "collateral": 1422,
      "standards": 1423,
      "request": 1424,
      "##ured": 1425,
      "necessary": 1426,
      "contents": 1427,
      "dr": 1428,
      "being": 1429,
      "level": 1430,
      "cod": 1431,
      "adop": 1432,
      "##ister": 1433,
      "differ": 1434,
      "compliance": 1435,
      "##uss": 1436,
      "competi": 1437,
      "##ules": 1438,
      "acce": 1439,
      "fix": 1440,
      "##con": 1441,
      "00": 1442,
      "does": 1443,
      "eng": 1444,
      "29": 1445,
      "low": 1446,
      "liqu": 1447,
      "disclosure": 1448,
      "transaction": 1449,
      "continue": 1450,
      "##ator": 1451,
      "registration": 1452,
      "gener": 1453,
      "nov": 1454,
      "four": 1455,
      "schedule": 1456,
      "legal": 1457,
      "##tober": 1458,
      "october": 1459,
      "##mission": 1460,
      "maintain": 1461,
      "rent": 1462,
      "##ension": 1463,
      "proced": 1464,
      "med": 1465,
      "##alu": 1466,
      "##inion": 1467,
      "independent": 1468,
      "refl": 1469,
      "##iron": 1470,
      "liquid": 1471,
      "impro": 1472,
      "wa": 1473,
      "##ollar": 1474,
      "##pan": 1475,
      "entitled": 1476,
      "funds": 1477,
      "indic": 1478,
      "maj": 1479,
      "env": 1480,
      "bene": 1481,
      "evalu": 1482,
      "##ding": 1483,
      "tit": 1484,
      "##ged": 1485,
      "office": 1486,
      "sin": 1487,
      "discuss": 1488,
      "typ": 1489,
      "environ": 1490,
      "sup": 1491,
      "corporate": 1492,
      "regard": 1493,
      "code": 1494,
      "stor": 1495,
      "july": 1496,
      "apr": 1497,
      "instruments": 1498,
      "##unic": 1499,
      "gain": 1500,
      "sold": 1501,
      "opinion": 1502,
      "let": 1503,
      "##ateg": 1504,
      "regulations": 1505,
      "##raph": 1506,
      "sever": 1507,
      "##tig": 1508,
      "foreign": 1509,
      "until": 1510,
      "april": 1511,
      "##quent": 1512,
      "conf": 1513,
      "ability": 1514,
      "##ilar": 1515,
      "major": 1516,
      "decl": 1517,
      "cause": 1518,
      "##rued": 1519,
      "includes": 1520,
      "similar": 1521,
      "before": 1522,
      "energy": 1523,
      "##ised": 1524,
      "recognized": 1525,
      "deemed": 1526,
      "affect": 1527,
      "national": 1528,
      "id": 1529,
      "currently": 1530,
      "imm": 1531,
      "##ll": 1532,
      "1993": 1533,
      "either": 1534,
      "##ks": 1535,
      "vol": 1536,
      "##alth": 1537,
      "nat": 1538,
      "##ification": 1539,
      "associated": 1540,
      "26": 1541,
      "##cer": 1542,
      "november": 1543,
      "pat": 1544,
      "proceeds": 1545,
      "rele": 1546,
      "return": 1547,
      "address": 1548,
      "grow": 1549,
      "among": 1550,
      "months": 1551,
      "line": 1552,
      "##af": 1553,
      "shareholders": 1554,
      "periods": 1555,
      "various": 1556,
      "unless": 1557,
      "since": 1558,
      "merg": 1559,
      "specific": 1560,
      "##ources": 1561,
      "bro": 1562,
      "ownership": 1563,
      "procedures": 1564,
      "title": 1565,
      "both": 1566,
      "##enti": 1567,
      "york": 1568,
      "qu": 1569,
      "##ian": 1570,
      "closing": 1571,
      "cover": 1572,
      "marketing": 1573,
      "##urs": 1574,
      "estimates": 1575,
      "require": 1576,
      "reduc": 1577,
      "##olving": 1578,
      "##holder": 1579,
      "##ines": 1580,
      "impact": 1581,
      "approval": 1582,
      "vo": 1583,
      "technology": 1584,
      "review": 1585,
      "arr": 1586,
      "##tives": 1587,
      "factors": 1588,
      "base": 1589,
      "court": 1590,
      "reports": 1591,
      "sel": 1592,
      "matters": 1593,
      "life": 1594,
      "specified": 1595,
      "##alf": 1596,
      "##34": 1597,
      "obligation": 1598,
      "##after": 1599,
      "##ret": 1600,
      "entered": 1601,
      "partner": 1602,
      "conver": 1603,
      "described": 1604,
      "provides": 1605,
      "article": 1606,
      "##ize": 1607,
      "##ort": 1608,
      "fixed": 1609,
      "five": 1610,
      "aug": 1611,
      "register": 1612,
      "financing": 1613,
      "##lus": 1614,
      "contained": 1615,
      "matur": 1616,
      "supplement": 1617,
      "##atis": 1618,
      "comb": 1619,
      "excess": 1620,
      "individ": 1621,
      "constr": 1622,
      "individual": 1623,
      "receive": 1624,
      "estate": 1625,
      "dividends": 1626,
      "health": 1627,
      "##emb": 1628,
      "buil": 1629,
      "file": 1630,
      "##ath": 1631,
      "conduc": 1632,
      "##ph": 1633,
      "august": 1634,
      "##tern": 1635,
      "regulatory": 1636,
      "international": 1637,
      "units": 1638,
      "##own": 1639,
      "##fied": 1640,
      "assess": 1641,
      "fl": 1642,
      "instit": 1643,
      "policies": 1644,
      "sof": 1645,
      "industry": 1646,
      "they": 1647,
      "exper": 1648,
      "special": 1649,
      "sett": 1650,
      "using": 1651,
      "retirement": 1652,
      "##esse": 1653,
      "anal": 1654,
      "holder": 1655,
      "##work": 1656,
      "##als": 1657,
      "immedi": 1658,
      "actual": 1659,
      "reasonably": 1660,
      "##tib": 1661,
      "##irc": 1662,
      "dollar": 1663,
      "##ular": 1664,
      "consum": 1665,
      "minim": 1666,
      "previous": 1667,
      "indenture": 1668,
      "prices": 1669,
      "circ": 1670,
      "initial": 1671,
      "der": 1672,
      "gre": 1673,
      "##cies": 1674,
      "authorized": 1675,
      "decrease": 1676,
      "dispos": 1677,
      "controls": 1678,
      "##vers": 1679,
      "##ten": 1680,
      "thous": 1681,
      "iv": 1682,
      "invent": 1683,
      "thereto": 1684,
      "2007": 1685,
      "leases": 1686,
      "##cy": 1687,
      "incen": 1688,
      "purchas": 1689,
      "arrang": 1690,
      "markets": 1691,
      "charges": 1692,
      "servicing": 1693,
      "pot": 1694,
      "interests": 1695,
      "express": 1696,
      "summ": 1697,
      "##ton": 1698,
      "softw": 1699,
      "percentage": 1700,
      "lar": 1701,
      "constit": 1702,
      "partners": 1703,
      "substantially": 1704,
      "##ak": 1705,
      "90": 1706,
      "##aware": 1707,
      "port": 1708,
      "software": 1709,
      "most": 1710,
      "alloc": 1711,
      "##lied": 1712,
      "license": 1713,
      "##going": 1714,
      "delaware": 1715,
      "##xx": 1716,
      "inf": 1717,
      "##ood": 1718,
      "satis": 1719,
      "##unc": 1720,
      "coven": 1721,
      "##anch": 1722,
      "reported": 1723,
      "##ium": 1724,
      "pe": 1725,
      "production": 1726,
      "second": 1727,
      "##ause": 1728,
      "seller": 1729,
      "##ompan": 1730,
      "##with": 1731,
      "obtain": 1732,
      "##xt": 1733,
      "restricted": 1734,
      "##umul": 1735,
      "##ival": 1736,
      "sur": 1737,
      "remaining": 1738,
      "exceed": 1739,
      "delivery": 1740,
      "demand": 1741,
      "because": 1742,
      "deriv": 1743,
      "##co": 1744,
      "##iation": 1745,
      "gross": 1746,
      "bond": 1747,
      "merger": 1748,
      "recover": 1749,
      "deposit": 1750,
      "##50": 1751,
      "impairment": 1752,
      "about": 1753,
      "beh": 1754,
      "32": 1755,
      "identi": 1756,
      "relations": 1757,
      "##omes": 1758,
      "organ": 1759,
      "##earch": 1760,
      "become": 1761,
      "begin": 1762,
      "##ordin": 1763,
      "##esting": 1764,
      "segment": 1765,
      "charge": 1766,
      "##sp": 1767,
      "llc": 1768,
      "##ffici": 1769,
      "registered": 1770,
      "permitted": 1771,
      "valu": 1772,
      "potential": 1773,
      "dam": 1774,
      "air": 1775,
      "premises": 1776,
      "believes": 1777,
      "##ote": 1778,
      "##encies": 1779,
      "regulation": 1780,
      "accrued": 1781,
      "issuance": 1782,
      "believe": 1783,
      "##sequent": 1784,
      "60": 1785,
      "immediately": 1786,
      "incentive": 1787,
      "##tili": 1788,
      "##bted": 1789,
      "growth": 1790,
      "indebted": 1791,
      "environmental": 1792,
      "expir": 1793,
      "project": 1794,
      "##arm": 1795,
      "hereto": 1796,
      "##dic": 1797,
      "sw": 1798,
      "indebtedness": 1799,
      "##uce": 1800,
      "##ables": 1801,
      "document": 1802,
      "delivered": 1803,
      "prot": 1804,
      "sole": 1805,
      "##idential": 1806,
      "affiliates": 1807,
      "equival": 1808,
      "appropri": 1809,
      "##ising": 1810,
      "policy": 1811,
      "joint": 1812,
      "prec": 1813,
      "memb": 1814,
      "##pose": 1815,
      "tele": 1816,
      "utili": 1817,
      "##tigation": 1818,
      "behalf": 1819,
      "must": 1820,
      "##ibility": 1821,
      "contain": 1822,
      "01": 1823,
      "higher": 1824,
      "need": 1825,
      "eur": 1826,
      "members": 1827,
      "network": 1828,
      "research": 1829,
      "##tical": 1830,
      "strateg": 1831,
      "div": 1832,
      "lower": 1833,
      "##cul": 1834,
      "##ene": 1835,
      "purchased": 1836,
      "##set": 1837,
      "##iver": 1838,
      "meas": 1839,
      "profit": 1840,
      "member": 1841,
      "jud": 1842,
      "##fy": 1843,
      "experi": 1844,
      "##fol": 1845,
      "##ural": 1846,
      "given": 1847,
      "##ences": 1848,
      "authority": 1849,
      "she": 1850,
      "minimum": 1851,
      "##will": 1852,
      "vari": 1853,
      "entity": 1854,
      "rati": 1855,
      "sou": 1856,
      "portfol": 1857,
      "resulting": 1858,
      "manufacturing": 1859,
      "##agraph": 1860,
      "accept": 1861,
      "construction": 1862,
      "##essee": 1863,
      "compon": 1864,
      "analys": 1865,
      "revolving": 1866,
      "employer": 1867,
      "econ": 1868,
      "econom": 1869,
      "goodwill": 1870,
      "ge": 1871,
      "##unications": 1872,
      "failure": 1873,
      "holding": 1874,
      "inte": 1875,
      "secured": 1876,
      "1934": 1877,
      "##sump": 1878,
      "assump": 1879,
      "elig": 1880,
      "key": 1881,
      "##orn": 1882,
      "##da": 1883,
      "approved": 1884,
      "principles": 1885,
      "local": 1886,
      "amortization": 1887,
      "calcul": 1888,
      "##eciation": 1889,
      "integr": 1890,
      "located": 1891,
      "fee": 1892,
      "warrant": 1893,
      "##tible": 1894,
      "lenders": 1895,
      "subsequent": 1896,
      "voting": 1897,
      "er": 1898,
      "poss": 1899,
      "##ession": 1900,
      "established": 1901,
      "some": 1902,
      "appropriate": 1903,
      "plus": 1904,
      "electric": 1905,
      "##ield": 1906,
      "35": 1907,
      "##ically": 1908,
      "##ination": 1909,
      "##ended": 1910,
      "##nel": 1911,
      "consist": 1912,
      "short": 1913,
      "quarterly": 1914,
      "aut": 1915,
      "letter": 1916,
      "bre": 1917,
      "executed": 1918,
      "jur": 1919,
      "36": 1920,
      "assum": 1921,
      "receivable": 1922,
      "stre": 1923,
      "##10": 1924,
      "##acity": 1925,
      "accompan": 1926,
      "holdings": 1927,
      "retail": 1928,
      "forward": 1929,
      "cop": 1930,
      "regarding": 1931,
      "previously": 1932,
      "ste": 1933,
      "directly": 1934,
      "relationship": 1935,
      "you": 1936,
      "depr": 1937,
      "sc": 1938,
      "offset": 1939,
      "receip": 1940,
      "mul": 1941,
      "requires": 1942,
      "conform": 1943,
      "unit": 1944,
      "thousands": 1945,
      "##sel": 1946,
      "accep": 1947,
      "margin": 1948,
      "separ": 1949,
      "##land": 1950,
      "##ict": 1951,
      "du": 1952,
      "resources": 1953,
      "agrees": 1954,
      "circum": 1955,
      "prep": 1956,
      "limitation": 1957,
      "page": 1958,
      "support": 1959,
      "hed": 1960,
      "allowance": 1961,
      "buy": 1962,
      "oil": 1963,
      "invol": 1964,
      "persons": 1965,
      "whol": 1966,
      "prac": 1967,
      "##ety": 1968,
      "enfor": 1969,
      "portfolio": 1970,
      "anticip": 1971,
      "liv": 1972,
      "banks": 1973,
      "least": 1974,
      "pension": 1975,
      "circumst": 1976,
      "discussion": 1977,
      "beginning": 1978,
      "capacity": 1979,
      "##sue": 1980,
      "carrying": 1981,
      "sol": 1982,
      "exclud": 1983,
      "duly": 1984,
      "##used": 1985,
      "##ledge": 1986,
      "paragraph": 1987,
      "##nia": 1988,
      "analysis": 1989,
      "##ify": 1990,
      "##isted": 1991,
      "cali": 1992,
      "##burs": 1993,
      "priv": 1994,
      "##ins": 1995,
      "operation": 1996,
      "suppli": 1997,
      "expend": 1998,
      "maturity": 1999,
      "recent": 2000,
      "rules": 2001,
      "##ok": 2002,
      "prepar": 2003,
      "mo": 2004,
      "premium": 2005,
      "califor": 2006,
      "adopted": 2007,
      "##ficial": 2008,
      "california": 2009,
      "und": 2010,
      "tak": 2011,
      "sm": 2012,
      "34": 2013,
      "fully": 2014,
      "completed": 2015,
      "cre": 2016,
      "car": 2017,
      "##ler": 2018,
      "##ender": 2019,
      "500": 2020,
      "improv": 2021,
      "##anc": 2022,
      "while": 2023,
      "should": 2024,
      "offering": 2025,
      "defin": 2026,
      "chair": 2027,
      "purpose": 2028,
      "writing": 2029,
      "city": 2030,
      "restated": 2031,
      "beneficial": 2032,
      "juris": 2033,
      "##angible": 2034,
      "warrants": 2035,
      "##ensive": 2036,
      "america": 2037,
      "jo": 2038,
      "##enced": 2039,
      "reduction": 2040,
      "jurisdic": 2041,
      "assurance": 2042,
      "hist": 2043,
      "##ention": 2044,
      "north": 2045,
      "covenants": 2046,
      "##ending": 2047,
      "lessee": 2048,
      "street": 2049,
      "settlement": 2050,
      "manner": 2051,
      "corr": 2052,
      "expendit": 2053,
      "like": 2054,
      "##tis": 2055,
      "reduced": 2056,
      "foregoing": 2057,
      "##fficient": 2058,
      "wor": 2059,
      "post": 2060,
      "eligible": 2061,
      "accompanying": 2062,
      "circumstances": 2063,
      "according": 2064,
      "multi": 2065,
      "##xy": 2066,
      "##part": 2067,
      "commitments": 2068,
      "##bit": 2069,
      "ir": 2070,
      "proceedings": 2071,
      "pen": 2072,
      "incorporation": 2073,
      "acquisitions": 2074,
      "reim": 2075,
      "owner": 2076,
      "them": 2077,
      "accepted": 2078,
      "risks": 2079,
      "75": 2080,
      "inventory": 2081,
      "reserves": 2082,
      "partic": 2083,
      "affected": 2084,
      "access": 2085,
      "materially": 2086,
      "last": 2087,
      "evid": 2088,
      "propos": 2089,
      "chairman": 2090,
      "repl": 2091,
      "##standing": 2092,
      "reserve": 2093,
      "##emption": 2094,
      "install": 2095,
      "fas": 2096,
      "##ested": 2097,
      "referred": 2098,
      "convers": 2099,
      "subordin": 2100,
      "cle": 2101,
      "government": 2102,
      "competitive": 2103,
      "attorn": 2104,
      "37": 2105,
      "events": 2106,
      "filing": 2107,
      "majority": 2108,
      "currency": 2109,
      "conversion": 2110,
      "receipt": 2111,
      "45": 2112,
      "42": 2113,
      "decreased": 2114,
      "1992": 2115,
      "sheet": 2116,
      "particular": 2117,
      "##ists": 2118,
      "original": 2119,
      "##ope": 2120,
      "funding": 2121,
      "##ivers": 2122,
      "six": 2123,
      "materials": 2124,
      "attorney": 2125,
      "99": 2126,
      "discoun": 2127,
      "col": 2128,
      "counsel": 2129,
      "##tices": 2130,
      "adversely": 2131,
      "##ral": 2132,
      "election": 2133,
      "##tenance": 2134,
      "maintenance": 2135,
      "##asing": 2136,
      "care": 2137,
      "corp": 2138,
      "finance": 2139,
      "##atives": 2140,
      "41": 2141,
      "back": 2142,
      "vote": 2143,
      "46": 2144,
      "taken": 2145,
      "dil": 2146,
      "former": 2147,
      "consideration": 2148,
      "firm": 2149,
      "covered": 2150,
      "##retion": 2151,
      "##td": 2152,
      "application": 2153,
      "programs": 2154,
      "economic": 2155,
      "building": 2156,
      "##ley": 2157,
      "take": 2158,
      "depreciation": 2159,
      "autom": 2160,
      "38": 2161,
      "expenditures": 2162,
      "preced": 2163,
      "mer": 2164,
      "knowledge": 2165,
      "meet": 2166,
      "type": 2167,
      "##ps": 2168,
      "call": 2169,
      "contributions": 2170,
      "area": 2171,
      "123": 2172,
      "proxy": 2173,
      "fourth": 2174,
      "agreed": 2175,
      "ce": 2176,
      "issue": 2177,
      "im": 2178,
      "##itive": 2179,
      "constitute": 2180,
      "values": 2181,
      "##abor": 2182,
      "##ool": 2183,
      "utiliz": 2184,
      "meaning": 2185,
      "presented": 2186,
      "##ind": 2187,
      "##iter": 2188,
      "attrib": 2189,
      "deposits": 2190,
      "quality": 2191,
      "increases": 2192,
      "furn": 2193,
      "assumptions": 2194,
      "determination": 2195,
      "greater": 2196,
      "bon": 2197,
      "head": 2198,
      "guarantor": 2199,
      "terminated": 2200,
      "valuation": 2201,
      "##lying": 2202,
      "litigation": 2203,
      "reduce": 2204,
      "trading": 2205,
      "plant": 2206,
      "restruct": 2207,
      "toge": 2208,
      "##ecting": 2209,
      "together": 2210,
      "bear": 2211,
      "borrowings": 2212,
      "maxim": 2213,
      "natural": 2214,
      "purchaser": 2215,
      "actions": 2216,
      "items": 2217,
      "histor": 2218,
      "##ex": 2219,
      "conting": 2220,
      "##orts": 2221,
      "final": 2222,
      "sav": 2223,
      "breach": 2224,
      "##avor": 2225,
      "rene": 2226,
      "certificates": 2227,
      "determine": 2228,
      "discretion": 2229,
      "continuing": 2230,
      "dollars": 2231,
      "expect": 2232,
      "assignment": 2233,
      "em": 2234,
      "terminate": 2235,
      "pled": 2236,
      "##uel": 2237,
      "tex": 2238,
      "index": 2239,
      "ded": 2240,
      "buyer": 2241,
      "qualified": 2242,
      "volum": 2243,
      "mis": 2244,
      "selected": 2245,
      "##lusive": 2246,
      "gains": 2247,
      "remed": 2248,
      "##urer": 2249,
      "##gments": 2250,
      "sum": 2251,
      "tar": 2252,
      "super": 2253,
      "responsible": 2254,
      "indirect": 2255,
      "sing": 2256,
      "jurisdiction": 2257,
      "rule": 2258,
      "conc": 2259,
      "communications": 2260,
      "respects": 2261,
      "affiliate": 2262,
      "competition": 2263,
      "02": 2264,
      "##aged": 2265,
      "48": 2266,
      "supply": 2267,
      "##ier": 2268,
      "entities": 2269,
      "arising": 2270,
      "receivables": 2271,
      "designated": 2272,
      "medical": 2273,
      "signed": 2274,
      "considered": 2275,
      "39": 2276,
      "##unction": 2277,
      "lessor": 2278,
      "##entures": 2279,
      "weigh": 2280,
      "mail": 2281,
      "redemption": 2282,
      "adjustment": 2283,
      "bonds": 2284,
      "##lated": 2285,
      "convertible": 2286,
      "##urch": 2287,
      "place": 2288,
      "governmental": 2289,
      "##ury": 2290,
      "expos": 2291,
      "##omin": 2292,
      "##ale": 2293,
      "secret": 2294,
      "monthly": 2295,
      "several": 2296,
      "##crip": 2297,
      "past": 2298,
      "awards": 2299,
      "44": 2300,
      "##utable": 2301,
      "##equ": 2302,
      "licens": 2303,
      "##utes": 2304,
      "depend": 2305,
      "gu": 2306,
      "##rupt": 2307,
      "bonus": 2308,
      "trade": 2309,
      "intangible": 2310,
      "renew": 2311,
      "levels": 2312,
      "tel": 2313,
      "selling": 2314,
      "agree": 2315,
      "##ics": 2316,
      "now": 2317,
      "##aff": 2318,
      "##cc": 2319,
      "designed": 2320,
      "waiver": 2321,
      "duties": 2322,
      "##11": 2323,
      "stockholder": 2324,
      "##ore": 2325,
      "accounted": 2326,
      "resol": 2327,
      "49": 2328,
      "adequ": 2329,
      "restrictions": 2330,
      "##ker": 2331,
      "salary": 2332,
      "parent": 2333,
      "many": 2334,
      "treas": 2335,
      "repurch": 2336,
      "businesses": 2337,
      "notwith": 2338,
      "ratio": 2339,
      "notwithstanding": 2340,
      "##omm": 2341,
      "canad": 2342,
      "commitment": 2343,
      "##isable": 2344,
      "weighted": 2345,
      "nam": 2346,
      "proceeding": 2347,
      "disp": 2348,
      "association": 2349,
      "served": 2350,
      "home": 2351,
      "interp": 2352,
      "subordinated": 2353,
      "arrangements": 2354,
      "none": 2355,
      "replac": 2356,
      "##bal": 2357,
      "efforts": 2358,
      "counter": 2359,
      "##ories": 2360,
      "occurred": 2361,
      "cli": 2362,
      "technologies": 2363,
      "##etary": 2364,
      "distributions": 2365,
      "fa": 2366,
      "down": 2367,
      "##ouse": 2368,
      "broad": 2369,
      "restructuring": 2370,
      "viol": 2371,
      "ltd": 2372,
      "large": 2373,
      "savings": 2374,
      "successor": 2375,
      "texas": 2376,
      "compu": 2377,
      "bankrupt": 2378,
      "##ayment": 2379,
      "47": 2380,
      "den": 2381,
      "##dr": 2382,
      "bl": 2383,
      "maximum": 2384,
      "personal": 2385,
      "responsibility": 2386,
      "glo": 2387,
      "adjusted": 2388,
      "therein": 2389,
      "##12": 2390,
      "##get": 2391,
      "treat": 2392,
      "preceding": 2393,
      "coverage": 2394,
      "43": 2395,
      "reimburs": 2396,
      "##vision": 2397,
      "52": 2398,
      "primary": 2399,
      "force": 2400,
      "sufficient": 2401,
      "##ators": 2402,
      "free": 2403,
      "03": 2404,
      "borrowing": 2405,
      "decision": 2406,
      "instrument": 2407,
      "american": 2408,
      "implement": 2409,
      "criter": 2410,
      "entire": 2411,
      "concer": 2412,
      "##not": 2413,
      "pred": 2414,
      "venture": 2415,
      "accordingly": 2416,
      "fuel": 2417,
      "division": 2418,
      "applications": 2419,
      "exhibits": 2420,
      "south": 2421,
      "damages": 2422,
      "partial": 2423,
      "able": 2424,
      "billion": 2425,
      "thereafter": 2426,
      "world": 2427,
      "rede": 2428,
      "##oking": 2429,
      "commenc": 2430,
      "occurr": 2431,
      "attributable": 2432,
      "##endar": 2433,
      "components": 2434,
      "calendar": 2435,
      "consolidation": 2436,
      "ach": 2437,
      "personnel": 2438,
      "improvements": 2439,
      "##ections": 2440,
      "private": 2441,
      "controll": 2442,
      "adjustments": 2443,
      "banking": 2444,
      "prompt": 2445,
      "bankruptcy": 2446,
      "advertis": 2447,
      "secretary": 2448,
      "alle": 2449,
      "##ends": 2450,
      "experience": 2451,
      "compet": 2452,
      "liquidity": 2453,
      "having": 2454,
      "criteria": 2455,
      "known": 2456,
      "achie": 2457,
      "benefici": 2458,
      "center": 2459,
      "##ling": 2460,
      "stated": 2461,
      "resulted": 2462,
      "chec": 2463,
      "70": 2464,
      "reflect": 2465,
      "best": 2466,
      "wholly": 2467,
      "##lation": 2468,
      "complete": 2469,
      "therefore": 2470,
      "relationships": 2471,
      "nature": 2472,
      "333": 2473,
      "acceler": 2474,
      "copy": 2475,
      "caused": 2476,
      "55": 2477,
      "favor": 2478,
      "##ark": 2479,
      "leased": 2480,
      "execution": 2481,
      "confidential": 2482,
      "next": 2483,
      "valid": 2484,
      "##veness": 2485,
      "##tiveness": 2486,
      "records": 2487,
      "derivative": 2488,
      "global": 2489,
      "permit": 2490,
      "open": 2491,
      "abs": 2492,
      "##aster": 2493,
      "comply": 2494,
      "signat": 2495,
      "cannot": 2496,
      "neg": 2497,
      "whole": 2498,
      "working": 2499,
      "##cription": 2500,
      "looking": 2501,
      "your": 2502,
      "##reh": 2503,
      "evaluation": 2504,
      "la": 2505,
      "supplemental": 2506,
      "accumul": 2507,
      "##know": 2508,
      "##lose": 2509,
      "compreh": 2510,
      "##though": 2511,
      "proposed": 2512,
      "countr": 2513,
      "##ick": 2514,
      "said": 2515,
      "collective": 2516,
      "##ne": 2517,
      "although": 2518,
      "providing": 2519,
      "reli": 2520,
      "comprehensive": 2521,
      "##limin": 2522,
      "patent": 2523,
      "prosp": 2524,
      "money": 2525,
      "represents": 2526,
      "issuer": 2527,
      "##organ": 2528,
      "agency": 2529,
      "##22": 2530,
      "agents": 2531,
      "advance": 2532,
      "amortized": 2533,
      "industrial": 2534,
      "##portun": 2535,
      "schedules": 2536,
      "opportun": 2537,
      "engine": 2538,
      "proj": 2539,
      "furnish": 2540,
      "80": 2541,
      "release": 2542,
      "single": 2543,
      "region": 2544,
      "adoption": 2545,
      "##certain": 2546,
      "unre": 2547,
      "accountants": 2548,
      "exam": 2549,
      "expiration": 2550,
      "##thers": 2551,
      "##enting": 2552,
      "##ectiveness": 2553,
      "institution": 2554,
      "arbit": 2555,
      "times": 2556,
      "##other": 2557,
      "deal": 2558,
      "teleph": 2559,
      "capitalized": 2560,
      "##cep": 2561,
      "altern": 2562,
      "##irm": 2563,
      "04": 2564,
      "summary": 2565,
      "redeem": 2566,
      "disclosures": 2567,
      "servicer": 2568,
      "indicated": 2569,
      "##ino": 2570,
      "intr": 2571,
      "manager": 2572,
      "llp": 2573,
      "performed": 2574,
      "apply": 2575,
      "arbitr": 2576,
      "her": 2577,
      "bar": 2578,
      "franch": 2579,
      "lead": 2580,
      "exercisable": 2581,
      "site": 2582,
      "##ays": 2583,
      "##ging": 2584,
      "significantly": 2585,
      "unp": 2586,
      "det": 2587,
      "53": 2588,
      "equivalents": 2589,
      "contribution": 2590,
      "##ra": 2591,
      "electron": 2592,
      "dev": 2593,
      "65": 2594,
      "contemp": 2595,
      "carry": 2596,
      "effectiveness": 2597,
      "norm": 2598,
      "##inding": 2599,
      "course": 2600,
      "conduct": 2601,
      "##ane": 2602,
      "##wr": 2603,
      "offices": 2604,
      "recognition": 2605,
      "##ns": 2606,
      "##ource": 2607,
      "##omestic": 2608,
      "domestic": 2609,
      "##yal": 2610,
      "mic": 2611,
      "read": 2612,
      "pool": 2613,
      "depart": 2614,
      "ordin": 2615,
      "competit": 2616,
      "##gy": 2617,
      "##ii": 2618,
      "discon": 2619,
      "06": 2620,
      "web": 2621,
      "##tics": 2622,
      "consumer": 2623,
      "applied": 2624,
      "54": 2625,
      "likely": 2626,
      "contractual": 2627,
      "dates": 2628,
      "judgment": 2629,
      "51": 2630,
      "death": 2631,
      "##igned": 2632,
      "##umulative": 2633,
      "pa": 2634,
      "interpret": 2635,
      "acquire": 2636,
      "tem": 2637,
      "ed": 2638,
      "combined": 2639,
      "areas": 2640,
      "attach": 2641,
      "advances": 2642,
      "consult": 2643,
      "fasb": 2644,
      "excluding": 2645,
      "uncertain": 2646,
      "56": 2647,
      "cance": 2648,
      "##ger": 2649,
      "rental": 2650,
      "allocated": 2651,
      "discontin": 2652,
      "stores": 2653,
      "##thern": 2654,
      "conducted": 2655,
      "cumulative": 2656,
      "vir": 2657,
      "##aft": 2658,
      "accumulated": 2659,
      "##son": 2660,
      "clin": 2661,
      "charged": 2662,
      "europe": 2663,
      "squ": 2664,
      "met": 2665,
      "##ah": 2666,
      "space": 2667,
      "separate": 2668,
      "##umb": 2669,
      "enc": 2670,
      "shareholder": 2671,
      "disposition": 2672,
      "declar": 2673,
      "labor": 2674,
      "##eed": 2675,
      "west": 2676,
      "plac": 2677,
      "basic": 2678,
      "assist": 2679,
      "assessment": 2680,
      "##aud": 2681,
      "hand": 2682,
      "audits": 2683,
      "later": 2684,
      "##action": 2685,
      "acknow": 2686,
      "shee": 2687,
      "others": 2688,
      "overall": 2689,
      "##urers": 2690,
      "listed": 2691,
      "57": 2692,
      "another": 2693,
      "##tility": 2694,
      "reorgan": 2695,
      "distr": 2696,
      "successful": 2697,
      "advertising": 2698,
      "making": 2699,
      "did": 2700,
      "sheets": 2701,
      "outside": 2702,
      "volume": 2703,
      "estimate": 2704,
      "enforce": 2705,
      "contemplated": 2706,
      "john": 2707,
      "transmission": 2708,
      "advis": 2709,
      "certification": 2710,
      "lines": 2711,
      "##33": 2712,
      "participants": 2713,
      "62": 2714,
      "square": 2715,
      "multip": 2716,
      "investors": 2717,
      "participation": 2718,
      "borrowers": 2719,
      "retain": 2720,
      "purchases": 2721,
      "exclusive": 2722,
      "operate": 2723,
      "telec": 2724,
      "compr": 2725,
      "test": 2726,
      "66": 2727,
      "flo": 2728,
      "58": 2729,
      "requested": 2730,
      "obtained": 2731,
      "##ida": 2732,
      "utility": 2733,
      "ending": 2734,
      "royal": 2735,
      "enh": 2736,
      "05": 2737,
      "##ering": 2738,
      "guarantee": 2739,
      "promptly": 2740,
      "##itor": 2741,
      "##ington": 2742,
      "activity": 2743,
      "struct": 2744,
      "sections": 2745,
      "transition": 2746,
      "assumed": 2747,
      "indicate": 2748,
      "variable": 2749,
      "##rug": 2750,
      "my": 2751,
      "discussed": 2752,
      "pricing": 2753,
      "way": 2754,
      "##ifying": 2755,
      "possible": 2756,
      "bill": 2757,
      "range": 2758,
      "59": 2759,
      "underwr": 2760,
      "equivalent": 2761,
      "fairly": 2762,
      "maintained": 2763,
      "##ipp": 2764,
      "impos": 2765,
      "check": 2766,
      "internet": 2767,
      "telephone": 2768,
      "##uctu": 2769,
      "fluctu": 2770,
      "competitors": 2771,
      "evidence": 2772,
      "prob": 2773,
      "##izes": 2774,
      "##ina": 2775,
      "owners": 2776,
      "repair": 2777,
      "repurchase": 2778,
      "acceptance": 2779,
      "pass": 2780,
      "propri": 2781,
      "##err": 2782,
      "consistent": 2783,
      "sit": 2784,
      "foc": 2785,
      "segments": 2786,
      "##ech": 2787,
      "central": 2788,
      "historical": 2789,
      "small": 2790,
      "treatment": 2791,
      "exercised": 2792,
      "normal": 2793,
      "##goti": 2794,
      "staff": 2795,
      "administration": 2796,
      "organization": 2797,
      "earned": 2798,
      "unders": 2799,
      "64": 2800,
      "##pl": 2801,
      "definition": 2802,
      "protection": 2803,
      "give": 2804,
      "##unt": 2805,
      "district": 2806,
      "anticipated": 2807,
      "county": 2808,
      "unpaid": 2809,
      "fam": 2810,
      "computer": 2811,
      "##acy": 2812,
      "liquidation": 2813,
      "63": 2814,
      "inves": 2815,
      "collectively": 2816,
      "discontinu": 2817,
      "severance": 2818,
      "##sc": 2819,
      "extension": 2820,
      "letters": 2821,
      "lien": 2822,
      "drug": 2823,
      "tempor": 2824,
      "undersigned": 2825,
      "combination": 2826,
      "clause": 2827,
      "model": 2828,
      "water": 2829,
      "pending": 2830,
      "defer": 2831,
      "mid": 2832,
      "exposure": 2833,
      "hot": 2834,
      "clinical": 2835,
      "giving": 2836,
      "##art": 2837,
      "occur": 2838,
      "ve": 2839,
      "##arb": 2840,
      "accr": 2841,
      "98": 2842,
      "##anced": 2843,
      "managing": 2844,
      "beneficiary": 2845,
      "sa": 2846,
      "##utory": 2847,
      "swap": 2848,
      "proprietary": 2849,
      "clear": 2850,
      "elected": 2851,
      "patents": 2852,
      "indemnification": 2853,
      "summar": 2854,
      "reins": 2855,
      "enterpr": 2856,
      "profession": 2857,
      "binding": 2858,
      "pharm": 2859,
      "reflected": 2860,
      "infr": 2861,
      "##vant": 2862,
      "phys": 2863,
      "85": 2864,
      "strategy": 2865,
      "matter": 2866,
      "limitations": 2867,
      "balances": 2868,
      "95": 2869,
      "rating": 2870,
      "##osp": 2871,
      "needs": 2872,
      "1991": 2873,
      "07": 2874,
      "yield": 2875,
      "##lass": 2876,
      "effects": 2877,
      "reorganization": 2878,
      "mut": 2879,
      "surv": 2880,
      "87": 2881,
      "elimin": 2882,
      "##res": 2883,
      "initi": 2884,
      "generated": 2885,
      "##anties": 2886,
      "##yl": 2887,
      "guid": 2888,
      "transport": 2889,
      "developed": 2890,
      "disability": 2891,
      "lived": 2892,
      "different": 2893,
      "lib": 2894,
      "ever": 2895,
      "generation": 2896,
      "fo": 2897,
      "ul": 2898,
      "disclosed": 2899,
      "fif": 2900,
      "occurrence": 2901,
      "##up": 2902,
      "residential": 2903,
      "67": 2904,
      "institutions": 2905,
      "##ulting": 2906,
      "target": 2907,
      "distribut": 2908,
      "uns": 2909,
      "mc": 2910,
      "ver": 2911,
      "modified": 2912,
      "ordinary": 2913,
      "cable": 2914,
      "stud": 2915,
      "exist": 2916,
      "processing": 2917,
      "highly": 2918,
      "relative": 2919,
      "decline": 2920,
      "auditors": 2921,
      "status": 2922,
      "77": 2923,
      "completion": 2924,
      "issues": 2925,
      "liens": 2926,
      "earli": 2927,
      "representations": 2928,
      "calculated": 2929,
      "assigned": 2930,
      "inj": 2931,
      "##ograph": 2932,
      "##sh": 2933,
      "department": 2934,
      "refin": 2935,
      "##line": 2936,
      "defend": 2937,
      "68": 2938,
      "hour": 2939,
      "feet": 2940,
      "contingent": 2941,
      "97": 2942,
      "partially": 2943,
      "##bert": 2944,
      "indirectly": 2945,
      "vend": 2946,
      "amendments": 2947,
      "commun": 2948,
      "ap": 2949,
      "realized": 2950,
      "age": 2951,
      "mich": 2952,
      "obj": 2953,
      "longer": 2954,
      "##itical": 2955,
      "##wide": 2956,
      "##aging": 2957,
      "mutual": 2958,
      "negoti": 2959,
      "ill": 2960,
      "quan": 2961,
      "represented": 2962,
      "deduc": 2963,
      "transferred": 2964,
      "##ison": 2965,
      "suit": 2966,
      "solutions": 2967,
      "##ico": 2968,
      "trial": 2969,
      "##thing": 2970,
      "expressly": 2971,
      "pap": 2972,
      "prepared": 2973,
      "mil": 2974,
      "##31": 2975,
      "pip": 2976,
      "94": 2977,
      "##orp": 2978,
      "intended": 2979,
      "##uled": 2980,
      "tradem": 2981,
      "conformed": 2982,
      "underlying": 2983,
      "61": 2984,
      "##fying": 2985,
      "licenses": 2986,
      "vested": 2987,
      "discount": 2988,
      "hotel": 2989,
      "collection": 2990,
      "wire": 2991,
      "##char": 2992,
      "projects": 2993,
      "adequate": 2994,
      "orders": 2995,
      "temporary": 2996,
      "sources": 2997,
      "prohib": 2998,
      "card": 2999,
      "remo": 3000,
      "72": 3001,
      "##aining": 3002,
      "merch": 3003,
      "identified": 3004,
      "asser": 3005,
      "consumm": 3006,
      "ens": 3007,
      "##atic": 3008,
      "store": 3009,
      "canada": 3010,
      "vesting": 3011,
      "warranties": 3012,
      "unable": 3013,
      "arrangement": 3014,
      "69": 3015,
      "taxable": 3016,
      "##fication": 3017,
      "industries": 3018,
      "discontinued": 3019,
      "recovery": 3020,
      "owns": 3021,
      "expire": 3022,
      "##ov": 3023,
      "##acted": 3024,
      "certified": 3025,
      "charter": 3026,
      "sent": 3027,
      "build": 3028,
      "investor": 3029,
      "pati": 3030,
      "transf": 3031,
      "twel": 3032,
      "family": 3033,
      "banc": 3034,
      "relevant": 3035,
      "named": 3036,
      "##ather": 3037,
      "reimbursement": 3038,
      "diluted": 3039,
      "specifically": 3040,
      "appear": 3041,
      "additionally": 3042,
      "early": 3043,
      "representing": 3044,
      "esc": 3045,
      "whose": 3046,
      "increasing": 3047,
      "forec": 3048,
      "categ": 3049,
      "damage": 3050,
      "##ames": 3051,
      "##eng": 3052,
      "broker": 3053,
      "197": 3054,
      "classified": 3055,
      "acknowled": 3056,
      "ga": 3057,
      "71": 3058,
      "fre": 3059,
      "wells": 3060,
      "master": 3061,
      "principally": 3062,
      "detail": 3063,
      "presentation": 3064,
      "##zard": 3065,
      "disposal": 3066,
      "76": 3067,
      "##sa": 3068,
      "timely": 3069,
      "counterpar": 3070,
      "88": 3071,
      "96": 3072,
      "##way": 3073,
      "##itness": 3074,
      "78": 3075,
      "concerning": 3076,
      "storage": 3077,
      "pack": 3078,
      "74": 3079,
      "practices": 3080,
      "close": 3081,
      "chem": 3082,
      "notices": 3083,
      "consists": 3084,
      "##ifications": 3085,
      "##isa": 3086,
      "faith": 3087,
      "expand": 3088,
      "vac": 3089,
      "consulting": 3090,
      "flor": 3091,
      "what": 3092,
      "##anes": 3093,
      "wash": 3094,
      "##aur": 3095,
      "introd": 3096,
      "##ware": 3097,
      "interpretation": 3098,
      "delay": 3099,
      "food": 3100,
      "penal": 3101,
      "employed": 3102,
      "debentures": 3103,
      "perm": 3104,
      "suppliers": 3105,
      "grants": 3106,
      "geor": 3107,
      "earlier": 3108,
      "announ": 3109,
      "hazard": 3110,
      "twelve": 3111,
      "attached": 3112,
      "solely": 3113,
      "guaranty": 3114,
      "appoint": 3115,
      "scheduled": 3116,
      "determining": 3117,
      "restaur": 3118,
      "premiums": 3119,
      "##cement": 3120,
      "forma": 3121,
      "totaled": 3122,
      "extended": 3123,
      "technical": 3124,
      "resolution": 3125,
      "positions": 3126,
      "##ric": 3127,
      "##ump": 3128,
      "rad": 3129,
      "maturities": 3130,
      "book": 3131,
      "remedies": 3132,
      "84": 3133,
      "things": 3134,
      "retained": 3135,
      "univers": 3136,
      "component": 3137,
      "description": 3138,
      "300": 3139,
      "##la": 3140,
      "substit": 3141,
      "##tc": 3142,
      "statutory": 3143,
      "agencies": 3144,
      "point": 3145,
      "alternative": 3146,
      "##craft": 3147,
      "preparation": 3148,
      "execute": 3149,
      "appoin": 3150,
      "nas": 3151,
      "##ont": 3152,
      "zip": 3153,
      "entergy": 3154,
      "negative": 3155,
      "useful": 3156,
      "08": 3157,
      "sets": 3158,
      "florida": 3159,
      "##lain": 3160,
      "union": 3161,
      "fle": 3162,
      "##iana": 3163,
      "neither": 3164,
      "##he": 3165,
      "confirm": 3166,
      "86": 3167,
      "intell": 3168,
      "southern": 3169,
      "availability": 3170,
      "satisfact": 3171,
      "returns": 3172,
      "##izations": 3173,
      "##der": 3174,
      "79": 3175,
      "##ansion": 3176,
      "##amp": 3177,
      "libor": 3178,
      "engaged": 3179,
      "73": 3180,
      "##bur": 3181,
      "##lem": 3182,
      "dischar": 3183,
      "participate": 3184,
      "##eal": 3185,
      "saf": 3186,
      "##esp": 3187,
      "powers": 3188,
      "throughout": 3189,
      "regular": 3190,
      "lending": 3191,
      "##itiz": 3192,
      "##ectual": 3193,
      "thirty": 3194,
      "reclass": 3195,
      "intellectual": 3196,
      "signature": 3197,
      "expansion": 3198,
      "submission": 3199,
      "attorneys": 3200,
      "ensure": 3201,
      "strategic": 3202,
      "92": 3203,
      "thereunder": 3204,
      "professional": 3205,
      "aircraft": 3206,
      "brand": 3207,
      "cases": 3208,
      "transportation": 3209,
      "found": 3210,
      "dou": 3211,
      "##oks": 3212,
      "write": 3213,
      "incur": 3214,
      "ultim": 3215,
      "medic": 3216,
      "satisfactory": 3217,
      "washington": 3218,
      "monitor": 3219,
      "definitive": 3220,
      "##ms": 3221,
      "cy": 3222,
      "liable": 3223,
      "##ength": 3224,
      "##ston": 3225,
      "successors": 3226,
      "##elf": 3227,
      "associates": 3228,
      "##au": 3229,
      "optionee": 3230,
      "lives": 3231,
      "##van": 3232,
      "offered": 3233,
      "extr": 3234,
      "erisa": 3235,
      "compete": 3236,
      "##uses": 3237,
      "suppor": 3238,
      "sem": 3239,
      "waiv": 3240,
      "manufacturers": 3241,
      "audited": 3242,
      "annum": 3243,
      "comparable": 3244,
      "branch": 3245,
      "becomes": 3246,
      "82": 3247,
      "##endered": 3248,
      "differences": 3249,
      "##mb": 3250,
      "1990": 3251,
      "##sol": 3252,
      "##wh": 3253,
      "allocation": 3254,
      "insured": 3255,
      "thereon": 3256,
      "##ned": 3257,
      "surr": 3258,
      "##wards": 3259,
      "hereinafter": 3260,
      "typically": 3261,
      "import": 3262,
      "##utive": 3263,
      "89": 3264,
      "oh": 3265,
      "dif": 3266,
      "##hic": 3267,
      "##her": 3268,
      "computed": 3269,
      "spons": 3270,
      "##atement": 3271,
      "testing": 3272,
      "##az": 3273,
      "##ax": 3274,
      "treasury": 3275,
      "paper": 3276,
      "performing": 3277,
      "environment": 3278,
      "light": 3279,
      "plain": 3280,
      "guaranteed": 3281,
      "dig": 3282,
      "hosp": 3283,
      "##acter": 3284,
      "diffic": 3285,
      "licensed": 3286,
      "affiliated": 3287,
      "##lin": 3288,
      "##bo": 3289,
      "bi": 3290,
      "extend": 3291,
      "09": 3292,
      "distributed": 3293,
      "participating": 3294,
      "chan": 3295,
      "serve": 3296,
      "inventories": 3297,
      "##ices": 3298,
      "safety": 3299,
      "centers": 3300,
      "replacement": 3301,
      "hazardous": 3302,
      "every": 3303,
      "whereas": 3304,
      "harm": 3305,
      "##untary": 3306,
      "variety": 3307,
      "construed": 3308,
      "robert": 3309,
      "##eu": 3310,
      "converted": 3311,
      "annually": 3312,
      "cond": 3313,
      "warranty": 3314,
      "arbitration": 3315,
      "filer": 3316,
      "location": 3317,
      "experienced": 3318,
      "engineering": 3319,
      "##tm": 3320,
      "complain": 3321,
      "##aceu": 3322,
      "issuing": 3323,
      "##active": 3324,
      "pipel": 3325,
      "fluctuations": 3326,
      "source": 3327,
      "ox": 3328,
      "dir": 3329,
      "wee": 3330,
      "##lear": 3331,
      "corresp": 3332,
      "correspond": 3333,
      "violation": 3334,
      "accelerated": 3335,
      "manage": 3336,
      "evaluating": 3337,
      "400": 3338,
      "electronic": 3339,
      "##ille": 3340,
      "0000": 3341,
      "##illiam": 3342,
      "401": 3343,
      "##ta": 3344,
      "##portion": 3345,
      "terr": 3346,
      "prime": 3347,
      "hedge": 3348,
      "fda": 3349,
      "stra": 3350,
      "recon": 3351,
      "imposed": 3352,
      "active": 3353,
      "william": 3354,
      "deg": 3355,
      "##unctions": 3356,
      "##lor": 3357,
      "hospital": 3358,
      "funded": 3359,
      "san": 3360,
      "##alized": 3361,
      "hereafter": 3362,
      "vehic": 3363,
      "administrator": 3364,
      "lawsu": 3365,
      "withhold": 3366,
      "gam": 3367,
      "##oper": 3368,
      "character": 3369,
      "##urement": 3370,
      "nuc": 3371,
      "locations": 3372,
      "favorable": 3373,
      "reviewed": 3374,
      "bid": 3375,
      "dav": 3376,
      "escrow": 3377,
      "81": 3378,
      "paying": 3379,
      "repay": 3380,
      "accrual": 3381,
      "##lies": 3382,
      "##yn": 3383,
      "150": 3384,
      "expects": 3385,
      "function": 3386,
      "prepayment": 3387,
      "partnerships": 3388,
      "##pa": 3389,
      "geograph": 3390,
      "##sey": 3391,
      "commencement": 3392,
      "##lusion": 3393,
      "txt": 3394,
      "opportunities": 3395,
      "##ception": 3396,
      "shown": 3397,
      "hedging": 3398,
      "might": 3399,
      "countries": 3400,
      "affecting": 3401,
      "television": 3402,
      "unrealized": 3403,
      "called": 3404,
      "guarantees": 3405,
      "drill": 3406,
      "##ensed": 3407,
      "straight": 3408,
      "chemical": 3409,
      "automo": 3410,
      "##onse": 3411,
      "integrated": 3412,
      "suble": 3413,
      "representatives": 3414,
      "phase": 3415,
      "prefer": 3416,
      "providers": 3417,
      "##gest": 3418,
      "91": 3419,
      "##care": 3420,
      "particularly": 3421,
      "requirement": 3422,
      "provider": 3423,
      "##ining": 3424,
      "books": 3425,
      "response": 3426,
      "channel": 3427,
      "##read": 3428,
      "concent": 3429,
      "seek": 3430,
      "near": 3431,
      "wholes": 3432,
      "reinsurance": 3433,
      "involved": 3434,
      "telecomm": 3435,
      "indemnified": 3436,
      "legis": 3437,
      "250": 3438,
      "##ody": 3439,
      "omitted": 3440,
      "miss": 3441,
      "83": 3442,
      "##omp": 3443,
      "dependent": 3444,
      "jr": 3445,
      "pharmaceu": 3446,
      "##duct": 3447,
      "assigns": 3448,
      "obligated": 3449,
      "subsection": 3450,
      "kind": 3451,
      "declared": 3452,
      "acceptable": 3453,
      "sk": 3454,
      "backed": 3455,
      "multiple": 3456,
      "maintaining": 3457,
      "franchise": 3458,
      "profits": 3459,
      "nomin": 3460,
      "hard": 3461,
      "conformity": 3462,
      "conflic": 3463,
      "mex": 3464,
      "plat": 3465,
      "illino": 3466,
      "##utation": 3467,
      "managed": 3468,
      "ohio": 3469,
      "furnished": 3470,
      "##tice": 3471,
      "timing": 3472,
      "concentr": 3473,
      "defici": 3474,
      "xxx": 3475,
      "refund": 3476,
      "nuclear": 3477,
      "cell": 3478,
      "prevent": 3479,
      "93": 3480,
      "manufacture": 3481,
      "##ery": 3482,
      "commencing": 3483,
      "created": 3484,
      "thereby": 3485,
      "##onduct": 3486,
      "functions": 3487,
      "insp": 3488,
      "operated": 3489,
      "promo": 3490,
      "##eco": 3491,
      "automatic": 3492,
      "##tiff": 3493,
      "##draw": 3494,
      "##gen": 3495,
      "##erv": 3496,
      "renewal": 3497,
      "clients": 3498,
      "regional": 3499,
      "##aneous": 3500,
      "withdraw": 3501,
      "##eep": 3502,
      "142": 3503,
      "##ology": 3504,
      "contributed": 3505,
      "treasurer": 3506,
      "mill": 3507,
      "mortgag": 3508,
      "uses": 3509,
      "worldwide": 3510,
      "plaintiff": 3511,
      "illinois": 3512,
      "bearing": 3513,
      "copies": 3514,
      "attr": 3515,
      "unsec": 3516,
      "permits": 3517,
      "waste": 3518,
      "unsecured": 3519,
      "occurs": 3520,
      "gaap": 3521,
      "##law": 3522,
      "sens": 3523,
      "sites": 3524,
      "presents": 3525,
      "foot": 3526,
      "conj": 3527,
      "modification": 3528,
      "enterprise": 3529,
      "##force": 3530,
      "list": 3531,
      "georg": 3532,
      "largest": 3533,
      "goods": 3534,
      "##tional": 3535,
      "lou": 3536,
      "vary": 3537,
      "show": 3538,
      "totaling": 3539,
      "commod": 3540,
      "representative": 3541,
      "##west": 3542,
      "##empt": 3543,
      "wireless": 3544,
      "became": 3545,
      "rang": 3546,
      "mass": 3547,
      "##roll": 3548,
      "wide": 3549,
      "taking": 3550,
      "##br": 3551,
      "types": 3552,
      "##yond": 3553,
      "even": 3554,
      "conjunction": 3555,
      "contrary": 3556,
      "georgia": 3557,
      "##att": 3558,
      "jer": 3559,
      "media": 3560,
      "144": 3561,
      "conven": 3562,
      "1989": 3563,
      "##ville": 3564,
      "penns": 3565,
      "credited": 3566,
      "covenant": 3567,
      "protect": 3568,
      "match": 3569,
      "underst": 3570,
      "appointed": 3571,
      "james": 3572,
      "##vania": 3573,
      "accur": 3574,
      "htm": 3575,
      "ongoing": 3576,
      "133": 3577,
      "##ylvania": 3578,
      "field": 3579,
      "pennsylvania": 3580,
      "unc": 3581,
      "contains": 3582,
      "derived": 3583,
      "focus": 3584,
      "leasing": 3585,
      "governing": 3586,
      "community": 3587,
      "##ron": 3588,
      "added": 3589,
      "##ulation": 3590,
      "proportion": 3591,
      "##ford": 3592,
      "##enty": 3593,
      "credits": 3594,
      "pledge": 3595,
      "utilities": 3596,
      "120": 3597,
      "delin": 3598,
      "season": 3599,
      "margins": 3600,
      "platform": 3601,
      "invested": 3602,
      "publish": 3603,
      "mach": 3604,
      "##fill": 3605,
      "cooper": 3606,
      "dep": 3607,
      "articles": 3608,
      "##vey": 3609,
      "core": 3610,
      "consisting": 3611,
      "satisf": 3612,
      "##izing": 3613,
      "assignee": 3614,
      "rich": 3615,
      "possession": 3616,
      "enforcement": 3617,
      "resid": 3618,
      "meetings": 3619,
      "generating": 3620,
      "uncertainties": 3621,
      "doub": 3622,
      "carryfor": 3623,
      "1986": 3624,
      "witness": 3625,
      "defense": 3626,
      "volati": 3627,
      "indemnit": 3628,
      "portions": 3629,
      "continues": 3630,
      "ms": 3631,
      "##bs": 3632,
      "##tro": 3633,
      "##ened": 3634,
      "impaired": 3635,
      "him": 3636,
      "virgin": 3637,
      "operates": 3638,
      "err": 3639,
      "louis": 3640,
      "implementation": 3641,
      "healthcare": 3642,
      "reach": 3643,
      "royalty": 3644,
      "draw": 3645,
      "gaming": 3646,
      "controlled": 3647,
      "prepaid": 3648,
      "supplementary": 3649,
      "telecommunications": 3650,
      "reconc": 3651,
      "digital": 3652,
      "submitted": 3653,
      "emerg": 3654,
      "methods": 3655,
      "structure": 3656,
      "hum": 3657,
      "remedi": 3658,
      "limits": 3659,
      "comprised": 3660,
      "ra": 3661,
      "##daq": 3662,
      "uni": 3663,
      "##ds": 3664,
      "nasdaq": 3665,
      "periodic": 3666,
      "indemnify": 3667,
      "numer": 3668,
      "true": 3669,
      "calculation": 3670,
      "seven": 3671,
      "notify": 3672,
      "##kes": 3673,
      "dele": 3674,
      "wholesale": 3675,
      "difference": 3676,
      "repayment": 3677,
      "surviv": 3678,
      "##01": 3679,
      "201": 3680,
      "alter": 3681,
      "beyond": 3682,
      "sponsor": 3683,
      "irre": 3684,
      "1122": 3685,
      "changed": 3686,
      "proc": 3687,
      "600": 3688,
      "client": 3689,
      "minor": 3690,
      "originator": 3691,
      "parts": 3692,
      "park": 3693,
      "profitability": 3694,
      "recognize": 3695,
      "##iers": 3696,
      "face": 3697,
      "mand": 3698,
      "merchand": 3699,
      "contractor": 3700,
      "il": 3701,
      "entr": 3702,
      "east": 3703,
      "##str": 3704,
      "##tirement": 3705,
      "country": 3706,
      "instr": 3707,
      "coal": 3708,
      "jersey": 3709,
      "press": 3710,
      "critical": 3711,
      "reflects": 3712,
      "##uting": 3713,
      "resign": 3714,
      "eas": 3715,
      "communic": 3716,
      "weak": 3717,
      "ny": 3718,
      "eurod": 3719,
      "traded": 3720,
      "guarantors": 3721,
      "sarb": 3722,
      "eurodollar": 3723,
      "##ba": 3724,
      "projected": 3725,
      "##reat": 3726,
      "vest": 3727,
      "individuals": 3728,
      "fraud": 3729,
      "sarbanes": 3730,
      "authorities": 3731,
      "complaint": 3732,
      "oxley": 3733,
      "##ading": 3734,
      "whom": 3735,
      "began": 3736,
      "satisfy": 3737,
      "penalties": 3738,
      "##bile": 3739,
      "##wood": 3740,
      "postre": 3741,
      "investigation": 3742,
      "sharing": 3743,
      "postretirement": 3744,
      "##54": 3745,
      "approvals": 3746,
      "sci": 3747,
      "threat": 3748,
      "infring": 3749,
      "feat": 3750,
      "alleged": 3751,
      "ferc": 3752,
      "xxxxx": 3753,
      "advant": 3754,
      "##32": 3755,
      "distributors": 3756,
      "reductions": 3757,
      "##pm": 3758,
      "relief": 3759,
      "involving": 3760,
      "vers": 3761,
      "commissions": 3762,
      "##astr": 3763,
      "rein": 3764,
      "irs": 3765,
      "training": 3766,
      "supervision": 3767,
      "thousand": 3768,
      "consisted": 3769,
      "xxxxxx": 3770,
      "outc": 3771,
      "##ael": 3772,
      "##alid": 3773,
      "spl": 3774,
      "debtor": 3775,
      "hy": 3776,
      "##rup": 3777,
      "vii": 3778,
      "interim": 3779,
      "recently": 3780,
      "##house": 3781,
      "improvement": 3782,
      "networks": 3783,
      "advanced": 3784,
      "forms": 3785,
      "hours": 3786,
      "thom": 3787,
      "##issory": 3788,
      "opportunity": 3789,
      "carried": 3790,
      "mix": 3791,
      "classification": 3792,
      "exceeds": 3793,
      "promissory": 3794,
      "mi": 3795,
      "acts": 3796,
      "supplier": 3797,
      "800": 3798,
      "deed": 3799,
      "invalid": 3800,
      "university": 3801,
      "denomin": 3802,
      "satisfaction": 3803,
      "##uck": 3804,
      "indemnitee": 3805,
      "canadian": 3806,
      "##ient": 3807,
      "announced": 3808,
      "pipeline": 3809,
      "offers": 3810,
      "##oints": 3811,
      "##arks": 3812,
      "2008": 3813,
      "practice": 3814,
      "king": 3815,
      "integral": 3816,
      "fid": 3817,
      "carol": 3818,
      "mexico": 3819,
      "hear": 3820,
      "create": 3821,
      "david": 3822,
      "desir": 3823,
      "##cs": 3824,
      "organizations": 3825,
      "ware": 3826,
      "devices": 3827,
      "strong": 3828,
      "virginia": 3829,
      "##aci": 3830,
      "##ep": 3831,
      "securitiz": 3832,
      "atl": 3833,
      "##idge": 3834,
      "far": 3835,
      "spr": 3836,
      "##ls": 3837,
      "absence": 3838,
      "half": 3839,
      "michael": 3840,
      "intends": 3841,
      "cho": 3842,
      "##voc": 3843,
      "1988": 3844,
      "exchang": 3845,
      "specialty": 3846,
      "twenty": 3847,
      "covering": 3848,
      "fcc": 3849,
      "human": 3850,
      "film": 3851,
      "omission": 3852,
      "shipp": 3853,
      "irrevoc": 3854,
      "annu": 3855,
      "supplies": 3856,
      "##iber": 3857,
      "creditors": 3858,
      "md": 3859,
      "geographic": 3860,
      "complex": 3861,
      "certifying": 3862,
      "size": 3863,
      "examination": 3864,
      "corresponding": 3865,
      "forfe": 3866,
      "developing": 3867,
      "attention": 3868,
      "quanti": 3869,
      "##ently": 3870,
      "seeking": 3871,
      "deferral": 3872,
      "ebit": 3873,
      "secure": 3874,
      "plants": 3875,
      "tra": 3876,
      "##che": 3877,
      "processes": 3878,
      "achieve": 3879,
      "hel": 3880,
      "effectively": 3881,
      "##iture": 3882,
      "##undred": 3883,
      "##ibilities": 3884,
      "##ry": 3885,
      "therefor": 3886,
      "sun": 3887,
      "vide": 3888,
      "##tainment": 3889,
      "removal": 3890,
      "correct": 3891,
      "interc": 3892,
      "906": 3893,
      "keep": 3894,
      "points": 3895,
      "dispute": 3896,
      "pledged": 3897,
      "rap": 3898,
      "yes": 3899,
      "underwriting": 3900,
      "guidel": 3901,
      "##04": 3902,
      "soon": 3903,
      "quarters": 3904,
      "hundred": 3905,
      "raw": 3906,
      "anticipate": 3907,
      "membership": 3908,
      "identification": 3909,
      "##ww": 3910,
      "station": 3911,
      "las": 3912,
      "measured": 3913,
      "assessing": 3914,
      "receives": 3915,
      "##ada": 3916,
      "remedy": 3917,
      "lin": 3918,
      "##estern": 3919,
      "broadc": 3920,
      "important": 3921,
      "examp": 3922,
      "##ental": 3923,
      "##itable": 3924,
      "pooling": 3925,
      "responsibilities": 3926,
      "##cific": 3927,
      "improve": 3928,
      "bancorp": 3929,
      "black": 3930,
      "##bm": 3931,
      "##erman": 3932,
      "measurement": 3933,
      "acting": 3934,
      "degree": 3935,
      "ventures": 3936,
      "##fr": 3937,
      "pacific": 3938,
      "##audited": 3939,
      "unaudited": 3940,
      "##uit": 3941,
      "##na": 3942,
      "investing": 3943,
      "gold": 3944,
      "discharge": 3945,
      "nonc": 3946,
      "##ars": 3947,
      "prospective": 3948,
      "predecess": 3949,
      "drilling": 3950,
      "electricity": 3951,
      "intention": 3952,
      "maintains": 3953,
      "carryforwards": 3954,
      "##tition": 3955,
      "appeal": 3956,
      "109": 3957,
      "determines": 3958,
      "revised": 3959,
      "obtaining": 3960,
      "##hl": 3961,
      "##istics": 3962,
      "along": 3963,
      "rapid": 3964,
      "color": 3965,
      "assumption": 3966,
      "misst": 3967,
      "problem": 3968,
      "voluntary": 3969,
      "cancel": 3970,
      "trends": 3971,
      "subsequently": 3972,
      "consents": 3973,
      "names": 3974,
      "improved": 3975,
      "ther": 3976,
      "##tivity": 3977,
      "treated": 3978,
      "supporting": 3979,
      "remediation": 3980,
      "anti": 3981,
      "##wer": 3982,
      "compos": 3983,
      "##itch": 3984,
      "##ma": 3985,
      "licensing": 3986,
      "suite": 3987,
      "dissol": 3988,
      "disburs": 3989,
      "indemnity": 3990,
      "commodity": 3991,
      "assistant": 3992,
      "bylaw": 3993,
      "judgments": 3994,
      "cease": 3995,
      "perman": 3996,
      "buildings": 3997,
      "annivers": 3998,
      "counterparts": 3999,
      "commenced": 4000,
      "signatures": 4001,
      "##rought": 4002,
      "##ago": 4003,
      "125": 4004,
      "organized": 4005,
      "makes": 4006,
      "##ott": 4007,
      "rsa": 4008,
      "ground": 4009,
      "allows": 4010,
      "publicly": 4011,
      "allowances": 4012,
      "carolina": 4013,
      "consummation": 4014,
      "cat": 4015,
      "disag": 4016,
      "involve": 4017,
      "successfully": 4018,
      "dail": 4019,
      "clean": 4020,
      "appr": 4021,
      "##si": 4022,
      "##ousing": 4023,
      "formed": 4024,
      "inher": 4025,
      "explor": 4026,
      "1987": 4027,
      "collabor": 4028,
      "expires": 4029,
      "rata": 4030,
      "appra": 4031,
      "trademarks": 4032,
      "dur": 4033,
      "www": 4034,
      "engage": 4035,
      "acquiring": 4036,
      "unf": 4037,
      "patients": 4038,
      "13a": 4039,
      "evaluated": 4040,
      "sellers": 4041,
      "daily": 4042,
      "##30": 4043,
      "ultimate": 4044,
      "yet": 4045,
      "brought": 4046,
      "programm": 4047,
      "withholding": 4048,
      "qualifying": 4049,
      "vendors": 4050,
      "##ones": 4051,
      "contingencies": 4052,
      "predict": 4053,
      "measure": 4054,
      "purchasing": 4055,
      "appointment": 4056,
      "##opp": 4057,
      "##yz": 4058,
      "allowed": 4059,
      "ebitda": 4060,
      "discover": 4061,
      "##ota": 4062,
      "##tts": 4063,
      "##soever": 4064,
      "obligor": 4065,
      "certify": 4066,
      "reserved": 4067,
      "physic": 4068,
      "##gated": 4069,
      "generate": 4070,
      "ip": 4071,
      "##lity": 4072,
      "intend": 4073,
      "leverage": 4074,
      "grantor": 4075,
      "relate": 4076,
      "enable": 4077,
      "operational": 4078,
      "##ancing": 4079,
      "phone": 4080,
      "establishing": 4081,
      "steel": 4082,
      "lieu": 4083,
      "guidelines": 4084,
      "whereof": 4085,
      "installments": 4086,
      "##ticable": 4087,
      "split": 4088,
      "star": 4089,
      "therap": 4090,
      "##tric": 4091,
      "consultant": 4092,
      "##mc": 4093,
      "aven": 4094,
      "utilized": 4095,
      "chase": 4096,
      "##water": 4097,
      "radio": 4098,
      "floor": 4099,
      "divers": 4100,
      "road": 4101,
      "##tter": 4102,
      "occup": 4103,
      "video": 4104,
      "thomas": 4105,
      "##ev": 4106,
      "doubt": 4107,
      "jap": 4108,
      "travel": 4109,
      "outcome": 4110,
      "acknowledges": 4111,
      "volatility": 4112,
      "header": 4113,
      "eight": 4114,
      "##itation": 4115,
      "european": 4116,
      "bylaws": 4117,
      "receiving": 4118,
      "##pancy": 4119,
      "scope": 4120,
      "richard": 4121,
      "released": 4122,
      "redeemed": 4123,
      "lesser": 4124,
      "lawful": 4125,
      "##bank": 4126,
      "massach": 4127,
      "massachuse": 4128,
      "separately": 4129,
      "massachusetts": 4130,
      "requiring": 4131,
      "view": 4132,
      "derivatives": 4133,
      "##abilities": 4134,
      "insol": 4135,
      "disagre": 4136,
      "##cell": 4137,
      "occu": 4138,
      "solic": 4139,
      "prospect": 4140,
      "chic": 4141,
      "legislation": 4142,
      "dealer": 4143,
      "##ectives": 4144,
      "##ually": 4145,
      "##ols": 4146,
      "pages": 4147,
      "old": 4148,
      "anniversary": 4149,
      "##tt": 4150,
      "ratios": 4151,
      "extra": 4152,
      "exists": 4153,
      "##ligh": 4154,
      "ship": 4155,
      "measures": 4156,
      "expressed": 4157,
      "cyc": 4158,
      "shor": 4159,
      "committed": 4160,
      "##urring": 4161,
      "manufacturer": 4162,
      "satisfied": 4163,
      "prod": 4164,
      "automatically": 4165,
      "regulated": 4166,
      "ranging": 4167,
      "fails": 4168,
      "historically": 4169,
      "word": 4170,
      "governed": 4171,
      "planning": 4172,
      "sus": 4173,
      "##oth": 4174,
      "eth": 4175,
      "representation": 4176,
      "offerings": 4177,
      "occupancy": 4178,
      "chap": 4179,
      "##izon": 4180,
      "leading": 4181,
      "bul": 4182,
      "team": 4183,
      "example": 4184,
      "casual": 4185,
      "##where": 4186,
      "validity": 4187,
      "pertain": 4188,
      "involves": 4189,
      "je": 4190,
      "##held": 4191,
      "chicago": 4192,
      "tradition": 4193,
      "##agn": 4194,
      "sentence": 4195,
      "whatsoever": 4196,
      "wil": 4197,
      "##ersed": 4198,
      "closed": 4199,
      "##uctions": 4200,
      "mary": 4201,
      "vendor": 4202,
      "##head": 4203,
      "volumes": 4204,
      "cancell": 4205,
      "conse": 4206,
      "auditing": 4207,
      "cross": 4208,
      "substance": 4209,
      "millions": 4210,
      "authorization": 4211,
      "depending": 4212,
      "mot": 4213,
      "extern": 4214,
      "##ude": 4215,
      "fulfill": 4216,
      "late": 4217,
      "consequ": 4218,
      "excluded": 4219,
      "apart": 4220,
      "bound": 4221,
      "101": 4222,
      "therewith": 4223,
      "designation": 4224,
      "dism": 4225,
      "existence": 4226,
      "##oted": 4227,
      "worth": 4228,
      "else": 4229,
      "investig": 4230,
      "##ald": 4231,
      "defendants": 4232,
      "nev": 4233,
      "##imin": 4234,
      "administer": 4235,
      "austr": 4236,
      "##uty": 4237,
      "capaci": 4238,
      "dealers": 4239,
      "minority": 4240,
      "documentation": 4241,
      "##me": 4242,
      "priority": 4243,
      "category": 4244,
      "relates": 4245,
      "##back": 4246,
      "practicable": 4247,
      "appreciation": 4248,
      "capacities": 4249,
      "##ero": 4250,
      "computation": 4251,
      "predecessor": 4252,
      "licensee": 4253,
      "prepay": 4254,
      "individually": 4255,
      "lab": 4256,
      "apb": 4257,
      "##ift": 4258,
      "qualify": 4259,
      "week": 4260,
      "placed": 4261,
      "columb": 4262,
      "##sim": 4263,
      "gran": 4264,
      "bud": 4265,
      "##burse": 4266,
      "decisions": 4267,
      "transfers": 4268,
      "##ado": 4269,
      "gul": 4270,
      "plaintiffs": 4271,
      "merchandise": 4272,
      "formerly": 4273,
      "physical": 4274,
      "produced": 4275,
      "threatened": 4276,
      "##lu": 4277,
      "nothing": 4278,
      "produce": 4279,
      "rendered": 4280,
      "##qual": 4281,
      "nevada": 4282,
      "##ony": 4283,
      "##apital": 4284,
      "recomm": 4285,
      "##quar": 4286,
      "surviving": 4287,
      "shorter": 4288,
      "amounted": 4289,
      "rat": 4290,
      "turn": 4291,
      "civ": 4292,
      "trademark": 4293,
      "external": 4294,
      "anything": 4295,
      "mortgages": 4296,
      "cand": 4297,
      "formul": 4298,
      "intent": 4299,
      "weakness": 4300,
      "leasehold": 4301,
      "purchasers": 4302,
      "##int": 4303,
      "waived": 4304,
      "nu": 4305,
      "##encing": 4306,
      "pharmaceutical": 4307,
      "users": 4308,
      "assume": 4309,
      "avenue": 4310,
      "restaurants": 4311,
      "transfere": 4312,
      "##lands": 4313,
      "herewith": 4314,
      "redeemable": 4315,
      "top": 4316,
      "inflation": 4317,
      "##ports": 4318,
      "delinquent": 4319,
      "##bc": 4320,
      "prescribed": 4321,
      "sublease": 4322,
      "pan": 4323,
      "payroll": 4324,
      "safe": 4325,
      "consultants": 4326,
      "junior": 4327,
      "holds": 4328,
      "larger": 4329,
      "##fc": 4330,
      "syn": 4331,
      "additions": 4332,
      "strategies": 4333,
      "##dom": 4334,
      "realty": 4335,
      "700": 4336,
      "numerous": 4337,
      "marketable": 4338,
      "discounted": 4339,
      "reit": 4340,
      "actually": 4341,
      "gulf": 4342,
      "objectives": 4343,
      "operator": 4344,
      "carriers": 4345,
      "valued": 4346,
      "house": 4347,
      "stations": 4348,
      "##time": 4349,
      "har": 4350,
      "##ri": 4351,
      "river": 4352,
      "ques": 4353,
      "manufactured": 4354,
      "conclud": 4355,
      "headquar": 4356,
      "suffer": 4357,
      "tm": 4358,
      "##verse": 4359,
      "integration": 4360,
      "connec": 4361,
      "lp": 4362,
      "sg": 4363,
      "900": 4364,
      "definitions": 4365,
      "tier": 4366,
      "remainder": 4367,
      "##lements": 4368,
      "placement": 4369,
      "hardware": 4370,
      "kingdom": 4371,
      "reimburse": 4372,
      "##app": 4373,
      "constitutes": 4374,
      "405": 4375,
      "identify": 4376,
      "entertainment": 4377,
      "approach": 4378,
      "strength": 4379,
      "##ourse": 4380,
      "serving": 4381,
      "custod": 4382,
      "##ompany": 4383,
      "##atell": 4384,
      "assessments": 4385,
      "annuity": 4386,
      "presently": 4387,
      "approximate": 4388,
      "impacted": 4389,
      "box": 4390,
      "louisiana": 4391,
      "ceo": 4392,
      "effici": 4393,
      "motion": 4394,
      "filings": 4395,
      "disagreements": 4396,
      "executives": 4397,
      "succeed": 4398,
      "boston": 4399,
      "reconcili": 4400,
      "capabilities": 4401,
      "difficult": 4402,
      "##ask": 4403,
      "seal": 4404,
      "elsewhere": 4405,
      "repaid": 4406,
      "dismiss": 4407,
      "unen": 4408,
      "flex": 4409,
      "intercompany": 4410,
      "inn": 4411,
      "medicare": 4412,
      "##21": 4413,
      "guidance": 4414,
      "petr": 4415,
      "self": 4416,
      "virt": 4417,
      "disposed": 4418,
      "fraction": 4419,
      "unenforce": 4420,
      "##echan": 4421,
      "nine": 4422,
      "##itf": 4423,
      "fdic": 4424,
      "entry": 4425,
      "restaurant": 4426,
      "apprais": 4427,
      "##laim": 4428,
      "programming": 4429,
      "drive": 4430,
      "medi": 4431,
      "##oming": 4432,
      "factor": 4433,
      "##20": 4434,
      "deficiencies": 4435,
      "viii": 4436,
      "managers": 4437,
      "extraordin": 4438,
      "##ave": 4439,
      "trials": 4440,
      "##vency": 4441,
      "classes": 4442,
      "direction": 4443,
      "installation": 4444,
      "evaluate": 4445,
      "infrastr": 4446,
      "housing": 4447,
      "##inter": 4448,
      "considers": 4449,
      "extraordinary": 4450,
      "ple": 4451,
      "eitf": 4452,
      "##uci": 4453,
      "expectations": 4454,
      "done": 4455,
      "##anta": 4456,
      "chapter": 4457,
      "surrender": 4458,
      "austral": 4459,
      "sells": 4460,
      "satell": 4461,
      "actuar": 4462,
      "prevail": 4463,
      "##99": 4464,
      "educ": 4465,
      "properly": 4466,
      "monitoring": 4467,
      "##nes": 4468,
      "itself": 4469,
      "royalties": 4470,
      "trustees": 4471,
      "##allen": 4472,
      "##ions": 4473,
      "##ansas": 4474,
      "infrastruct": 4475,
      "withheld": 4476,
      "developments": 4477,
      "content": 4478,
      "##eme": 4479,
      "implemented": 4480,
      "often": 4481,
      "conflict": 4482,
      "statute": 4483,
      "##plus": 4484,
      "##sn": 4485,
      "upd": 4486,
      "serves": 4487,
      "join": 4488,
      "rather": 4489,
      "15d": 4490,
      "tangible": 4491,
      "regardless": 4492,
      "casualty": 4493,
      "casino": 4494,
      "summarized": 4495,
      "quoted": 4496,
      "##field": 4497,
      "mechan": 4498,
      "mem": 4499,
      "eliminated": 4500,
      "issuable": 4501,
      "##itative": 4502,
      "1933": 4503,
      "institutional": 4504,
      "awarded": 4505,
      "enforceable": 4506,
      "defaul": 4507,
      "##simile": 4508,
      "modifications": 4509,
      "dissolution": 4510,
      "absol": 4511,
      "advantage": 4512,
      "convey": 4513,
      "standing": 4514,
      "probable": 4515,
      "##oleum": 4516,
      "patient": 4517,
      "edison": 4518,
      "technological": 4519,
      "quantit": 4520,
      "foreclos": 4521,
      "western": 4522,
      "earning": 4523,
      "##fo": 4524,
      "petition": 4525,
      "absolute": 4526,
      "evidenced": 4527,
      "morgan": 4528,
      "tenants": 4529,
      "wind": 4530,
      "quantitative": 4531,
      "inherent": 4532,
      "cancellation": 4533,
      "neglig": 4534,
      "whenever": 4535,
      "##airs": 4536,
      "repairs": 4537,
      "sil": 4538,
      "spouse": 4539,
      "civil": 4540,
      "floating": 4541,
      "positive": 4542,
      "resignation": 4543,
      "traditional": 4544,
      "arise": 4545,
      "et": 4546,
      "green": 4547,
      "##ft": 4548,
      "##ecutive": 4549,
      "examining": 4550,
      "##usts": 4551,
      "afor": 4552,
      "tranch": 4553,
      "##24": 4554,
      "##igan": 4555,
      "infrastructure": 4556,
      "##mark": 4557,
      "mess": 4558,
      "##unto": 4559,
      "##vement": 4560,
      "##ios": 4561,
      "facsimile": 4562,
      "caption": 4563,
      "consecutive": 4564,
      "commerce": 4565,
      "inability": 4566,
      "incident": 4567,
      "##ama": 4568,
      "##we": 4569,
      "initially": 4570,
      "##off": 4571,
      "relation": 4572,
      "better": 4573,
      "##ca": 4574,
      "candid": 4575,
      "compound": 4576,
      "fall": 4577,
      "untr": 4578,
      "challen": 4579,
      "##oid": 4580,
      "promul": 4581,
      "##que": 4582,
      "duty": 4583,
      "arch": 4584,
      "##ism": 4585,
      "advisory": 4586,
      "##fg": 4587,
      "progress": 4588,
      "don": 4589,
      "rely": 4590,
      "untrue": 4591,
      "##14": 4592,
      "controlling": 4593,
      "remains": 4594,
      "communication": 4595,
      "german": 4596,
      "##view": 4597,
      "requests": 4598,
      "##state": 4599,
      "exploration": 4600,
      "ado": 4601,
      "expensed": 4602,
      "designate": 4603,
      "##ience": 4604,
      "##ality": 4605,
      "indiana": 4606,
      "potentially": 4607,
      "##qualified": 4608,
      "summarizes": 4609,
      "##entic": 4610,
      "retention": 4611,
      "highest": 4612,
      "misle": 4613,
      "matching": 4614,
      "##rec": 4615,
      "consumers": 4616,
      "##log": 4617,
      "##till": 4618,
      "reliance": 4619,
      "prospectus": 4620,
      "maryland": 4621,
      "encumb": 4622,
      "extensive": 4623,
      "##ibles": 4624,
      "##ifies": 4625,
      "upgr": 4626,
      "swaps": 4627,
      "beneficially": 4628,
      "misleading": 4629,
      "cur": 4630,
      "entirety": 4631,
      "acceleration": 4632,
      "permanent": 4633,
      "##inations": 4634,
      "swing": 4635,
      "rail": 4636,
      "jose": 4637,
      "##teen": 4638,
      "usa": 4639,
      "affairs": 4640,
      "continuation": 4641,
      "encumbr": 4642,
      "##enth": 4643,
      "semic": 4644,
      "prohibited": 4645,
      "##iff": 4646,
      "fhl": 4647,
      "transferee": 4648,
      "granting": 4649,
      "##ha": 4650,
      "webs": 4651,
      "peop": 4652,
      "fiduci": 4653,
      "1350": 4654,
      "changing": 4655,
      "modify": 4656,
      "assuming": 4657,
      "actuarial": 4658,
      "reliability": 4659,
      "utilize": 4660,
      "hotels": 4661,
      "settled": 4662,
      "semiconduct": 4663,
      "borrowed": 4664,
      "##angibles": 4665,
      "750": 4666,
      "periodically": 4667,
      "corporations": 4668,
      "qualitative": 4669,
      "intangibles": 4670,
      "utilization": 4671,
      "lawsuit": 4672,
      "facts": 4673,
      "##oles": 4674,
      "dise": 4675,
      "relatively": 4676,
      "##oma": 4677,
      "##nc": 4678,
      "containing": 4679,
      "##iable": 4680,
      "##light": 4681,
      "doubtful": 4682,
      "frame": 4683,
      "196": 4684,
      "ren": 4685,
      "emb": 4686,
      "petroleum": 4687,
      "##entioned": 4688,
      "##rs": 4689,
      "michigan": 4690,
      "recoverable": 4691,
      "producing": 4692,
      "help": 4693,
      "reducing": 4694,
      "warehouse": 4695,
      "enterprises": 4696,
      "put": 4697,
      "superior": 4698,
      "china": 4699,
      "authentic": 4700,
      "302": 4701,
      "ratings": 4702,
      "promulgated": 4703,
      "misstatement": 4704,
      "##ished": 4705,
      "delays": 4706,
      "##ening": 4707,
      "installment": 4708,
      "excep": 4709,
      "##unch": 4710,
      "categories": 4711,
      "territ": 4712,
      "dist": 4713,
      "automotive": 4714,
      "youn": 4715,
      "rise": 4716,
      "handling": 4717,
      "characteristics": 4718,
      "cd": 4719,
      "uniform": 4720,
      "commence": 4721,
      "##fies": 4722,
      "asp": 4723,
      "##ously": 4724,
      "fixt": 4725,
      "homes": 4726,
      "001": 4727,
      "##25": 4728,
      "insolvency": 4729,
      "mississ": 4730,
      "tests": 4731,
      "##sm": 4732,
      "vis": 4733,
      "declined": 4734,
      "etc": 4735,
      "vehicle": 4736,
      "once": 4737,
      "whereby": 4738,
      "mu": 4739,
      "disclose": 4740,
      "pop": 4741,
      "user": 4742,
      "tender": 4743,
      "submit": 4744,
      "assemb": 4745,
      "tranche": 4746,
      "inception": 4747,
      "115": 4748,
      "japan": 4749,
      "defic": 4750,
      "pledg": 4751,
      "enhance": 4752,
      "bur": 4753,
      "##contr": 4754,
      "##gas": 4755,
      "recourse": 4756,
      "106": 4757,
      "##lock": 4758,
      "surplus": 4759,
      "lump": 4760,
      "originally": 4761,
      "sixty": 4762,
      "pertaining": 4763,
      "words": 4764,
      "fire": 4765,
      "interf": 4766,
      "complied": 4767,
      "smith": 4768,
      "clauses": 4769,
      "replaced": 4770,
      "##ticut": 4771,
      "mississipp": 4772,
      "clar": 4773,
      "connecticut": 4774,
      "length": 4775,
      "owed": 4776,
      "mississippi": 4777,
      "distributor": 4778,
      "pron": 4779,
      "log": 4780,
      "##urb": 4781,
      "meanings": 4782,
      "ix": 4783,
      "##more": 4784,
      "##oph": 4785,
      "contractors": 4786,
      "achieved": 4787,
      "political": 4788,
      "assure": 4789,
      "initiatives": 4790,
      "uncertainty": 4791,
      "nin": 4792,
      "copyr": 4793,
      "fleet": 4794,
      "adopt": 4795,
      "2009": 4796,
      "##erve": 4797,
      "deposited": 4798,
      "gp": 4799,
      "limiting": 4800,
      "select": 4801,
      "circuit": 4802,
      "exit": 4803,
      "##40": 4804,
      "situ": 4805,
      "obs": 4806,
      "planned": 4807,
      "influ": 4808,
      "concluded": 4809,
      "injury": 4810,
      "setting": 4811,
      "fifth": 4812,
      "arm": 4813,
      "jointly": 4814,
      "workers": 4815,
      "mandatory": 4816,
      "terminates": 4817,
      "pronoun": 4818,
      "features": 4819,
      "##ring": 4820,
      "driv": 4821,
      "110": 4822,
      "vehicles": 4823,
      "deductions": 4824,
      "enacted": 4825,
      "##cellaneous": 4826,
      "bel": 4827,
      "##vested": 4828,
      "wal": 4829,
      "respond": 4830,
      "deduction": 4831,
      "miscellaneous": 4832,
      "substances": 4833,
      "furniture": 4834,
      "reviews": 4835,
      "valley": 4836,
      "references": 4837,
      "satellite": 4838,
      "##37": 4839,
      "hedges": 4840,
      "fiduciary": 4841,
      "applies": 4842,
      "futures": 4843,
      "supplemented": 4844,
      "young": 4845,
      "lawsuits": 4846,
      "packaging": 4847,
      "goals": 4848,
      "enhanc": 4849,
      "collected": 4850,
      "overs": 4851,
      "distribute": 4852,
      "spending": 4853,
      "weather": 4854,
      "asia": 4855,
      "mac": 4856,
      "trusts": 4857,
      "columbia": 4858,
      "collect": 4859,
      "colorado": 4860,
      "reconciliation": 4861,
      "munic": 4862,
      "130": 4863,
      "coup": 4864,
      "municip": 4865,
      "##illed": 4866,
      "exempt": 4867,
      "avoid": 4868,
      "##ez": 4869,
      "translation": 4870,
      "though": 4871,
      "necessarily": 4872,
      "brokerage": 4873,
      "studies": 4874,
      "confidentiality": 4875,
      "online": 4876,
      "ced": 4877,
      "spread": 4878,
      "weaknesses": 4879,
      "reclassified": 4880,
      "tow": 4881,
      "introduc": 4882,
      "##ern": 4883,
      "displ": 4884,
      "contribute": 4885,
      "oral": 4886,
      "problems": 4887,
      "run": 4888,
      "po": 4889,
      "##be": 4890,
      "emission": 4891,
      "00009": 4892,
      "##lot": 4893,
      "needed": 4894,
      "controller": 4895,
      "##gress": 4896,
      "lev": 4897,
      "semiconductor": 4898,
      "tenn": 4899,
      "difficul": 4900,
      "180": 4901,
      "conclusive": 4902,
      "operators": 4903,
      "fab": 4904,
      "depends": 4905,
      "device": 4906,
      "addresses": 4907,
      "club": 4908,
      "deficit": 4909,
      "hill": 4910,
      "northern": 4911,
      "##28": 4912,
      "occurring": 4913,
      "decreases": 4914,
      "chr": 4915,
      "instructions": 4916,
      "room": 4917,
      "restor": 4918,
      "denominated": 4919,
      "##inc": 4920,
      "epa": 4921,
      "duration": 4922,
      "##day": 4923,
      "##onstr": 4924,
      "##mr": 4925,
      "expanded": 4926,
      "currencies": 4927,
      "##ann": 4928,
      "war": 4929,
      "willful": 4930,
      "role": 4931,
      "plas": 4932,
      "joined": 4933,
      "reasons": 4934,
      "lock": 4935,
      "understanding": 4936,
      "##otes": 4937,
      "conclusion": 4938,
      "wood": 4939,
      "salaries": 4940,
      "vesse": 4941,
      "##icial": 4942,
      "demonstr": 4943,
      "phil": 4944,
      "adequacy": 4945,
      "##vest": 4946,
      "body": 4947,
      "trend": 4948,
      "procedure": 4949,
      "groups": 4950,
      "fargo": 4951,
      "electronics": 4952,
      "##kers": 4953,
      "##ported": 4954,
      "endors": 4955,
      "noted": 4956,
      "contam": 4957,
      "owing": 4958,
      "harmless": 4959,
      "initiated": 4960,
      "micro": 4961,
      "dom": 4962,
      "mortgagor": 4963,
      "customary": 4964,
      "##employ": 4965,
      "headquarters": 4966,
      "reflecting": 4967,
      "refinancing": 4968,
      "immediate": 4969,
      "##23": 4970,
      "##gaw": 4971,
      "##wc": 4972,
      "143": 4973,
      "addressed": 4974,
      "communities": 4975,
      "paul": 4976,
      "##27": 4977,
      "ang": 4978,
      "attract": 4979,
      "121": 4980,
      "##60": 4981,
      "recovered": 4982,
      "preference": 4983,
      "still": 4984,
      "bankers": 4985,
      "attest": 4986,
      "channels": 4987,
      "metr": 4988,
      "increment": 4989,
      "cs": 4990,
      "alliance": 4991,
      "reloc": 4992,
      "recip": 4993,
      "replace": 4994,
      "sab": 4995,
      "subscrib": 4996,
      "synd": 4997,
      "declaration": 4998,
      "decom": 4999,
      "removed": 5000,
      "interm": 5001,
      "demands": 5002,
      "specifications": 5003,
      "start": 5004,
      "beneficiaries": 5005,
      "jurisdictions": 5006,
      "convert": 5007,
      "farm": 5008,
      "impose": 5009,
      "perf": 5010,
      "securitization": 5011,
      "label": 5012,
      "##esee": 5013,
      "budget": 5014,
      "##ml": 5015,
      "subcontr": 5016,
      "##15": 5017,
      "##star": 5018,
      "retired": 5019,
      "equitable": 5020,
      "diagn": 5021,
      "acr": 5022,
      "advisor": 5023,
      "poll": 5024,
      "invo": 5025,
      "exact": 5026,
      "thus": 5027,
      "anticipates": 5028,
      "great": 5029,
      "decommission": 5030,
      "##umber": 5031,
      "accrue": 5032,
      "ci": 5033,
      "##ways": 5034,
      "excise": 5035,
      "wisc": 5036,
      "##ians": 5037,
      "unenforceable": 5038,
      "##cements": 5039,
      "1985": 5040,
      "##17": 5041,
      "ss": 5042,
      "underta": 5043,
      "bad": 5044,
      "##ros": 5045,
      "dat": 5046,
      "establishes": 5047,
      "lond": 5048,
      "presence": 5049,
      "##onsin": 5050,
      "discounts": 5051,
      "published": 5052,
      "infringement": 5053,
      "returned": 5054,
      "website": 5055,
      "fixtures": 5056,
      "oversight": 5057,
      "depository": 5058,
      "##ney": 5059,
      "pursue": 5060,
      "school": 5061,
      "expired": 5062,
      "concurr": 5063,
      "bay": 5064,
      "crude": 5065,
      "##hous": 5066,
      "backlog": 5067,
      "##tel": 5068,
      "prevailing": 5069,
      "collections": 5070,
      "affirm": 5071,
      "london": 5072,
      "effected": 5073,
      "supersed": 5074,
      "approve": 5075,
      "##tak": 5076,
      "negligence": 5077,
      "##tingu": 5078,
      "##ble": 5079,
      "employers": 5080,
      "wisconsin": 5081,
      "##ilit": 5082,
      "superv": 5083,
      "##gl": 5084,
      "elements": 5085,
      "mag": 5086,
      "count": 5087,
      "directed": 5088,
      "cp": 5089,
      "mature": 5090,
      "##pmg": 5091,
      "vacation": 5092,
      "aware": 5093,
      "ess": 5094,
      "##the": 5095,
      "judicial": 5096,
      "rents": 5097,
      "construc": 5098,
      "australia": 5099,
      "focused": 5100,
      "privile": 5101,
      "carrier": 5102,
      "kpmg": 5103,
      "capitalization": 5104,
      "reached": 5105,
      "rock": 5106,
      "thereunto": 5107,
      "##orum": 5108,
      "suspend": 5109,
      "debts": 5110,
      "quorum": 5111,
      "diagnos": 5112,
      "efficient": 5113,
      "commercially": 5114,
      "stage": 5115,
      "monetary": 5116,
      "undertak": 5117,
      "proved": 5118,
      "waive": 5119,
      "speed": 5120,
      "brands": 5121,
      "##gets": 5122,
      "reb": 5123,
      "unex": 5124,
      "convenience": 5125,
      "accountant": 5126,
      "syndic": 5127,
      "exception": 5128,
      "quick": 5129,
      "asserted": 5130,
      "auto": 5131,
      "never": 5132,
      "fiber": 5133,
      "##nst": 5134,
      "registrable": 5135,
      "misc": 5136,
      "violations": 5137,
      "municipal": 5138,
      "##ector": 5139,
      "##ana": 5140,
      "separation": 5141,
      "cure": 5142,
      "mortgagee": 5143,
      "mining": 5144,
      "rou": 5145,
      "arbitrator": 5146,
      "errors": 5147,
      "7a": 5148,
      "advisors": 5149,
      "##tip": 5150,
      "sust": 5151,
      "##put": 5152,
      "graph": 5153,
      "grantee": 5154,
      "##dw": 5155,
      "euro": 5156,
      "disbursements": 5157,
      "minnes": 5158,
      "minnesota": 5159,
      "##antic": 5160,
      "effort": 5161,
      "alab": 5162,
      "furthermore": 5163,
      "128": 5164,
      "recording": 5165,
      "alabama": 5166,
      "##tise": 5167,
      "##ques": 5168,
      "institute": 5169,
      "detailed": 5170,
      "af": 5171,
      "appears": 5172,
      "forecas": 5173,
      "fifty": 5174,
      "study": 5175,
      "withdrawal": 5176,
      "##isite": 5177,
      "incremental": 5178,
      "dilig": 5179,
      "inspection": 5180,
      "##rown": 5181,
      "exchanged": 5182,
      "##atch": 5183,
      "going": 5184,
      "gl": 5185,
      "mobile": 5186,
      "##leg": 5187,
      "decommissioning": 5188,
      "108": 5189,
      "107": 5190,
      "dilutive": 5191,
      "frequent": 5192,
      "moun": 5193,
      "irrevocably": 5194,
      "unreason": 5195,
      "ultimately": 5196,
      "eligibility": 5197,
      "launch": 5198,
      "misconduct": 5199,
      "##wa": 5200,
      "assistance": 5201,
      "indef": 5202,
      "appar": 5203,
      "sensitive": 5204,
      "##ares": 5205,
      "proposal": 5206,
      "billing": 5207,
      "##ought": 5208,
      "securing": 5209,
      "##35": 5210,
      "##eseeable": 5211,
      "recapital": 5212,
      "across": 5213,
      "objective": 5214,
      "asb": 5215,
      "dispose": 5216,
      "survive": 5217,
      "interrup": 5218,
      "pu": 5219,
      "fhlb": 5220,
      "attempt": 5221,
      "lap": 5222,
      "framework": 5223,
      "resource": 5224,
      "frank": 5225,
      "camp": 5226,
      "assertion": 5227,
      "2010": 5228,
      "susp": 5229,
      "resell": 5230,
      "motor": 5231,
      "arth": 5232,
      "prospects": 5233,
      "negatively": 5234,
      "##shore": 5235,
      "148": 5236,
      "##75": 5237,
      "extensions": 5238,
      "tools": 5239,
      "##enn": 5240,
      "formula": 5241,
      "##eas": 5242,
      "applying": 5243,
      "very": 5244,
      "facilit": 5245,
      "123r": 5246,
      "enforceability": 5247,
      "waives": 5248,
      "##65": 5249,
      "projections": 5250,
      "omit": 5251,
      "##vr": 5252,
      "revision": 5253,
      "prelimin": 5254,
      "condensed": 5255,
      "offs": 5256,
      "legally": 5257,
      "##89": 5258,
      "resolved": 5259,
      "##80": 5260,
      "innov": 5261,
      "foreclosure": 5262,
      "##ider": 5263,
      "newly": 5264,
      "usu": 5265,
      "selection": 5266,
      "evidencing": 5267,
      "hor": 5268,
      "official": 5269,
      "switch": 5270,
      "indemnifying": 5271,
      "render": 5272,
      "##quency": 5273,
      "discovery": 5274,
      "ok": 5275,
      "implied": 5276,
      "##70": 5277,
      "sustain": 5278,
      "chain": 5279,
      "##down": 5280,
      "subd": 5281,
      "141": 5282,
      "append": 5283,
      "defaults": 5284,
      "chemicals": 5285,
      "collateralized": 5286,
      "exceeded": 5287,
      "competent": 5288,
      "oem": 5289,
      "reportable": 5290,
      "succeeding": 5291,
      "error": 5292,
      "heav": 5293,
      "##549": 5294,
      "candidates": 5295,
      "receipts": 5296,
      "subscription": 5297,
      "##cel": 5298,
      "##ready": 5299,
      "electrical": 5300,
      "installed": 5301,
      "##tes": 5302,
      "seeks": 5303,
      "introduction": 5304,
      "track": 5305,
      "1984": 5306,
      "uncon": 5307,
      "shopp": 5308,
      "therm": 5309,
      "germany": 5310,
      "scholes": 5311,
      "entering": 5312,
      "overhead": 5313,
      "##tine": 5314,
      "##ink": 5315,
      "ke": 5316,
      "already": 5317,
      "##ancy": 5318,
      "notification": 5319,
      "131": 5320,
      "deems": 5321,
      "joining": 5322,
      "residual": 5323,
      "recurring": 5324,
      "105": 5325,
      "ernst": 5326,
      "tennessee": 5327,
      "##ead": 5328,
      "harr": 5329,
      "jack": 5330,
      "broadcast": 5331,
      "interstate": 5332,
      "england": 5333,
      "##uling": 5334,
      "substitute": 5335,
      "##net": 5336,
      "reverse": 5337,
      "om": 5338,
      "bonuses": 5339,
      "##wy": 5340,
      "requisite": 5341,
      "cam": 5342,
      "deductible": 5343,
      "bring": 5344,
      "blo": 5345,
      "esop": 5346,
      "parking": 5347,
      "automobile": 5348,
      "exceptions": 5349,
      "reimbursed": 5350,
      "deprec": 5351,
      "##itz": 5352,
      "charles": 5353,
      "##tb": 5354,
      "assessed": 5355,
      "##cp": 5356,
      "restriction": 5357,
      "introduced": 5358,
      "firms": 5359,
      "insurer": 5360,
      "140": 5361,
      "expertise": 5362,
      "remained": 5363,
      "recommend": 5364,
      "pal": 5365,
      "gov": 5366,
      "weeks": 5367,
      "unused": 5368,
      "history": 5369,
      "preliminary": 5370,
      "##wg": 5371,
      "grade": 5372,
      "qualification": 5373,
      "block": 5374,
      "acres": 5375,
      "concentration": 5376,
      "opening": 5377,
      "consequences": 5378,
      "illeg": 5379,
      "##stone": 5380,
      "understand": 5381,
      "combinations": 5382,
      "ur": 5383,
      "origination": 5384,
      "incons": 5385,
      "inconsist": 5386,
      "load": 5387,
      "barg": 5388,
      "versus": 5389,
      "mailed": 5390,
      "penalty": 5391,
      "enhanced": 5392,
      "headings": 5393,
      "rig": 5394,
      "##inite": 5395,
      "mineral": 5396,
      "##isco": 5397,
      "##den": 5398,
      "##affili": 5399,
      "146": 5400,
      "creation": 5401,
      "listing": 5402,
      "xii": 5403,
      "lat": 5404,
      "principle": 5405,
      "appearing": 5406,
      "appendix": 5407,
      "##ivision": 5408,
      "uncondition": 5409,
      "104": 5410,
      "foreseeable": 5411,
      "subcontract": 5412,
      "20549": 5413,
      "dan": 5414,
      "formation": 5415,
      "sums": 5416,
      "divided": 5417,
      "##fs": 5418,
      "##conn": 5419,
      "##ourcing": 5420,
      "##kk": 5421,
      "##place": 5422,
      "indefinite": 5423,
      "uk": 5424,
      "##master": 5425,
      "shipping": 5426,
      "elects": 5427,
      "joseph": 5428,
      "roll": 5429,
      "acknowledge": 5430,
      "debenture": 5431,
      "statutes": 5432,
      "wall": 5433,
      "prud": 5434,
      "##estos": 5435,
      "attemp": 5436,
      "recognizes": 5437,
      "sought": 5438,
      "##64": 5439,
      "reform": 5440,
      "steps": 5441,
      "##69": 5442,
      "foods": 5443,
      "##gc": 5444,
      "350": 5445,
      "dup": 5446,
      "quantities": 5447,
      "france": 5448,
      "financed": 5449,
      "asbestos": 5450,
      "becoming": 5451,
      "lack": 5452,
      "substitution": 5453,
      "secondary": 5454,
      "rated": 5455,
      "territory": 5456,
      "zero": 5457,
      "##opers": 5458,
      "marketed": 5459,
      "los": 5460,
      "mitig": 5461,
      "mal": 5462,
      "acknowledged": 5463,
      "chil": 5464,
      "negotiated": 5465,
      "nav": 5466,
      "ethics": 5467,
      "choice": 5468,
      "##ug": 5469,
      "##ake": 5470,
      "resc": 5471,
      "##ete": 5472,
      "arizon": 5473,
      "accession": 5474,
      "154": 5475,
      "arizona": 5476,
      "arthur": 5477,
      "utilizing": 5478,
      "prepayments": 5479,
      "archit": 5480,
      "fitness": 5481,
      "##eness": 5482,
      "complies": 5483,
      "accru": 5484,
      "wmm": 5485,
      "##yc": 5486,
      "##quir": 5487,
      "wmmsc": 5488,
      "milest": 5489,
      "shows": 5490,
      "remove": 5491,
      "##ites": 5492,
      "recapitalization": 5493,
      "##iel": 5494,
      "emerging": 5495,
      "resale": 5496,
      "##east": 5497,
      "##ham": 5498,
      "releases": 5499,
      "usage": 5500,
      "##29": 5501,
      "ninety": 5502,
      "lost": 5503,
      "economy": 5504,
      "##ticals": 5505,
      "declare": 5506,
      "notified": 5507,
      "closure": 5508,
      "compensated": 5509,
      "##ouri": 5510,
      "personally": 5511,
      "traf": 5512,
      "##tinguish": 5513,
      "waivers": 5514,
      "unres": 5515,
      "##ox": 5516,
      "smaller": 5517,
      "yields": 5518,
      "via": 5519,
      "traffic": 5520,
      "missouri": 5521,
      "ele": 5522,
      "restatement": 5523,
      "brokers": 5524,
      "debtors": 5525,
      "undisc": 5526,
      "hedged": 5527,
      "grand": 5528,
      "scienti": 5529,
      "ep": 5530,
      "miles": 5531,
      "atlantic": 5532,
      "slow": 5533,
      "physician": 5534,
      "approximates": 5535,
      "##onsolid": 5536,
      "authorize": 5537,
      "virtue": 5538,
      "quot": 5539,
      "accurate": 5540,
      "##jl": 5541,
      "offshore": 5542,
      "tariff": 5543,
      "##iters": 5544,
      "##rees": 5545,
      "discretionary": 5546,
      "disease": 5547,
      "hou": 5548,
      "administered": 5549,
      "##opol": 5550,
      "question": 5551,
      "##orized": 5552,
      "inure": 5553,
      "##bers": 5554,
      "hart": 5555,
      "growing": 5556,
      "##ym": 5557,
      "repurchased": 5558,
      "disputes": 5559,
      "retr": 5560,
      "exemption": 5561,
      "kent": 5562,
      "##ext": 5563,
      "##aa": 5564,
      "##qg": 5565,
      "ratably": 5566,
      "##untarily": 5567,
      "renewed": 5568,
      "subdivision": 5569,
      "preferences": 5570,
      "##acts": 5571,
      "symb": 5572,
      "ster": 5573,
      "delayed": 5574,
      "specify": 5575,
      "memor": 5576,
      "techni": 5577,
      "##fiable": 5578,
      "deficiency": 5579,
      "hospitals": 5580,
      "voice": 5581,
      "tou": 5582,
      "##xm": 5583,
      "mortgaged": 5584,
      "assignor": 5585,
      "cycle": 5586,
      "cancer": 5587,
      "models": 5588,
      "##acc": 5589,
      "##ips": 5590,
      "consequent": 5591,
      "info": 5592,
      "##ape": 5593,
      "unreasonably": 5594,
      "bell": 5595,
      "declines": 5596,
      "play": 5597,
      "##pper": 5598,
      "confer": 5599,
      "##arke": 5600,
      "##mme": 5601,
      "driven": 5602,
      "context": 5603,
      "pronouncements": 5604,
      "restrict": 5605,
      "##ash": 5606,
      "largely": 5607,
      "decree": 5608,
      "asy": 5609,
      "##rets": 5610,
      "##ester": 5611,
      "billed": 5612,
      "lake": 5613,
      "multiplied": 5614,
      "pledgor": 5615,
      "irrevocable": 5616,
      "notional": 5617,
      "##19": 5618,
      "hir": 5619,
      "solution": 5620,
      "retailers": 5621,
      "education": 5622,
      "void": 5623,
      "##74": 5624,
      "##eration": 5625,
      "##sb": 5626,
      "precedent": 5627,
      "sar": 5628,
      "targeted": 5629,
      "fifteen": 5630,
      "shopping": 5631,
      "##has": 5632,
      "pc": 5633,
      "##rw": 5634,
      "consummated": 5635,
      "custodian": 5636,
      "##zl": 5637,
      "aep": 5638,
      "bb": 5639,
      "seasonal": 5640,
      "regularly": 5641,
      "raise": 5642,
      "merged": 5643,
      "marine": 5644,
      "interconn": 5645,
      "people": 5646,
      "aband": 5647,
      "stan": 5648,
      "efficiency": 5649,
      "tx": 5650,
      "comparison": 5651,
      "##zv": 5652,
      "committees": 5653,
      "franc": 5654,
      "##qa": 5655,
      "##ades": 5656,
      "nation": 5657,
      "stay": 5658,
      "##39": 5659,
      "overview": 5660,
      "mfg": 5661,
      "##ourn": 5662,
      "rapidly": 5663,
      "realize": 5664,
      "win": 5665,
      "spect": 5666,
      "##oen": 5667,
      "find": 5668,
      "##lex": 5669,
      "export": 5670,
      "interpretations": 5671,
      "##3d": 5672,
      "##7z": 5673,
      "##mmetric": 5674,
      "merc": 5675,
      "##5s": 5676,
      "##68": 5677,
      "bears": 5678,
      "datab": 5679,
      "ray": 5680,
      "catal": 5681,
      "##abil": 5682,
      "##reted": 5683,
      "eastern": 5684,
      "secrets": 5685,
      "pharmaceuticals": 5686,
      "analyz": 5687,
      "obsol": 5688,
      "exposed": 5689,
      "distance": 5690,
      "145": 5691,
      "dividing": 5692,
      "concern": 5693,
      "drugs": 5694,
      "bargaining": 5695,
      "##18": 5696,
      "102": 5697,
      "abandon": 5698,
      "houston": 5699,
      "amer": 5700,
      "expiring": 5701,
      "##amortiz": 5702,
      "aspects": 5703,
      "contest": 5704,
      "medium": 5705,
      "emphas": 5706,
      "manufactures": 5707,
      "alternate": 5708,
      "sports": 5709,
      "##ground": 5710,
      "rank": 5711,
      "nb": 5712,
      "inser": 5713,
      "advice": 5714,
      "negotiations": 5715,
      "franchis": 5716,
      "##tron": 5717,
      "leave": 5718,
      "##d3": 5719,
      "registrar": 5720,
      "hdr": 5721,
      "911": 5722,
      "asymmetric": 5723,
      "sgml": 5724,
      "##atories": 5725,
      "liber": 5726,
      "allocations": 5727,
      "subscribers": 5728,
      "##ights": 5729,
      "essential": 5730,
      "architect": 5731,
      "nc": 5732,
      "mood": 5733,
      "##perform": 5734,
      "metal": 5735,
      "failed": 5736,
      "##k3": 5737,
      "demised": 5738,
      "underwriters": 5739,
      "trig": 5740,
      "sensi": 5741,
      "restoration": 5742,
      "##baq": 5743,
      "shipments": 5744,
      "##affiliated": 5745,
      "symbol": 5746,
      "promotional": 5747,
      "pays": 5748,
      "dental": 5749,
      "md5": 5750,
      "##gu": 5751,
      "##ublic": 5752,
      "##3p": 5753,
      "constituting": 5754,
      "##gyev": 5755,
      "##wcgyev": 5756,
      "##qgbaq": 5757,
      "##wcgyevqgbaq": 5758,
      "##wcgyevqgbaqic": 5759,
      "mw": 5760,
      "##lah": 5761,
      "merchant": 5762,
      "designs": 5763,
      "scre": 5764,
      "targets": 5765,
      "similarly": 5766,
      "##onsolidated": 5767,
      "##pc": 5768,
      "courts": 5769,
      "understood": 5770,
      "cellular": 5771,
      "display": 5772,
      "moody": 5773,
      "unamortiz": 5774,
      "physicians": 5775,
      "##itors": 5776,
      "##point": 5777,
      "##1t": 5778,
      "receiver": 5779,
      "153": 5780,
      "intermedi": 5781,
      "unamortized": 5782,
      "conflicts": 5783,
      "##6o": 5784,
      "realiz": 5785,
      "sul": 5786,
      "shipment": 5787,
      "##ulated": 5788,
      "assur": 5789,
      "identifiable": 5790,
      "conclusions": 5791,
      "instances": 5792,
      "##lahoma": 5793,
      "broadcas": 5794,
      "dex": 5795,
      "filers": 5796,
      "machin": 5797,
      "restrictive": 5798,
      "describ": 5799,
      "opened": 5800,
      "competes": 5801,
      "disrup": 5802,
      "reinvest": 5803,
      "harb": 5804,
      "deploy": 5805,
      "subpar": 5806,
      "##ounted": 5807,
      "universal": 5808,
      "percentages": 5809,
      "files": 5810,
      "##ik": 5811,
      "encour": 5812,
      "oklahoma": 5813,
      "ae": 5814,
      "##see": 5815,
      "##itte": 5816,
      "1231": 5817,
      "##dle": 5818,
      "##05": 5819,
      "creditor": 5820,
      "recoveries": 5821,
      "##67": 5822,
      "exceeding": 5823,
      "oppos": 5824,
      "calculations": 5825,
      "##jaw": 5826,
      "##itary": 5827,
      "sponsored": 5828,
      "##zyz": 5829,
      "involuntary": 5830,
      "##edd": 5831,
      "na": 5832,
      "114": 5833,
      "##qab": 5834,
      "accruals": 5835,
      "195": 5836,
      "##tinen": 5837,
      "cancelled": 5838,
      "##xmm": 5839,
      "annex": 5840,
      "webmaster": 5841,
      "##bmy": 5842,
      "pound": 5843,
      "##6ag": 5844,
      "##zlad": 5845,
      "laboratory": 5846,
      "##kk9": 5847,
      "##af8": 5848,
      "##am5": 5849,
      "##2sn": 5850,
      "##7vr": 5851,
      "##xmzv": 5852,
      "##avtb": 5853,
      "##5sdw": 5854,
      "##tdez": 5855,
      "##jlwy": 5856,
      "twsm": 5857,
      "##7z1t": 5858,
      "##3p6o": 5859,
      "##zyzmr": 5860,
      "##ionwg": 5861,
      "twida": 5862,
      "##dsgaw": 5863,
      "##rwjaw": 5864,
      "##qaionwg": 5865,
      "mfgwcgyevqgbaqic": 5866,
      "##3dtinen": 5867,
      "##d3tdez": 5868,
      "##k3xmzv": 5869,
      "##xmm7z1t": 5870,
      "##bmyqaionwg": 5871,
      "##6agjlwy": 5872,
      "##zladbmyqaionwg": 5873,
      "##kk9avtb": 5874,
      "##af8dsgaw": 5875,
      "##am5d3tdez": 5876,
      "##2snkk9avtb": 5877,
      "##7vrzladbmyqaionwg": 5878,
      "##5sdw3p6o": 5879,
      "twsm7vrzladbmyqaionwg": 5880,
      "##zyzmr6agjlwy": 5881,
      "twidaqab": 5882,
      "##rwjaw2snkk9avtb": 5883,
      "mfgwcgyevqgbaqicaf8dsgaw": 5884,
      "##k3xmzv3dtinen": 5885,
      "##am5d3tdezxmm7z1t": 5886,
      "##5sdw3p6oam5d3tdezxmm7z1t": 5887,
      "twsm7vrzladbmyqaionwg5sdw3p6oam5d3tdezxmm7z1t": 5888,
      "##zyzmr6agjlwyk3xmzv3dtinen": 5889,
      "##rwjaw2snkk9avtbzyzmr6agjlwyk3xmzv3dtinen": 5890,
      "mfgwcgyevqgbaqicaf8dsgawrwjaw2snkk9avtbzyzmr6agjlwyk3xmzv3dtinen": 5891,
      "actively": 5892,
      "157": 5893,
      "adequately": 5894,
      "##ersen": 5895,
      "##ocket": 5896,
      "undiscounted": 5897,
      "stating": 5898,
      "postage": 5899,
      "confirmation": 5900,
      "accident": 5901,
      "exposures": 5902,
      "##jo": 5903,
      "##night": 5904,
      "governance": 5905,
      "affirmative": 5906,
      "machinery": 5907,
      "ark": 5908,
      "summarize": 5909,
      "##entions": 5910,
      "pcs": 5911,
      "pressure": 5912,
      "computing": 5913,
      "spent": 5914,
      "##rop": 5915,
      "##from": 5916,
      "consequently": 5917,
      "##lan": 5918,
      "hyp": 5919,
      "##rey": 5920,
      "subparagraph": 5921,
      "##hood": 5922,
      "holid": 5923,
      "eliminate": 5924,
      "optional": 5925,
      "ec": 5926,
      "##38": 5927,
      "angel": 5928,
      "mutually": 5929,
      "news": 5930,
      "##lementing": 5931,
      "establishment": 5932,
      "shelf": 5933,
      "pros": 5934,
      "details": 5935,
      "##aco": 5936,
      "clearing": 5937,
      "##vent": 5938,
      "composition": 5939,
      "men": 5940,
      "##aza": 5941,
      "##oft": 5942,
      "##psc": 5943,
      "##mi": 5944,
      "continuous": 5945,
      "much": 5946,
      "atlanta": 5947,
      "##inn": 5948,
      "instead": 5949,
      "delo": 5950,
      "blue": 5951,
      "insurers": 5952,
      "inclusion": 5953,
      "dispositions": 5954,
      "##itan": 5955,
      "fabric": 5956,
      "##claim": 5957,
      "##well": 5958,
      "sensitivity": 5959,
      "afford": 5960,
      "103": 5961,
      "reclassification": 5962,
      "##wor": 5963,
      "##erry": 5964,
      "freight": 5965,
      "##ams": 5966,
      "auction": 5967,
      "led": 5968,
      "steph": 5969,
      "andersen": 5970,
      "emergency": 5971,
      "bulle": 5972,
      "coordin": 5973,
      "##icated": 5974,
      "contact": 5975,
      "cut": 5976,
      "inconsistent": 5977,
      "capability": 5978,
      "deloitte": 5979,
      "fax": 5980,
      "ken": 5981,
      "hearing": 5982,
      "##attan": 5983,
      "subj": 5984,
      "tank": 5985,
      "##iated": 5986,
      "pret": 5987,
      "bases": 5988,
      "phot": 5989,
      "slight": 5990,
      "alone": 5991,
      "please": 5992,
      "##rals": 5993,
      "blood": 5994,
      "prepare": 5995,
      "assurances": 5996,
      "therefrom": 5997,
      "supervis": 5998,
      "standby": 5999,
      "telecop": 6000,
      "##berg": 6001,
      "##exv": 6002,
      "##zz": 6003,
      "plaza": 6004,
      "functional": 6005,
      "scale": 6006,
      "##ye": 6007,
      "exchanges": 6008,
      "tables": 6009,
      "cast": 6010,
      "corrective": 6011,
      "jeff": 6012,
      "lyn": 6013,
      "extinguish": 6014,
      "00000": 6015,
      "omissions": 6016,
      "facilitate": 6017,
      "appe": 6018,
      "suspension": 6019,
      "##hc": 6020,
      "##burg": 6021,
      "thr": 6022,
      "optim": 6023,
      "uncoll": 6024,
      "competing": 6025,
      "##acting": 6026,
      "coast": 6027,
      "pricewater": 6028,
      "crimin": 6029,
      "##lines": 6030,
      "mus": 6031,
      "counterclaim": 6032,
      "marketplace": 6033,
      "settle": 6034,
      "aer": 6035,
      "##irs": 6036,
      "micros": 6037,
      "techniques": 6038,
      "processed": 6039,
      "nonqualified": 6040,
      "2011": 6041,
      "eps": 6042,
      "unli": 6043,
      "incentives": 6044,
      "noncomp": 6045,
      "##outh": 6046,
      "conducting": 6047,
      "##band": 6048,
      "unconsolidated": 6049,
      "##aces": 6050,
      "confirmed": 6051,
      "recipient": 6052,
      "##de": 6053,
      "meets": 6054,
      "agric": 6055,
      "hol": 6056,
      "mov": 6057,
      "shared": 6058,
      "##jud": 6059,
      "##allas": 6060,
      "criminal": 6061,
      "barr": 6062,
      "158": 6063,
      "imaging": 6064,
      "calls": 6065,
      "bott": 6066,
      "surf": 6067,
      "prohibit": 6068,
      "diversified": 6069,
      "unique": 6070,
      "##trust": 6071,
      "pas": 6072,
      "hun": 6073,
      "attachment": 6074,
      "##ows": 6075,
      "regions": 6076,
      "##houseco": 6077,
      "solicitation": 6078,
      "gm": 6079,
      "450": 6080,
      "pricewaterhouseco": 6081,
      "depositary": 6082,
      "semi": 6083,
      "paragraphs": 6084,
      "##wealth": 6085,
      "##cl": 6086,
      "commonwealth": 6087,
      "ots": 6088,
      "1983": 6089,
      "therapeu": 6090,
      "sound": 6091,
      "pricewaterhousecoopers": 6092,
      "212": 6093,
      "finished": 6094,
      "##ucky": 6095,
      "die": 6096,
      "messrs": 6097,
      "pollution": 6098,
      "difficulties": 6099,
      "mountain": 6100,
      "sterling": 6101,
      "appeals": 6102,
      "martin": 6103,
      "##ux": 6104,
      "originated": 6105,
      "believed": 6106,
      "surrendered": 6107,
      "font": 6108,
      "xi": 6109,
      "##bi": 6110,
      "175": 6111,
      "dies": 6112,
      "##com": 6113,
      "incidental": 6114,
      "112": 6115,
      "##ommod": 6116,
      "considering": 6117,
      "##aps": 6118,
      "unfavor": 6119,
      "accommod": 6120,
      "375": 6121,
      "living": 6122,
      "evaluates": 6123,
      "##icon": 6124,
      "discussions": 6125,
      "##aneously": 6126,
      "valuable": 6127,
      "nominee": 6128,
      "spin": 6129,
      "reserv": 6130,
      "scientific": 6131,
      "enab": 6132,
      "##ered": 6133,
      "legisl": 6134,
      "agricult": 6135,
      "alterations": 6136,
      "emissions": 6137,
      "lang": 6138,
      "consolidate": 6139,
      "marks": 6140,
      "braz": 6141,
      "doing": 6142,
      "violate": 6143,
      "##unded": 6144,
      "desirable": 6145,
      "exercising": 6146,
      "##ats": 6147,
      "calculating": 6148,
      "issuers": 6149,
      "360": 6150,
      "simp": 6151,
      "##ste": 6152,
      "stip": 6153,
      "indicative": 6154,
      "##auth": 6155,
      "iso": 6156,
      "resort": 6157,
      "gives": 6158,
      "bulletin": 6159,
      "sea": 6160,
      "transferor": 6161,
      "claimant": 6162,
      "attestation": 6163,
      "varying": 6164,
      "achievement": 6165,
      "##gs": 6166,
      "causes": 6167,
      "##umin": 6168,
      "duplic": 6169,
      "unaffiliated": 6170,
      "imposition": 6171,
      "assumes": 6172,
      "social": 6173,
      "suits": 6174,
      "lapse": 6175,
      "nj": 6176,
      "sl": 6177,
      "##ature": 6178,
      "##16": 6179,
      "arkansas": 6180,
      "##atr": 6181,
      "ber": 6182,
      "validly": 6183,
      "renewals": 6184,
      "##road": 6185,
      "pretax": 6186,
      "##ervation": 6187,
      "contamination": 6188,
      "ibm": 6189,
      "dallas": 6190,
      "##aker": 6191,
      "voluntarily": 6192,
      "machines": 6193,
      "depositor": 6194,
      "##ectible": 6195,
      "prejud": 6196,
      "metropol": 6197,
      "##tibility": 6198,
      "maker": 6199,
      "refr": 6200,
      "heavy": 6201,
      "bri": 6202,
      "nr": 6203,
      "kentucky": 6204,
      "mainly": 6205,
      "feas": 6206,
      "reputation": 6207,
      "print": 6208,
      "unvested": 6209,
      "numbers": 6210,
      "inquir": 6211,
      "manh": 6212,
      "son": 6213,
      "##olf": 6214,
      "opinions": 6215,
      "sop": 6216,
      "memorand": 6217,
      "ceased": 6218,
      "medicaid": 6219,
      "implementing": 6220,
      "decid": 6221,
      "unrelated": 6222,
      "##liances": 6223,
      "touche": 6224,
      "151": 6225,
      "votes": 6226,
      "##do": 6227,
      "advisable": 6228,
      "automated": 6229,
      "flexibility": 6230,
      "minimize": 6231,
      "incumb": 6232,
      "##gate": 6233,
      "toward": 6234,
      "reclassifications": 6235,
      "severally": 6236,
      "proportionate": 6237,
      "gene": 6238,
      "desires": 6239,
      "frequently": 6240,
      "##criber": 6241,
      "military": 6242,
      "hypoth": 6243,
      "rentals": 6244,
      "metropolitan": 6245,
      "relocation": 6246,
      "strict": 6247,
      "ing": 6248,
      "break": 6249,
      "manhattan": 6250,
      "collaboration": 6251,
      "##els": 6252,
      "sector": 6253,
      "##appro": 6254,
      "terror": 6255,
      "citiz": 6256,
      "side": 6257,
      "##issu": 6258,
      "trigger": 6259,
      "copyright": 6260,
      "gar": 6261,
      "denied": 6262,
      "laboratories": 6263,
      "pain": 6264,
      "280": 6265,
      "##gi": 6266,
      "authorizations": 6267,
      "noninter": 6268,
      "dial": 6269,
      "tur": 6270,
      "mergers": 6271,
      "##26": 6272,
      "rico": 6273,
      "##esaid": 6274,
      "##esh": 6275,
      "whichever": 6276,
      "aforesaid": 6277,
      "grad": 6278,
      "kansas": 6279,
      "promotion": 6280,
      "therapy": 6281,
      "##veraged": 6282,
      "##pe": 6283,
      "subscriber": 6284,
      "noninterest": 6285,
      "cooperate": 6286,
      "apartment": 6287,
      "johnson": 6288,
      "##ga": 6289,
      "##ollo": 6290,
      "discharged": 6291,
      "shipped": 6292,
      "encumbrances": 6293,
      "##ked": 6294,
      "portfolios": 6295,
      "signing": 6296,
      "methodology": 6297,
      "lc": 6298,
      "regulators": 6299,
      "##energy": 6300,
      "spectr": 6301,
      "unan": 6302,
      "attend": 6303,
      "reh": 6304,
      "enables": 6305,
      "tv": 6306,
      "aggregated": 6307,
      "licensor": 6308,
      "132": 6309,
      "penn": 6310,
      "pattern": 6311,
      "deterior": 6312,
      "revers": 6313,
      "supplied": 6314,
      "ital": 6315,
      "1980": 6316,
      "realization": 6317,
      "lay": 6318,
      "fer": 6319,
      "##tail": 6320,
      "goal": 6321,
      "mitigate": 6322,
      "dilution": 6323,
      "mall": 6324,
      "simult": 6325,
      "middle": 6326,
      "angeles": 6327,
      "404": 6328,
      "deuts": 6329,
      "preven": 6330,
      "logo": 6331,
      "##wear": 6332,
      "round": 6333,
      "bridge": 6334,
      "pul": 6335,
      "##liant": 6336,
      "suitable": 6337,
      "##alle": 6338,
      "consolidating": 6339,
      "counterparty": 6340,
      "forfeited": 6341,
      "##13": 6342,
      "republic": 6343,
      "ine": 6344,
      "fal": 6345,
      "retro": 6346,
      "solid": 6347,
      "fractional": 6348,
      "cc": 6349,
      "##ogen": 6350,
      "truck": 6351,
      "exercises": 6352,
      "delivering": 6353,
      "accurately": 6354,
      "alleging": 6355,
      "160": 6356,
      "barre": 6357,
      "minus": 6358,
      "peter": 6359,
      "merr": 6360,
      "hartford": 6361,
      "downs": 6362,
      "relie": 6363,
      "preclud": 6364,
      "fines": 6365,
      "usually": 6366,
      "##mbh": 6367,
      "162": 6368,
      "##tenant": 6369,
      "williams": 6370,
      "##worth": 6371,
      "possess": 6372,
      "registrants": 6373,
      "excludes": 6374,
      "statis": 6375,
      "illegal": 6376,
      "##ementioned": 6377,
      "apparel": 6378,
      "accompanied": 6379,
      "pnc": 6380,
      "enroll": 6381,
      "##atements": 6382,
      "certifications": 6383,
      "samp": 6384,
      "hon": 6385,
      "sev": 6386,
      "scott": 6387,
      "00010": 6388,
      "##erto": 6389,
      "##istic": 6390,
      "concentrations": 6391,
      "ven": 6392,
      "insu": 6393,
      "expanding": 6394,
      "internally": 6395,
      "surety": 6396,
      "gmbh": 6397,
      "refus": 6398,
      "retroactive": 6399,
      "takes": 6400,
      "puerto": 6401,
      "unrec": 6402,
      "aforementioned": 6403,
      "##authorized": 6404,
      "settlements": 6405,
      "liberty": 6406,
      "broadcasting": 6407,
      "indicates": 6408,
      "forfeiture": 6409,
      "##bor": 6410,
      "nonperform": 6411,
      "155": 6412,
      "vig": 6413,
      "routine": 6414,
      "winding": 6415,
      "outsourcing": 6416,
      "around": 6417,
      "few": 6418,
      "##ological": 6419,
      "##onald": 6420,
      "canceled": 6421,
      "realizable": 6422,
      "influence": 6423,
      "maturing": 6424,
      "professionals": 6425,
      "mcc": 6426,
      "tox": 6427,
      "##tar": 6428,
      "preserve": 6429,
      "subordination": 6430,
      "##mo": 6431,
      "##pine": 6432,
      "dives": 6433,
      "increasingly": 6434,
      "step": 6435,
      "elimination": 6436,
      "divestit": 6437,
      "recital": 6438,
      "##une": 6439,
      "sprint": 6440,
      "nether": 6441,
      "unauthorized": 6442,
      "xv": 6443,
      "225": 6444,
      "tri": 6445,
      "117": 6446,
      "harbor": 6447,
      "determinations": 6448,
      "##tered": 6449,
      "plc": 6450,
      "condemn": 6451,
      "stanley": 6452,
      "unfavorable": 6453,
      "135": 6454,
      "jury": 6455,
      "bulk": 6456,
      "ps": 6457,
      "branches": 6458,
      "island": 6459,
      "hom": 6460,
      "149": 6461,
      "offsetting": 6462,
      "liquidated": 6463,
      "cit": 6464,
      "##aska": 6465,
      "investigations": 6466,
      "exclusively": 6467,
      "broadband": 6468,
      "feature": 6469,
      "franchises": 6470,
      "utilizes": 6471,
      "ceases": 6472,
      "thres": 6473,
      "##gar": 6474,
      "producers": 6475,
      "privileges": 6476,
      "cin": 6477,
      "workforce": 6478,
      "interactive": 6479,
      "enhancements": 6480,
      "threshold": 6481,
      "promote": 6482,
      "counterparties": 6483,
      "compensatory": 6484,
      "111": 6485,
      "blank": 6486,
      "lists": 6487,
      "kr": 6488,
      "118": 6489,
      "exchangeable": 6490,
      "recru": 6491,
      "staffing": 6492,
      "organiz": 6493,
      "##bac": 6494,
      "forty": 6495,
      "0000950": 6496,
      "choose": 6497,
      "colle": 6498,
      "##dro": 6499,
      "performs": 6500,
      "desp": 6501,
      "profitable": 6502,
      "commercialization": 6503,
      "white": 6504,
      "desire": 6505,
      "george": 6506,
      "prosec": 6507,
      "wish": 6508,
      "accomp": 6509,
      "assembly": 6510,
      "##ara": 6511,
      "accomplish": 6512,
      "##ount": 6513,
      "resolve": 6514,
      "cfo": 6515,
      "associate": 6516,
      "138": 6517,
      "vigor": 6518,
      "##idents": 6519,
      "reinvestment": 6520,
      "specialized": 6521,
      "injunction": 6522,
      "containers": 6523,
      "printing": 6524,
      "tor": 6525,
      "purported": 6526,
      "##aking": 6527,
      "revoc": 6528,
      "owning": 6529,
      "complement": 6530,
      "licensees": 6531,
      "netherlands": 6532,
      "downt": 6533,
      "adding": 6534,
      "ic": 6535,
      "appraisal": 6536,
      "proposals": 6537,
      "diligence": 6538,
      "##akes": 6539,
      "aid": 6540,
      "conveyance": 6541,
      "intel": 6542,
      "drawn": 6543,
      "tool": 6544,
      "despite": 6545,
      "accuracy": 6546,
      "operative": 6547,
      "remote": 6548,
      "donald": 6549,
      "recoverability": 6550,
      "##edded": 6551,
      "accelerate": 6552,
      "##americ": 6553,
      "taxation": 6554,
      "unb": 6555,
      "finally": 6556,
      "carb": 6557,
      "depreciated": 6558,
      "stephen": 6559,
      "pocket": 6560,
      "##upon": 6561,
      "##09": 6562,
      "mir": 6563,
      "lear": 6564,
      "enters": 6565,
      "##88": 6566,
      "##omination": 6567,
      "memorandum": 6568,
      "estimating": 6569,
      "specifying": 6570,
      "##tish": 6571,
      "attributed": 6572,
      "mine": 6573,
      "fluctuate": 6574,
      "surface": 6575,
      "alleg": 6576,
      "checks": 6577,
      "ut": 6578,
      "authorizes": 6579,
      "##insic": 6580,
      "sn": 6581,
      "##ectors": 6582,
      "toxic": 6583,
      "116": 6584,
      "overnight": 6585,
      "daniel": 6586,
      "brown": 6587,
      "steven": 6588,
      "##board": 6589,
      "##06": 6590,
      "##55": 6591,
      "##ky": 6592,
      "repayments": 6593,
      "anc": 6594,
      "comprising": 6595,
      "cards": 6596,
      "lynch": 6597,
      "##36": 6598,
      "concerns": 6599,
      "diagnostic": 6600,
      "##gical": 6601,
      "search": 6602,
      "willing": 6603,
      "update": 6604,
      "##ream": 6605,
      "##arketing": 6606,
      "##shares": 6607,
      "organizational": 6608,
      "##rell": 6609,
      "expenditure": 6610,
      "12b": 6611,
      "assignments": 6612,
      "congress": 6613,
      "allowing": 6614,
      "9a": 6615,
      "415": 6616,
      "##lp": 6617,
      "destr": 6618,
      "ly": 6619,
      "bat": 6620,
      "constant": 6621,
      "spe": 6622,
      "unfunded": 6623,
      "midwest": 6624,
      "peak": 6625,
      "hire": 6626,
      "poor": 6627,
      "##yed": 6628,
      "underwriter": 6629,
      "branded": 6630,
      "intrinsic": 6631,
      "moreover": 6632,
      "encumbrance": 6633,
      "element": 6634,
      "adjustable": 6635,
      "efficiencies": 6636,
      "cree": 6637,
      "sam": 6638,
      "pipelines": 6639,
      "##osen": 6640,
      "host": 6641,
      "transferable": 6642,
      "works": 6643,
      "embedded": 6644,
      "ruling": 6645,
      "##apol": 6646,
      "mentioned": 6647,
      "colum": 6648,
      "suspended": 6649,
      "independently": 6650,
      "##rew": 6651,
      "telecom": 6652,
      "hydro": 6653,
      "citizens": 6654,
      "minutes": 6655,
      "comprom": 6656,
      "##ki": 6657,
      "fidel": 6658,
      "job": 6659,
      "pb": 6660,
      "cured": 6661,
      "supersedes": 6662,
      "hu": 6663,
      "refusal": 6664,
      "closely": 6665,
      "slightly": 6666,
      "cooperative": 6667,
      "fidelity": 6668,
      "##dc": 6669,
      "trib": 6670,
      "readily": 6671,
      "oreg": 6672,
      "##adequ": 6673,
      "inadequ": 6674,
      "flu": 6675,
      "arre": 6676,
      "oregon": 6677,
      "predic": 6678,
      "apartments": 6679,
      "cn": 6680,
      "database": 6681,
      "incumbent": 6682,
      "##adel": 6683,
      "constructed": 6684,
      "indentures": 6685,
      "deutsche": 6686,
      "productivity": 6687,
      "mas": 6688,
      "##eter": 6689,
      "deple": 6690,
      "##glas": 6691,
      "414": 6692,
      "1982": 6693,
      "manual": 6694,
      "laser": 6695,
      "signal": 6696,
      "##mon": 6697,
      "remit": 6698,
      "divisions": 6699,
      "destruction": 6700,
      "bancshares": 6701,
      "nurs": 6702,
      "sr": 6703,
      "destro": 6704,
      "deferrals": 6705,
      "accessories": 6706,
      "vigorously": 6707,
      "tested": 6708,
      "alternatives": 6709,
      "esp": 6710,
      "eigh": 6711,
      "##iles": 6712,
      "unus": 6713,
      "built": 6714,
      "collec": 6715,
      "beli": 6716,
      "##mond": 6717,
      "wat": 6718,
      "catalog": 6719,
      "##veloper": 6720,
      "##icing": 6721,
      "dismissed": 6722,
      "interruption": 6723,
      "14a": 6724,
      "ppl": 6725,
      "124": 6726,
      "merrill": 6727,
      "defendant": 6728,
      "questions": 6729,
      "conditional": 6730,
      "159": 6731,
      "wach": 6732,
      "119": 6733,
      "acre": 6734,
      "server": 6735,
      "undertaken": 6736,
      "passed": 6737,
      "accruing": 6738,
      "##84": 6739,
      "##79": 6740,
      "dyn": 6741,
      "ans": 6742,
      "uncollectible": 6743,
      "package": 6744,
      "prescription": 6745,
      "mol": 6746,
      "occas": 6747,
      "claimed": 6748,
      "enforced": 6749,
      "spring": 6750,
      "formal": 6751,
      "structured": 6752,
      "sponsors": 6753,
      "printed": 6754,
      "pp": 6755,
      "pressures": 6756,
      "vessels": 6757,
      "priced": 6758,
      "##owa": 6759,
      "frequency": 6760,
      "advised": 6761,
      "litt": 6762,
      "terminal": 6763,
      "##ership": 6764,
      "dedicated": 6765,
      "amends": 6766,
      "population": 6767,
      "covers": 6768,
      "heirs": 6769,
      "reliable": 6770,
      "##dren": 6771,
      "hamp": 6772,
      "##aterial": 6773,
      "hud": 6774,
      "developer": 6775,
      "##oke": 6776,
      "spectrum": 6777,
      "contingency": 6778,
      "interfere": 6779,
      "##phia": 6780,
      "big": 6781,
      "southwest": 6782,
      "improving": 6783,
      "supported": 6784,
      "prote": 6785,
      "holiday": 6786,
      "optical": 6787,
      "replacements": 6788,
      "payee": 6789,
      "custodial": 6790,
      "nyse": 6791,
      "##032": 6792,
      "feed": 6793,
      "mad": 6794,
      "raised": 6795,
      "concurrently": 6796,
      "137": 6797,
      "rh": 6798,
      "interpreted": 6799,
      "douglas": 6800,
      "auditor": 6801,
      "625": 6802,
      "interfer": 6803,
      "administrators": 6804,
      "113": 6805,
      "parcel": 6806,
      "compress": 6807,
      "executing": 6808,
      "belief": 6809,
      "possibility": 6810,
      "##lihood": 6811,
      "##shire": 6812,
      "##overs": 6813,
      "insufficient": 6814,
      "absent": 6815,
      "fill": 6816,
      "dimin": 6817,
      "inventions": 6818,
      "translated": 6819,
      "##unctive": 6820,
      "##pane": 6821,
      "rose": 6822,
      "##1231": 6823,
      "##let": 6824,
      "caus": 6825,
      "##ovia": 6826,
      "vessel": 6827,
      "places": 6828,
      "jones": 6829,
      "##illary": 6830,
      "flat": 6831,
      "engineers": 6832,
      "procurement": 6833,
      "capable": 6834,
      "continental": 6835,
      "##eless": 6836,
      "agricultural": 6837,
      "##amm": 6838,
      "wachovia": 6839,
      "##bu": 6840,
      "privately": 6841,
      "timber": 6842,
      "declining": 6843,
      "##kin": 6844,
      "british": 6845,
      "##edia": 6846,
      "alumin": 6847,
      "aw": 6848,
      "structures": 6849,
      "mont": 6850,
      "##ban": 6851,
      "iden": 6852,
      "golf": 6853,
      "deliveries": 6854,
      "degrees": 6855,
      "train": 6856,
      "anim": 6857,
      "stream": 6858,
      "##selves": 6859,
      "iowa": 6860,
      "##gation": 6861,
      "creek": 6862,
      "protected": 6863,
      "fast": 6864,
      "##yne": 6865,
      "##apor": 6866,
      "ligh": 6867,
      "propane": 6868,
      "lee": 6869,
      "manages": 6870,
      "##wick": 6871,
      "steam": 6872,
      "identifying": 6873,
      "recitals": 6874,
      "compounds": 6875,
      "##ster": 6876,
      "contracted": 6877,
      "requesting": 6878,
      "music": 6879,
      "firstenergy": 6880,
      "calpine": 6881,
      "acquires": 6882,
      "##apolis": 6883,
      "prejudice": 6884,
      "ace": 6885,
      "ancillary": 6886,
      "##033": 6887,
      "obsolete": 6888,
      "determinable": 6889,
      "resolutions": 6890,
      "subles": 6891,
      "lose": 6892,
      "negotiate": 6893,
      "likelihood": 6894,
      "nos": 6895,
      "##umption": 6896,
      "##vd": 6897,
      "injunctive": 6898,
      "publishing": 6899,
      "##iling": 6900,
      "undertake": 6901,
      "interested": 6902,
      "promises": 6903,
      "mission": 6904,
      "bally": 6905,
      "##85": 6906,
      "heading": 6907,
      "intense": 6908,
      "leaseback": 6909,
      "undertaking": 6910,
      "bow": 6911,
      "vision": 6912,
      "integrate": 6913,
      "cab": 6914,
      "instruction": 6915,
      "supplements": 6916,
      "pror": 6917,
      "122": 6918,
      "legend": 6919,
      "left": 6920,
      "##tl": 6921,
      "ef": 6922,
      "mailing": 6923,
      "tower": 6924,
      "ipo": 6925,
      "sty": 6926,
      "analog": 6927,
      "edward": 6928,
      "allegations": 6929,
      "sinking": 6930,
      "##tricted": 6931,
      "190": 6932,
      "bio": 6933,
      "langu": 6934,
      "wages": 6935,
      "shift": 6936,
      "francisco": 6937,
      "allocable": 6938,
      "intentionally": 6939,
      "##ica": 6940,
      "##ola": 6941,
      "conducts": 6942,
      "silicon": 6943,
      "129": 6944,
      "creating": 6945,
      "##ita": 6946,
      "newsp": 6947,
      "650": 6948,
      "##ills": 6949,
      "tons": 6950,
      "complying": 6951,
      "task": 6952,
      "beach": 6953,
      "computers": 6954,
      "accred": 6955,
      "aluminum": 6956,
      "newspap": 6957,
      "santa": 6958,
      "beverage": 6959,
      "##77": 6960,
      "unrestricted": 6961,
      "##uda": 6962,
      "children": 6963,
      "century": 6964,
      "##ospace": 6965,
      "##ture": 6966,
      "sustained": 6967,
      "come": 6968,
      "arrears": 6969,
      "fewer": 6970,
      "instituted": 6971,
      "collectibility": 6972,
      "1a": 6973,
      "ho": 6974,
      "fort": 6975,
      "permiss": 6976,
      "band": 6977,
      "appoints": 6978,
      "875": 6979,
      "194": 6980,
      "equals": 6981,
      "170": 6982,
      "container": 6983,
      "kn": 6984,
      "heart": 6985,
      "attractive": 6986,
      "unexp": 6987,
      "weekly": 6988,
      "##pet": 6989,
      "text": 6990,
      "hong": 6991,
      "relied": 6992,
      "##usion": 6993,
      "##mer": 6994,
      "remedial": 6995,
      "##acent": 6996,
      "enhancement": 6997,
      "inadequate": 6998,
      "identical": 6999,
      "cells": 7000,
      "fulfillment": 7001,
      "revisions": 7002,
      "extending": 7003,
      "gary": 7004,
      "wy": 7005,
      "##fficiency": 7006,
      "engag": 7007,
      "affects": 7008,
      "quantity": 7009,
      "syndication": 7010,
      "harris": 7011,
      "immaterial": 7012,
      "tub": 7013,
      "achieving": 7014,
      "repeal": 7015,
      "continually": 7016,
      "concess": 7017,
      "refinance": 7018,
      "metals": 7019,
      "##issued": 7020,
      "##earned": 7021,
      "unearned": 7022,
      "##ystem": 7023,
      "cm": 7024,
      "chartered": 7025,
      "condemnation": 7026,
      "phoen": 7027,
      "simultaneously": 7028,
      "legislative": 7029,
      "##66": 7030,
      "normally": 7031,
      "thrift": 7032,
      "announcement": 7033,
      "fel": 7034,
      "phoenix": 7035,
      "solicit": 7036,
      "gall": 7037,
      "stable": 7038,
      "subtenant": 7039,
      "mb": 7040,
      "##echn": 7041,
      "trail": 7042,
      "protoc": 7043,
      "adjacent": 7044,
      "##fall": 7045,
      "prescrib": 7046,
      "##ike": 7047,
      "forthwith": 7048,
      "134": 7049,
      "ford": 7050,
      "swingline": 7051,
      "bills": 7052,
      "brazil": 7053,
      "cra": 7054,
      "extinguishment": 7055,
      "pg": 7056,
      "foundation": 7057,
      "boards": 7058,
      "summer": 7059,
      "referenced": 7060,
      "encumber": 7061,
      "sand": 7062,
      "fullest": 7063,
      "reviewing": 7064,
      "dry": 7065,
      "berm": 7066,
      "kong": 7067,
      "240": 7068,
      "sat": 7069,
      "consummate": 7070,
      "impairments": 7071,
      "sublessee": 7072,
      "comments": 7073,
      "##ull": 7074,
      "forecasted": 7075,
      "airlines": 7076,
      "machine": 7077,
      "departments": 7078,
      "nationwide": 7079,
      "functionality": 7080,
      "vill": 7081,
      "##pati": 7082,
      "enjo": 7083,
      "exclude": 7084,
      "proof": 7085,
      "##leans": 7086,
      "oak": 7087,
      "127": 7088,
      "college": 7089,
      "format": 7090,
      "upgrade": 7091,
      "aggregating": 7092,
      "milestone": 7093,
      "audio": 7094,
      "pil": 7095,
      "orleans": 7096,
      "severability": 7097,
      "pse": 7098,
      "adopting": 7099,
      "##pco": 7100,
      "composite": 7101,
      "captions": 7102,
      "126": 7103,
      "nearly": 7104,
      "negotiation": 7105,
      "bed": 7106,
      "heating": 7107,
      "causing": 7108,
      "##uits": 7109,
      "365": 7110,
      "commonly": 7111,
      "surgical": 7112,
      "forecast": 7113,
      "pump": 7114,
      "##ush": 7115,
      "nbsp": 7116,
      "gath": 7117,
      "1974": 7118,
      "cleanu": 7119,
      "exclusion": 7120,
      "followed": 7121,
      "eag": 7122,
      "taxing": 7123,
      "resorts": 7124,
      "expensive": 7125,
      "move": 7126,
      "##bridge": 7127,
      "issuances": 7128,
      "invoice": 7129,
      "considerations": 7130,
      "ordered": 7131,
      "shop": 7132,
      "gap": 7133,
      "column": 7134,
      "229": 7135,
      "##esc": 7136,
      "##ognized": 7137,
      "quickly": 7138,
      "##issue": 7139,
      "ineff": 7140,
      "mechanical": 7141,
      "flexible": 7142,
      "hydr": 7143,
      "islands": 7144,
      "earth": 7145,
      "##urrence": 7146,
      "compromise": 7147,
      "##chem": 7148,
      "suffered": 7149,
      "##south": 7150,
      "bermuda": 7151,
      "sufficiency": 7152,
      "270": 7153,
      "misstatements": 7154,
      "lam": 7155,
      "produces": 7156,
      "deleted": 7157,
      "##odies": 7158,
      "platforms": 7159,
      "caution": 7160,
      "##emptions": 7161,
      "survey": 7162,
      "characterized": 7163,
      "welf": 7164,
      "isra": 7165,
      "550": 7166,
      "little": 7167,
      "welfare": 7168,
      "underc": 7169,
      "escal": 7170,
      "omn": 7171,
      "deducted": 7172,
      "informed": 7173,
      "lif": 7174,
      "unrecognized": 7175,
      "##anese": 7176,
      "panel": 7177,
      "compensate": 7178,
      "ucc": 7179,
      "stop": 7180,
      "preclude": 7181,
      "cleanup": 7182,
      "##44": 7183,
      "interconnection": 7184,
      "variations": 7185,
      "aerospace": 7186,
      "revol": 7187,
      "ct": 7188,
      "210": 7189,
      "monitors": 7190,
      "equally": 7191,
      "##orb": 7192,
      "unconditionally": 7193,
      "wm": 7194,
      "lawfully": 7195,
      "mills": 7196,
      "biot": 7197,
      "truc": 7198,
      "##theless": 7199,
      "nations": 7200,
      "associations": 7201,
      "franchisee": 7202,
      "afric": 7203,
      "tech": 7204,
      "qualifications": 7205,
      "counterpart": 7206,
      "156": 7207,
      "segreg": 7208,
      "plastic": 7209,
      "bc": 7210,
      "gate": 7211,
      "stead": 7212,
      "##stream": 7213,
      "defects": 7214,
      "latest": 7215,
      "preparing": 7216,
      "refers": 7217,
      "unith": 7218,
      "##gery": 7219,
      "image": 7220,
      "repurchases": 7221,
      "jus": 7222,
      "severe": 7223,
      "complaints": 7224,
      "unithold": 7225,
      "patr": 7226,
      "decided": 7227,
      "shut": 7228,
      "landfill": 7229,
      "cms": 7230,
      "lot": 7231,
      "##uate": 7232,
      "pensions": 7233,
      "sublic": 7234,
      "northeast": 7235,
      "discr": 7236,
      "microsoft": 7237,
      "wastes": 7238,
      "##rook": 7239,
      "unexerc": 7240,
      "unknow": 7241,
      "gathering": 7242,
      "occasion": 7243,
      "##bacco": 7244,
      "payout": 7245,
      "136": 7246,
      "2012": 7247,
      "##stein": 7248,
      "tobacco": 7249,
      "allegh": 7250,
      "front": 7251,
      "rs": 7252,
      "utah": 7253,
      "revocation": 7254,
      "##istar": 7255,
      "sponsoring": 7256,
      "incorporate": 7257,
      "consistently": 7258,
      "1981": 7259,
      "merge": 7260,
      "carbon": 7261,
      "curtail": 7262,
      "ali": 7263,
      "jpm": 7264,
      "unde": 7265,
      "logistics": 7266,
      "unknown": 7267,
      "rand": 7268,
      "defenses": 7269,
      "version": 7270,
      "220": 7271,
      "alco": 7272,
      "rescind": 7273,
      "##ially": 7274,
      "##thetic": 7275,
      "gal": 7276,
      "subordinate": 7277,
      "rob": 7278,
      "##idence": 7279,
      "##omb": 7280,
      "copyrights": 7281,
      "advantages": 7282,
      "364": 7283,
      "ton": 7284,
      "downturn": 7285,
      "connected": 7286,
      "glass": 7287,
      "nonac": 7288,
      "nomination": 7289,
      "##ka": 7290,
      "miller": 7291,
      "boe": 7292,
      "cancelable": 7293,
      "challenges": 7294,
      "tn": 7295,
      "hourly": 7296,
      "##crual": 7297,
      "165": 7298,
      "##ny": 7299,
      "indian": 7300,
      "fash": 7301,
      "reimbursements": 7302,
      "pit": 7303,
      "##tration": 7304,
      "assert": 7305,
      "##vard": 7306,
      "##ican": 7307,
      "275": 7308,
      "horizon": 7309,
      "language": 7310,
      "immun": 7311,
      "kel": 7312,
      "##87": 7313,
      "fresh": 7314,
      "422": 7315,
      "nonaccrual": 7316,
      "destroyed": 7317,
      "##ette": 7318,
      "##vert": 7319,
      "serious": 7320,
      "subjective": 7321,
      "denominator": 7322,
      "patterns": 7323,
      "amb": 7324,
      "jackson": 7325,
      "eagle": 7326,
      "registrations": 7327,
      "reinsurer": 7328,
      "develops": 7329,
      "collaborative": 7330,
      "##era": 7331,
      "worked": 7332,
      "##afts": 7333,
      "gard": 7334,
      "allocate": 7335,
      "kil": 7336,
      "antib": 7337,
      "pers": 7338,
      "alleges": 7339,
      "ash": 7340,
      "undercapital": 7341,
      "kept": 7342,
      "config": 7343,
      "independ": 7344,
      "permissible": 7345,
      "##load": 7346,
      "disclaim": 7347,
      "##porting": 7348,
      "household": 7349,
      "noteholders": 7350,
      "buyers": 7351,
      "renov": 7352,
      "fron": 7353,
      "entirely": 7354,
      "##odyne": 7355,
      "contributing": 7356,
      "forfeit": 7357,
      "fish": 7358,
      "nutr": 7359,
      "fn": 7360,
      "prohibition": 7361,
      "undercapitalized": 7362,
      "encoun": 7363,
      "##eth": 7364,
      "therapeutic": 7365,
      "engaging": 7366,
      "147": 7367,
      "continuance": 7368,
      "##ris": 7369,
      "student": 7370,
      "occupied": 7371,
      "139": 7372,
      "pun": 7373,
      "entitle": 7374,
      "moving": 7375,
      "351": 7376,
      "supr": 7377,
      "pursuing": 7378,
      "windows": 7379,
      "510": 7380,
      "##yst": 7381,
      "defending": 7382,
      "##tu": 7383,
      "maximize": 7384,
      "unusual": 7385,
      "tissue": 7386,
      "catastr": 7387,
      "borne": 7388,
      "coso": 7389,
      "espec": 7390,
      "##cor": 7391,
      "nationally": 7392,
      "feasibility": 7393,
      "silver": 7394,
      "hs": 7395,
      "pict": 7396,
      "updated": 7397,
      "claiming": 7398,
      "falls": 7399,
      "bir": 7400,
      "##000": 7401,
      "northwest": 7402,
      "ronald": 7403,
      "attn": 7404,
      "##acks": 7405,
      "maine": 7406,
      "incurrence": 7407,
      "starting": 7408,
      "mel": 7409,
      "improper": 7410,
      "jeffrey": 7411,
      "aa": 7412,
      "franklin": 7413,
      "approximated": 7414,
      "supervisory": 7415,
      "pene": 7416,
      "disbursement": 7417,
      "electronically": 7418,
      "theretofore": 7419,
      "rentable": 7420,
      "shell": 7421,
      "retaining": 7422,
      "##za": 7423,
      "##guard": 7424,
      "##fb": 7425,
      "601": 7426,
      "courier": 7427,
      "latin": 7428,
      "1st": 7429,
      "art": 7430,
      "repricing": 7431,
      "##apore": 7432,
      "especially": 7433,
      "designee": 7434,
      "bure": 7435,
      "dc": 7436,
      "comed": 7437,
      "execut": 7438,
      "cb": 7439,
      "science": 7440,
      "incap": 7441,
      "circumstance": 7442,
      "contested": 7443,
      "##ysis": 7444,
      "##kins": 7445,
      "230": 7446,
      "independence": 7447,
      "bind": 7448,
      "singapore": 7449,
      "hos": 7450,
      "confirming": 7451,
      "wom": 7452,
      "abb": 7453,
      "##attle": 7454,
      "##va": 7455,
      "competitor": 7456,
      "noncompliance": 7457,
      "titles": 7458,
      "##tinc": 7459,
      "nonrec": 7460,
      "calculate": 7461,
      "matures": 7462,
      "instance": 7463,
      "##acing": 7464,
      "governments": 7465,
      "##tery": 7466,
      "rub": 7467,
      "discontinue": 7468,
      "409": 7469,
      "addend": 7470,
      "marri": 7471,
      "retire": 7472,
      "psn": 7473,
      "enron": 7474,
      "grace": 7475,
      "lod": 7476,
      "mezz": 7477,
      "##gn": 7478,
      "912": 7479,
      "extreme": 7480,
      "prohibits": 7481,
      "cay": 7482,
      "measur": 7483,
      "fsp": 7484,
      "0001": 7485,
      "numerator": 7486,
      "adjourn": 7487,
      "410": 7488,
      "##adelphia": 7489,
      "##vin": 7490,
      "domain": 7491,
      "spot": 7492,
      "depletion": 7493,
      "isp": 7494,
      "aggress": 7495,
      "prove": 7496,
      "just": 7497,
      "invalidity": 7498,
      "situated": 7499,
      "##asc": 7500,
      "tal": 7501,
      "games": 7502,
      "brad": 7503,
      "americas": 7504,
      "gs": 7505,
      "understandings": 7506,
      "philadelphia": 7507,
      "interface": 7508,
      "recyc": 7509,
      "##western": 7510,
      "distinc": 7511,
      "conventional": 7512,
      "aggressive": 7513,
      "tread": 7514,
      "##pective": 7515,
      "##hs": 7516,
      "##ivided": 7517,
      "upgrades": 7518,
      "geodyne": 7519,
      "##59": 7520,
      "##jm": 7521,
      "voted": 7522,
      "turb": 7523,
      "##criptions": 7524,
      "plastics": 7525,
      "copper": 7526,
      "comparative": 7527,
      "grew": 7528,
      "induc": 7529,
      "##anine": 7530,
      "begins": 7531,
      "evaluations": 7532,
      "##ients": 7533,
      "rollo": 7534,
      "sars": 7535,
      "permanently": 7536,
      "##corp": 7537,
      "##erved": 7538,
      "town": 7539,
      "fashion": 7540,
      "costly": 7541,
      "construct": 7542,
      "501": 7543,
      "peoples": 7544,
      "constituted": 7545,
      "rout": 7546,
      "terminating": 7547,
      "revolver": 7548,
      "integrity": 7549,
      "dealing": 7550,
      "prox": 7551,
      "ax": 7552,
      "cel": 7553,
      "thence": 7554,
      "unlike": 7555,
      "stocks": 7556,
      "adjud": 7557,
      "424": 7558,
      "##urate": 7559,
      "##di": 7560,
      "heat": 7561,
      "compliant": 7562,
      "merit": 7563,
      "##elon": 7564,
      "##group": 7565,
      "franchisees": 7566,
      "introduce": 7567,
      "reversed": 7568,
      "reduces": 7569,
      "assured": 7570,
      "nursing": 7571,
      "terminals": 7572,
      "emphasis": 7573,
      "##repr": 7574,
      "##rete": 7575,
      "shortfall": 7576,
      "sixth": 7577,
      "##lined": 7578,
      "##eny": 7579,
      "fred": 7580,
      "clark": 7581,
      "volatile": 7582,
      "##wan": 7583,
      "christ": 7584,
      "subcontractors": 7585,
      "live": 7586,
      "salton": 7587,
      "mezzanine": 7588,
      "structural": 7589,
      "va": 7590,
      "nonperforming": 7591,
      "chosen": 7592,
      "remarketing": 7593,
      "ascribed": 7594,
      "minimal": 7595,
      "surround": 7596,
      "##etical": 7597,
      "elections": 7598,
      "ba": 7599,
      "##col": 7600,
      "168": 7601,
      "annualized": 7602,
      "rod": 7603,
      "bru": 7604,
      "weight": 7605,
      "showing": 7606,
      "telecopy": 7607,
      "alliances": 7608,
      "850": 7609,
      "ju": 7610,
      "recommendations": 7611,
      "reject": 7612,
      "ban": 7613,
      "punitive": 7614,
      "affix": 7615,
      "##ng": 7616,
      "fm": 7617,
      "fulfilled": 7618,
      "reversal": 7619,
      "allied": 7620,
      "##look": 7621,
      "##zy": 7622,
      "vegas": 7623,
      "##echnology": 7624,
      "##times": 7625,
      "jpmorgan": 7626,
      "posted": 7627,
      "devote": 7628,
      "203": 7629,
      "alex": 7630,
      "unconditional": 7631,
      "fig": 7632,
      "##nis": 7633,
      "financ": 7634,
      "##employer": 7635,
      "explan": 7636,
      "152": 7637,
      "##neth": 7638,
      "engin": 7639,
      "proxies": 7640,
      "railroad": 7641,
      "multiemployer": 7642,
      "atm": 7643,
      "false": 7644,
      "##istrib": 7645,
      "output": 7646,
      "serviced": 7647,
      "mp": 7648,
      "hal": 7649,
      "ry": 7650,
      "van": 7651,
      "mcf": 7652,
      "warner": 7653,
      "radi": 7654,
      "engines": 7655,
      "modern": 7656,
      "sublet": 7657,
      "asserting": 7658,
      "dynam": 7659,
      "tend": 7660,
      "704": 7661,
      "hurr": 7662,
      "commodities": 7663,
      "##ystems": 7664,
      "seasonality": 7665,
      "illness": 7666,
      "papers": 7667,
      "ultr": 7668,
      "fraudul": 7669,
      "refunds": 7670,
      "difficulty": 7671,
      "ire": 7672,
      "hawa": 7673,
      "ridge": 7674,
      "participations": 7675,
      "japanese": 7676,
      "##ides": 7677,
      "noncance": 7678,
      "sequ": 7679,
      "hurric": 7680,
      "arises": 7681,
      "##oline": 7682,
      "fields": 7683,
      "##tile": 7684,
      "refinery": 7685,
      "observ": 7686,
      "rog": 7687,
      "concurrent": 7688,
      "sb": 7689,
      "funda": 7690,
      "magn": 7691,
      "tract": 7692,
      "marked": 7693,
      "financings": 7694,
      "mold": 7695,
      "##vi": 7696,
      "innovative": 7697,
      "sky": 7698,
      "nond": 7699,
      "internationally": 7700,
      "quotations": 7701,
      "ts": 7702,
      "rising": 7703,
      "supreme": 7704,
      "aviation": 7705,
      "retains": 7706,
      "alm": 7707,
      "anderson": 7708,
      "##aried": 7709,
      "consultation": 7710,
      "davis": 7711,
      "completing": 7712,
      "certificateholders": 7713,
      "##tically": 7714,
      "drawings": 7715,
      "##ert": 7716,
      "##atever": 7717,
      "whatever": 7718,
      "relieve": 7719,
      "##07": 7720,
      "interbank": 7721,
      "ready": 7722,
      "##employment": 7723,
      "aim": 7724,
      "doe": 7725,
      "existed": 7726,
      "##iled": 7727,
      "205": 7728,
      "kenneth": 7729,
      "fit": 7730,
      "hen": 7731,
      "bureau": 7732,
      "vent": 7733,
      "325": 7734,
      "salaried": 7735,
      "italy": 7736,
      "serp": 7737,
      "consented": 7738,
      "301": 7739,
      "##orr": 7740,
      "counties": 7741,
      "marsh": 7742,
      "215": 7743,
      "kore": 7744,
      "cycles": 7745,
      "surgery": 7746,
      "monies": 7747,
      "pharmacy": 7748,
      "amp": 7749,
      "##payment": 7750,
      "subro": 7751,
      "substituted": 7752,
      "admission": 7753,
      "treadway": 7754,
      "certifies": 7755,
      "attain": 7756,
      "##hon": 7757,
      "xiii": 7758,
      "approving": 7759,
      "path": 7760,
      "ds": 7761,
      "ireland": 7762,
      "hall": 7763,
      "##anded": 7764,
      "pipe": 7765,
      "refining": 7766,
      "undivided": 7767,
      "185": 7768,
      "ter": 7769,
      "transmit": 7770,
      "##rd": 7771,
      "educational": 7772,
      "outlook": 7773,
      "adap": 7774,
      "detection": 7775,
      "##ticipated": 7776,
      "##cil": 7777,
      "measuring": 7778,
      "resellers": 7779,
      "coupon": 7780,
      "unanticipated": 7781,
      "cents": 7782,
      "ontar": 7783,
      "310": 7784,
      "plural": 7785,
      "fro": 7786,
      "residence": 7787,
      "marriott": 7788,
      "##esis": 7789,
      "ontario": 7790,
      "motors": 7791,
      "forecasts": 7792,
      "nearest": 7793,
      "##key": 7794,
      "13d": 7795,
      "##eller": 7796,
      "moneys": 7797,
      "addendum": 7798,
      "mg": 7799,
      "trades": 7800,
      "jan": 7801,
      "contamin": 7802,
      "varies": 7803,
      "cg": 7804,
      "breaches": 7805,
      "606": 7806,
      "leh": 7807,
      "abn": 7808,
      "analyses": 7809,
      "##ancies": 7810,
      "##eful": 7811,
      "temper": 7812,
      "mae": 7813,
      "generality": 7814,
      "soft": 7815,
      "sometimes": 7816,
      "argen": 7817,
      "singular": 7818,
      "appropriately": 7819,
      "unreg": 7820,
      "##ode": 7821,
      "bou": 7822,
      "lakes": 7823,
      "##ominant": 7824,
      "wilm": 7825,
      "obligors": 7826,
      "##flow": 7827,
      "catastrop": 7828,
      "##tibank": 7829,
      "##patient": 7830,
      "##fund": 7831,
      "ml": 7832,
      "orient": 7833,
      "##ze": 7834,
      "africa": 7835,
      "correction": 7836,
      "167": 7837,
      "lighting": 7838,
      "endorsement": 7839,
      "##orm": 7840,
      "lowest": 7841,
      "##ander": 7842,
      "peer": 7843,
      "council": 7844,
      "encourage": 7845,
      "synthetic": 7846,
      "aside": 7847,
      "psc": 7848,
      "allegheny": 7849,
      "constrain": 7850,
      "##eck": 7851,
      "datetime": 7852,
      "flood": 7853,
      "obtains": 7854,
      "##appropri": 7855,
      "coupled": 7856,
      "ore": 7857,
      "movements": 7858,
      "regulate": 7859,
      "authorizing": 7860,
      "asked": 7861,
      "denial": 7862,
      "citibank": 7863,
      "earliest": 7864,
      "tenth": 7865,
      "##aign": 7866,
      "##49": 7867,
      "poly": 7868,
      "402": 7869,
      "##hol": 7870,
      "skilled": 7871,
      "que": 7872,
      "alph": 7873,
      "restructured": 7874,
      "##fa": 7875,
      "consequence": 7876,
      "finding": 7877,
      "prudential": 7878,
      "##acle": 7879,
      "tendered": 7880,
      "ordinances": 7881,
      "hills": 7882,
      "distributes": 7883,
      "unexercised": 7884,
      "##45": 7885,
      "nich": 7886,
      "og": 7887,
      "##86": 7888,
      "permitting": 7889,
      "hampshire": 7890,
      "elev": 7891,
      "##ws": 7892,
      "underwritten": 7893,
      "##ea": 7894,
      "##w1": 7895,
      "comprise": 7896,
      "mile": 7897,
      "##due": 7898,
      "interval": 7899,
      "accepts": 7900,
      "##tech": 7901,
      "drawing": 7902,
      "measurements": 7903,
      "rd": 7904,
      "women": 7905,
      "notary": 7906,
      "delinquency": 7907,
      "forb": 7908,
      "elective": 7909,
      "meaningful": 7910,
      "fundamental": 7911,
      "molec": 7912,
      "unlaw": 7913,
      "##linical": 7914,
      "cayman": 7915,
      "unlawful": 7916,
      "roof": 7917,
      "ave": 7918,
      "surve": 7919,
      "tc": 7920,
      "india": 7921,
      "induce": 7922,
      "##ived": 7923,
      "unissued": 7924,
      "thereupon": 7925,
      "rollover": 7926,
      "fraudulent": 7927,
      "##tina": 7928,
      "subsid": 7929,
      "prevention": 7930,
      "leveraged": 7931,
      "crown": 7932,
      "buying": 7933,
      "##america": 7934,
      "##ett": 7935,
      "defaulted": 7936,
      "surrounding": 7937,
      "lasalle": 7938,
      "312": 7939,
      "alteration": 7940,
      "##aven": 7941,
      "arbitrators": 7942,
      "oems": 7943,
      "sund": 7944,
      "##03": 7945,
      "brief": 7946,
      "ka": 7947,
      "draft": 7948,
      "rooms": 7949,
      "##tv": 7950,
      "trump": 7951,
      "sce": 7952,
      "rus": 7953,
      "greg": 7954,
      "##enger": 7955,
      "psnh": 7956,
      "conferred": 7957,
      "answer": 7958,
      "##essees": 7959,
      "##located": 7960,
      "forest": 7961,
      "networking": 7962,
      "##erate": 7963,
      "generic": 7964,
      "presidents": 7965,
      "countrywide": 7966,
      "federally": 7967,
      "##verages": 7968,
      "minerals": 7969,
      "careful": 7970,
      "preclinical": 7971,
      "privilege": 7972,
      "pty": 7973,
      "166": 7974,
      "fun": 7975,
      "##elect": 7976,
      "eleven": 7977,
      "delivers": 7978,
      "##ora": 7979,
      "defaulting": 7980,
      "arc": 7981,
      "successive": 7982,
      "understands": 7983,
      "toll": 7984,
      "206": 7985,
      "biotechnology": 7986,
      "406": 7987,
      "412": 7988,
      "advise": 7989,
      "evolving": 7990,
      "heretofore": 7991,
      "sd": 7992,
      "confidence": 7993,
      "tci": 7994,
      "producer": 7995,
      "han": 7996,
      "fired": 7997,
      "scr": 7998,
      "composed": 7999,
      "sug": 8000,
      "wilmington": 8001,
      "nol": 8002,
      "overse": 8003,
      "damaged": 8004,
      "anth": 8005,
      "desired": 8006,
      "merchandising": 8007,
      "survival": 8008,
      "enrollment": 8009,
      "delta": 8010,
      "privacy": 8011,
      "retiring": 8012,
      "fox": 8013,
      "continuously": 8014,
      "anyone": 8015,
      "wrong": 8016,
      "authentication": 8017,
      "##ista": 8018,
      "underground": 8019,
      "seq": 8020,
      "examined": 8021,
      "##igr": 8022,
      "incurring": 8023,
      "thirds": 8024,
      "bp": 8025,
      "stages": 8026,
      "mcd": 8027,
      "303": 8028,
      "experts": 8029,
      "precision": 8030,
      "214": 8031,
      "dominion": 8032,
      "##iph": 8033,
      "soci": 8034,
      "lessees": 8035,
      "208": 8036,
      "163": 8037,
      "cf": 8038,
      "themselves": 8039,
      "aro": 8040,
      "perfect": 8041,
      "inquiry": 8042,
      "divestiture": 8043,
      "string": 8044,
      "perpet": 8045,
      "stabil": 8046,
      "##zen": 8047,
      "milestones": 8048,
      "diss": 8049,
      "nominal": 8050,
      "nevertheless": 8051,
      "village": 8052,
      "ft": 8053,
      "gpu": 8054,
      "diverse": 8055,
      "refinanced": 8056,
      "palm": 8057,
      "204": 8058,
      "##locks": 8059,
      "##ura": 8060,
      "cad": 8061,
      "effic": 8062,
      "failures": 8063,
      "enabling": 8064,
      "disruption": 8065,
      "soph": 8066,
      "##lets": 8067,
      "189": 8068,
      "allen": 8069,
      "vacancy": 8070,
      "absorb": 8071,
      "accredited": 8072,
      "corrections": 8073,
      "puc": 8074,
      "##anged": 8075,
      "##ena": 8076,
      "hp": 8077,
      "sciences": 8078,
      "carl": 8079,
      "ends": 8080,
      "##itzer": 8081,
      "##rence": 8082,
      "gasoline": 8083,
      "pf": 8084,
      "orth": 8085,
      "cool": 8086,
      "interven": 8087,
      "##amation": 8088,
      "##gement": 8089,
      "nominees": 8090,
      "objection": 8091,
      "xx": 8092,
      "diseases": 8093,
      "liquidating": 8094,
      "identity": 8095,
      "endorsed": 8096,
      "260": 8097,
      "chris": 8098,
      "nrc": 8099,
      "164": 8100,
      "automation": 8101,
      "alig": 8102,
      "950": 8103,
      "##lick": 8104,
      "attempts": 8105,
      "protest": 8106,
      "signs": 8107,
      "withdrawn": 8108,
      "##ship": 8109,
      "zon": 8110,
      "bord": 8111,
      "##ench": 8112,
      "caps": 8113,
      "##fur": 8114,
      "pounds": 8115,
      "delegate": 8116,
      "dialysis": 8117,
      "##oo": 8118,
      "duke": 8119,
      "prudent": 8120,
      "vs": 8121,
      "exelon": 8122,
      "concept": 8123,
      "lawrence": 8124,
      "##applic": 8125,
      "np": 8126,
      "330": 8127,
      "journ": 8128,
      "##ids": 8129,
      "passage": 8130,
      "background": 8131,
      "##yer": 8132,
      "southeast": 8133,
      "stopp": 8134,
      "ni": 8135,
      "vacc": 8136,
      "behav": 8137,
      "rom": 8138,
      "decide": 8139,
      "##iction": 8140,
      "mental": 8141,
      "##pro": 8142,
      "187": 8143,
      "reinst": 8144,
      "contem": 8145,
      "subsections": 8146,
      "safeguard": 8147,
      "##repres": 8148,
      "creditworth": 8149,
      "coating": 8150,
      "developers": 8151,
      "conditioning": 8152,
      "flight": 8153,
      "fib": 8154,
      "leader": 8155,
      "recommended": 8156,
      "382": 8157,
      "popular": 8158,
      "##istributed": 8159,
      "161": 8160,
      "cinergy": 8161,
      "accretion": 8162,
      "contempor": 8163,
      "calling": 8164,
      "payors": 8165,
      "expert": 8166,
      "illustr": 8167,
      "dak": 8168,
      "##top": 8169,
      "participated": 8170,
      "sophistic": 8171,
      "airport": 8172,
      "dow": 8173,
      "##boat": 8174,
      "subm": 8175,
      "bios": 8176,
      "towards": 8177,
      "174": 8178,
      "look": 8179,
      "##ears": 8180,
      "payables": 8181,
      "##iding": 8182,
      "misrepres": 8183,
      "fabrication": 8184,
      "overdue": 8185,
      "##olved": 8186,
      "proposes": 8187,
      "ingred": 8188,
      "concentrated": 8189,
      "##ascular": 8190,
      "replacing": 8191,
      "clearance": 8192,
      "anticipation": 8193,
      "participates": 8194,
      "unitholders": 8195,
      "bruce": 8196,
      "##inity": 8197,
      "rehabil": 8198,
      "dependence": 8199,
      "israel": 8200,
      "custody": 8201,
      "wit": 8202,
      "##hi": 8203,
      "billings": 8204,
      "tai": 8205,
      "320": 8206,
      "##agen": 8207,
      "##ami": 8208,
      "situations": 8209,
      "assigning": 8210,
      "designations": 8211,
      "2013": 8212,
      "##quencies": 8213,
      "##acom": 8214,
      "subless": 8215,
      "cess": 8216,
      "comput": 8217,
      "quotation": 8218,
      "basin": 8219,
      "stamp": 8220,
      "forming": 8221,
      "202": 8222,
      "##gun": 8223,
      "##ilton": 8224,
      "169": 8225,
      "entitlement": 8226,
      "rescission": 8227,
      "undistributed": 8228,
      "denver": 8229,
      "sublicense": 8230,
      "##essed": 8231,
      "dennis": 8232,
      "remitt": 8233,
      "##amed": 8234,
      "andrew": 8235,
      "parity": 8236,
      "initiate": 8237,
      "involvement": 8238,
      "factory": 8239,
      "securitized": 8240,
      "insolvent": 8241,
      "172": 8242,
      "##ime": 8243,
      "conservation": 8244,
      "##ifts": 8245,
      "provin": 8246,
      "hospitality": 8247,
      "observe": 8248,
      "survivor": 8249,
      "completely": 8250,
      "##cean": 8251,
      "founded": 8252,
      "pjm": 8253,
      "scan": 8254,
      "##76": 8255,
      "euroc": 8256,
      "golden": 8257,
      "always": 8258,
      "winter": 8259,
      "input": 8260,
      "commercialize": 8261,
      "boeing": 8262,
      "##ua": 8263,
      "attainment": 8264,
      "efficacy": 8265,
      "hugh": 8266,
      "yank": 8267,
      "vul": 8268,
      "influenced": 8269,
      "valuations": 8270,
      "disab": 8271,
      "##ired": 8272,
      "satur": 8273,
      "sublessor": 8274,
      "fine": 8275,
      "memory": 8276,
      "brothers": 8277,
      "9b": 8278,
      "nit": 8279,
      "dip": 8280,
      "demonstrate": 8281,
      "##win": 8282,
      "##oral": 8283,
      "leadership": 8284,
      "indicators": 8285,
      "acted": 8286,
      "easements": 8287,
      "pd": 8288,
      "425": 8289,
      "##rich": 8290,
      "guard": 8291,
      "diam": 8292,
      "expended": 8293,
      "recognizing": 8294,
      "diego": 8295,
      "cub": 8296,
      "virtually": 8297,
      "##allow": 8298,
      "bench": 8299,
      "wheel": 8300,
      "00011": 8301,
      "challenge": 8302,
      "desk": 8303,
      "179": 8304,
      "consumption": 8305,
      "##cast": 8306,
      "took": 8307,
      "##tia": 8308,
      "rul": 8309,
      "enact": 8310,
      "235": 8311,
      "##can": 8312,
      "prorated": 8313,
      "##dale": 8314,
      "##change": 8315,
      "navig": 8316,
      "##oe": 8317,
      "madison": 8318,
      "employs": 8319,
      "learning": 8320,
      "burn": 8321,
      "selective": 8322,
      "restore": 8323,
      "decreasing": 8324,
      "##iced": 8325,
      "phr": 8326,
      "##02": 8327,
      "##tings": 8328,
      "lifetime": 8329,
      "##erated": 8330,
      "filled": 8331,
      "ineffective": 8332,
      "premier": 8333,
      "unqualified": 8334,
      "launched": 8335,
      "207": 8336,
      "##ffers": 8337,
      "##men": 8338,
      "multiplying": 8339,
      "typical": 8340,
      "skills": 8341,
      "guide": 8342,
      "176": 8343,
      "hiring": 8344,
      "unav": 8345,
      "misrepresent": 8346,
      "indication": 8347,
      "chip": 8348,
      "##ild": 8349,
      "scot": 8350,
      "columbus": 8351,
      "ways": 8352,
      "##han": 8353,
      "campaign": 8354,
      "##esty": 8355,
      "configur": 8356,
      "si": 8357,
      "sanc": 8358,
      "insign": 8359,
      "ib": 8360,
      "##imination": 8361,
      "conditioned": 8362,
      "retiree": 8363,
      "wafer": 8364,
      "certainty": 8365,
      "cob": 8366,
      "irres": 8367,
      "repe": 8368,
      "moved": 8369,
      "##veland": 8370,
      "##asive": 8371,
      "clarifies": 8372,
      "candidate": 8373,
      "temporarily": 8374,
      "0in": 8375,
      "736": 8376,
      "yankee": 8377,
      "race": 8378,
      "##oco": 8379,
      "##sets": 8380,
      "irrespective": 8381,
      "amending": 8382,
      "245": 8383,
      "hypothetical": 8384,
      "nutrition": 8385,
      "bea": 8386,
      "residents": 8387,
      "injur": 8388,
      "reinsurers": 8389,
      "diamond": 8390,
      "hub": 8391,
      "duplication": 8392,
      "annuities": 8393,
      "188": 8394,
      "delegated": 8395,
      "##eb": 8396,
      "1940": 8397,
      "seventh": 8398,
      "optic": 8399,
      "barrels": 8400,
      "sooner": 8401,
      "frag": 8402,
      "216": 8403,
      "accepting": 8404,
      "violated": 8405,
      "opposed": 8406,
      "accommodate": 8407,
      "focuses": 8408,
      "inspections": 8409,
      "##erald": 8410,
      "situation": 8411,
      "paso": 8412,
      "##changed": 8413,
      "mexican": 8414,
      "analysts": 8415,
      "interference": 8416,
      "impacts": 8417,
      "##hips": 8418,
      "##93": 8419,
      "behavior": 8420,
      "hudson": 8421,
      "##eer": 8422,
      "mechanism": 8423,
      "213": 8424,
      "begun": 8425,
      "##ulate": 8426,
      "cities": 8427,
      "forfeitures": 8428,
      "cri": 8429,
      "setoff": 8430,
      "policyholders": 8431,
      "lehman": 8432,
      "magaz": 8433,
      "renegoti": 8434,
      "airline": 8435,
      "controvers": 8436,
      "222": 8437,
      "wayne": 8438,
      "pbgc": 8439,
      "engagement": 8440,
      "disabled": 8441,
      "##oked": 8442,
      "##rements": 8443,
      "rehabilitation": 8444,
      "##chester": 8445,
      "contractually": 8446,
      "graphics": 8447,
      "perpetual": 8448,
      "weld": 8449,
      "ranges": 8450,
      "408": 8451,
      "korea": 8452,
      "184": 8453,
      "economies": 8454,
      "pools": 8455,
      "ham": 8456,
      "178": 8457,
      "stringent": 8458,
      "profile": 8459,
      "##pay": 8460,
      "##othy": 8461,
      "cv": 8462,
      "171": 8463,
      "nep": 8464,
      "##msc": 8465,
      "deeds": 8466,
      "pepco": 8467,
      "cessation": 8468,
      "circuits": 8469,
      "patrick": 8470,
      "hired": 8471,
      "withdrawals": 8472,
      "terrorist": 8473,
      "iron": 8474,
      "publication": 8475,
      "animal": 8476,
      "environments": 8477,
      "forwards": 8478,
      "inapplic": 8479,
      "##try": 8480,
      "lux": 8481,
      "carryforward": 8482,
      "##ourced": 8483,
      "describe": 8484,
      "sco": 8485,
      "pi": 8486,
      "infringe": 8487,
      "adjour": 8488,
      "##urrency": 8489,
      "209": 8490,
      "barb": 8491,
      "unchanged": 8492,
      "manif": 8493,
      "cleveland": 8494,
      "##market": 8495,
      "##ored": 8496,
      "neu": 8497,
      "ff": 8498,
      "pitts": 8499,
      "contracting": 8500,
      "##cher": 8501,
      "abandonment": 8502,
      "eg": 8503,
      "neur": 8504,
      "adjourned": 8505,
      "##ai": 8506,
      "173": 8507,
      "berry": 8508,
      "notifies": 8509,
      "##onic": 8510,
      "prescribe": 8511,
      "##izer": 8512,
      "304": 8513,
      "unfor": 8514,
      "rf": 8515,
      "##tec": 8516,
      "polym": 8517,
      "181": 8518,
      "customized": 8519,
      "##spec": 8520,
      "territories": 8521,
      "mt": 8522,
      "inspect": 8523,
      "trucks": 8524,
      "invoices": 8525,
      "statistical": 8526,
      "send": 8527,
      "##uk": 8528,
      "##rix": 8529,
      "##ignment": 8530,
      "##ibly": 8531,
      "inacc": 8532,
      "##lon": 8533,
      "##osph": 8534,
      "177": 8535,
      "os": 8536,
      "##sell": 8537,
      "##apsed": 8538,
      "hem": 8539,
      "forg": 8540,
      "packages": 8541,
      "182": 8542,
      "##link": 8543,
      "subrogation": 8544,
      "ratable": 8545,
      "qs": 8546,
      "kev": 8547,
      "coff": 8548,
      "wage": 8549,
      "grounds": 8550,
      "judge": 8551,
      "bach": 8552,
      "admitted": 8553,
      "almost": 8554,
      "theat": 8555,
      "perfected": 8556,
      "merchants": 8557,
      "widely": 8558,
      "examinations": 8559,
      "extends": 8560,
      "186": 8561,
      "luc": 8562,
      "sophisticated": 8563,
      "executors": 8564,
      "spain": 8565,
      "stored": 8566,
      "superm": 8567,
      "inapplicable": 8568,
      "capitalize": 8569,
      "##self": 8570,
      "salv": 8571,
      "telegr": 8572,
      "biom": 8573,
      "dl": 8574,
      "interior": 8575,
      "##anium": 8576,
      "183": 8577,
      "##mg": 8578,
      "novel": 8579,
      "relies": 8580,
      "films": 8581,
      "array": 8582,
      "rain": 8583,
      "productive": 8584,
      "##eman": 8585,
      "governors": 8586,
      "ko": 8587,
      "cooperation": 8588,
      "192": 8589,
      "intermediate": 8590,
      "repro": 8591,
      "1978": 8592,
      "revise": 8593,
      "argentina": 8594,
      "305": 8595,
      "architecture": 8596,
      "laur": 8597,
      "today": 8598,
      "unenforceability": 8599,
      "efficiently": 8600,
      "reac": 8601,
      "initiative": 8602,
      "complementary": 8603,
      "libr": 8604,
      "essentially": 8605,
      "##room": 8606,
      "remun": 8607,
      "simple": 8608,
      "computations": 8609,
      "breached": 8610,
      "game": 8611,
      "##tex": 8612,
      "##inger": 8613,
      "taiwan": 8614,
      "soil": 8615,
      "clearly": 8616,
      "cargo": 8617,
      "attendance": 8618,
      "##mont": 8619,
      "overr": 8620,
      "tariffs": 8621,
      "unspec": 8622,
      "unbilled": 8623,
      "##iser": 8624,
      "deployment": 8625,
      "link": 8626,
      "specul": 8627,
      "reposs": 8628,
      "acad": 8629,
      "diligently": 8630,
      "abandoned": 8631,
      "exter": 8632,
      "headquartered": 8633,
      "deleting": 8634,
      "cleaning": 8635,
      "redemptions": 8636,
      "levy": 8637,
      "rounded": 8638,
      "protocol": 8639,
      "recruit": 8640,
      "##town": 8641,
      "unspecified": 8642,
      "packaged": 8643,
      "distributable": 8644,
      "##zyme": 8645,
      "gmac": 8646,
      "ceded": 8647,
      "reinvested": 8648,
      "aus": 8649,
      "##031": 8650,
      "##imm": 8651,
      "supports": 8652,
      "##outs": 8653,
      "##nb": 8654,
      "recre": 8655,
      "219": 8656,
      "kevin": 8657,
      "vit": 8658,
      "insure": 8659,
      "strike": 8660,
      "eli": 8661,
      "unavail": 8662,
      "detect": 8663,
      "pet": 8664,
      "##ologies": 8665,
      "##ken": 8666,
      "passenger": 8667,
      "unexpected": 8668,
      "megaw": 8669,
      "commences": 8670,
      "codes": 8671,
      "communicated": 8672,
      "lots": 8673,
      "affixed": 8674,
      "1b": 8675,
      "##emin": 8676,
      "customarily": 8677,
      "originations": 8678,
      "anthony": 8679,
      "applicant": 8680,
      "cold": 8681,
      "314": 8682,
      "tamp": 8683,
      "##braska": 8684,
      "191": 8685,
      "procure": 8686,
      "315": 8687,
      "adh": 8688,
      "assisted": 8689,
      "howard": 8690,
      "mes": 8691,
      "##ores": 8692,
      "patented": 8693,
      "remuneration": 8694,
      "##cla": 8695,
      "nebraska": 8696,
      "multif": 8697,
      "##aks": 8698,
      "holly": 8699,
      "wmeco": 8700,
      "##inson": 8701,
      "terrorism": 8702,
      "enforcing": 8703,
      "##tinent": 8704,
      "kar": 8705,
      "outdo": 8706,
      "leav": 8707,
      "390": 8708,
      "##arry": 8709,
      "enabled": 8710,
      "pac": 8711,
      "gro": 8712,
      "1979": 8713,
      "petro": 8714,
      "##istry": 8715,
      "otc": 8716,
      "290": 8717,
      "publications": 8718,
      "##berts": 8719,
      "forbear": 8720,
      "pncmsc": 8721,
      "journal": 8722,
      "dakota": 8723,
      "##idian": 8724,
      "##ibus": 8725,
      "hypothec": 8726,
      "disputed": 8727,
      "##ographic": 8728,
      "protective": 8729,
      "vacancies": 8730,
      "accrues": 8731,
      "##itude": 8732,
      "elapsed": 8733,
      "bids": 8734,
      "speculative": 8735,
      "verm": 8736,
      "unresolved": 8737,
      "imposes": 8738,
      "map": 8739,
      "excell": 8740,
      "dtc": 8741,
      "signatory": 8742,
      "inclusive": 8743,
      "discrimination": 8744,
      "##lable": 8745,
      "indemnities": 8746,
      "intellig": 8747,
      "tcc": 8748,
      "recall": 8749,
      "285": 8750,
      "appraiser": 8751,
      "unm": 8752,
      "wareh": 8753,
      "ram": 8754,
      "1976": 8755,
      "anch": 8756,
      "engineered": 8757,
      "forced": 8758,
      "conference": 8759,
      "tail": 8760,
      "211": 8761,
      "indicating": 8762,
      "negotiating": 8763,
      "engages": 8764,
      "airways": 8765,
      "224": 8766,
      "belg": 8767,
      "thermal": 8768,
      "creditworthiness": 8769,
      "##hp": 8770,
      "indications": 8771,
      "highway": 8772,
      "dere": 8773,
      "##ses": 8774,
      "corre": 8775,
      "##aylor": 8776,
      "clubs": 8777,
      "theft": 8778,
      "lincol": 8779,
      "securitizations": 8780,
      "vene": 8781,
      "craig": 8782,
      "timothy": 8783,
      "define": 8784,
      "switching": 8785,
      "228": 8786,
      "##ives": 8787,
      "667": 8788,
      "conduit": 8789,
      "##inge": 8790,
      "wag": 8791,
      "reass": 8792,
      "presentment": 8793,
      "##57": 8794,
      "resident": 8795,
      "liquidate": 8796,
      "insider": 8797,
      "unions": 8798,
      "corn": 8799,
      "finish": 8800,
      "218": 8801,
      "castle": 8802,
      "reseller": 8803,
      "mur": 8804,
      "bern": 8805,
      "exha": 8806,
      "happ": 8807,
      "##owners": 8808,
      "inhib": 8809,
      "fuels": 8810,
      "334": 8811,
      "cook": 8812,
      "##veloped": 8813,
      "deep": 8814,
      "340": 8815,
      "##mann": 8816,
      "renewable": 8817,
      "unal": 8818,
      "subcontractor": 8819,
      "242": 8820,
      "fpl": 8821,
      "remitted": 8822,
      "##ishment": 8823,
      "conv": 8824,
      "pertinent": 8825,
      "trip": 8826,
      "480": 8827,
      "scen": 8828,
      "217": 8829,
      "eighty": 8830,
      "slot": 8831,
      "193": 8832,
      "dispatch": 8833,
      "employing": 8834,
      "demonstrated": 8835,
      "retainer": 8836,
      "awar": 8837,
      "keeping": 8838,
      "object": 8839,
      "resigned": 8840,
      "##frame": 8841,
      "diesel": 8842,
      "awareness": 8843,
      "gift": 8844,
      "engineer": 8845,
      "australian": 8846,
      "tracking": 8847,
      "clo": 8848,
      "dean": 8849,
      "reorganized": 8850,
      "tort": 8851,
      "carefully": 8852,
      "tanks": 8853,
      "refined": 8854,
      "diversification": 8855,
      "cath": 8856,
      "##zer": 8857,
      "penetration": 8858,
      "matured": 8859,
      "##ceived": 8860,
      "##arket": 8861,
      "##ung": 8862,
      "380": 8863,
      "416": 8864,
      "transferring": 8865,
      "rural": 8866,
      "harmed": 8867,
      "cru": 8868,
      "warehousing": 8869,
      "##tek": 8870,
      "discip": 8871,
      "miami": 8872,
      "alan": 8873,
      "##ower": 8874,
      "rebates": 8875,
      "wear": 8876,
      "##iner": 8877,
      "nortel": 8878,
      "dependents": 8879,
      "attained": 8880,
      "ral": 8881,
      "outdoor": 8882,
      "dead": 8883,
[...]
