[PAD]
[UNK]
[CLS]
[SEP]
[MASK]
!
"
#
$
%
&
'
(
)
*
+
,
-
.
/
0
1
2
3
4
5
6
7
8
9
:
;
<
=
>
?
@
[
\
]
^
_
`
a
b
c
d
e
f
g
h
i
j
k
l
m
n
o
p
q
r
s
t
u
v
w
x
y
z
{
|
}
~
##v
##s
##c
##h
##2
##1
##7
##m
##z
##w
##o
##0
##5
##4
##k
##r
##n
##e
##p
##a
##8
##3
##u
##i
##g
##l
##j
##q
##6
##d
##b
##f
##t
##y
##x
##9
##er
th
##ti
##on
the
##en
##es
##ed
##an
##in
of
##or
in
an
##al
##at
##ar
##tion
##ent
and
##ec
##it
to
##om
##ur
##is
##ing
##ic
##em
##as
pr
re
com
##ation
##il
##re
or
##ts
for
##ch
as
comp
con
##ol
##ve
##ou
su
##00
ex
##ce
be
##ement
pro
st
##ly
##th
##id
##st
##le
##ir
##ter
##ate
no
##se
inc
##ment
ac
sh
compan
##tin
on
##ab
de
##ith
by
company
##lo
##li
##ers
##ect
200
##ated
##ay
with
is
##tr
any
##ting
##nd
##ci
##im
##qu
res
##ess
##ul
##et
##ac
ag
wh
##ig
##ant
19
##ver
##ity
##ther
##por
not
##ere
##os
al
##oun
such
##ain
##tive
##all
par
##ag
sec
op
##oc
##able
that
##ties
##est
ad
199
per
##ber
##pp
##ance
are
##end
##fic
other
at
##ro
shall
am
##ations
tr
##ud
agre
##mp
fin
##el
acc
fr
##uc
##od
this
##ion
##ib
our
##ut
sub
##ition
##ff
##ase
##ust
comm
##ich
##us
##cial
app
agreement
inter
##ee
##ue
finan
##ans
##and
##ear
from
##nder
##iv
##ad
exp
rec
which
ch
##ock
##for
cons
##ary
stat
dis
stock
pl
its
dec
en
financial
##ities
##red
##ember
##ted
un
pur
##um
under
##illi
ser
##ies
##illion
prov
year
ha
##fer
##ard
reg
mar
shar
##erm
all
##tain
we
##ements
million
##am
##lud
##ang
##ure
oper
part
##tions
term
ind
##ill
##ens
##old
may
##ap
##ign
##su
##low
have
##ip
co
includ
##orpor
man
pay
31
le
##ual
requ
contr
serv
##ments
lo
10
##igh
##ased
##ors
li
##duc
##form
secur
##ord
##loy
resp
##dition
emp
servic
accoun
december
000
##ach
employ
##age
##iz
it
##ome
##ial
ta
##eral
##irect
repor
##cip
amoun
##ility
ne
##act
provid
mat
was
interest
ass
will
date
cer
inv
has
rel
##ating
produc
sal
##ow
direct
mark
section
eff
val
resul
tim
##istr
plan
##iness
##ank
here
bus
appro
requir
business
##ates
asse
##ective
##ven
gr
corpor
trans
statements
##pr
equ
if
##un
se
there
exec
me
##ty
##lic
##min
##iod
period
##uring
end
tax
##oss
bank
ob
##pt
form
each
##row
time
##ld
##aw
cas
cl
manag
offic
int
gen
##ef
net
##ail
##tic
##per
##ange
cap
shares
subs
bo
up
##ence
##ings
incre
##air
sp
##ru
us
##its
securities
income
pre
##ited
these
##ents
##ior
##olid
##lig
cred
disc
purch
corporation
##ould
execu
common
##ell
##if
assets
##ners
cash
##ision
##ice
imp
consolid
ab
##ise
mor
##urr
pres
##oll
rece
ow
##ific
fil
addition
##hip
##uar
##ital
ev
ben
##og
##tial
##pos
operations
##idi
credit
##ately
amount
value
ins
been
were
subsidi
def
ar
during
fol
share
follow
proper
including
##ative
management
act
##erial
righ
executive
##ied
bor
ii
##ous
issu
##gh
market
invest
##of
material
ann
registr
##isc
new
borrow
consolidated
than
acqu
##ees
general
ma
hold
##ough
##ive
##ject
##fter
##xim
certain
based
##ge
##ade
rate
##ces
related
##ized
##tit
12
##ferred
2002
##our
##ection
aff
ended
des
capital
cos
##are
##ot
trust
amend
oblig
lim
report
##cess
2003
services
##hold
costs
2004
loss
upon
##erson
go
##iscal
prin
fiscal
##ures
15
inform
over
sign
cust
reven
person
pursu
accounting
##ticip
years
information
##ong
sales
##und
##ory
applic
curr
pursuant
products
##arr
##nership
30
contin
##iss
fac
##ke
item
##ected
princip
loan
law
custom
##aid
##itt
day
notes
non
approxim
liab
##los
##ilities
mon
##ense
es
2005
benef
regul
au
##out
required
provided
2001
##hib
##tim
##ame
red
##anding
##ine
##ose
##ason
##so
##rough
termin
13
directors
##ork
due
board
##ical
operating
##trib
el
11
##ants
respect
made
approximately
##ceed
deter
annual
subject
control
##ass
spec
provision
condition
##velo
prior
exch
through
one
##enses
oc
rem
##ution
set
##ia
determin
##uts
##tiv
own
following
after
##urance
##velop
##tw
##gr
also
##aries
num
2000
perform
receiv
develop
statement
option
exhib
##op
outs
fund
purchase
reason
their
fir
exchange
##tal
deb
sy
14
particip
##enc
payment
char
current
certi
price
2006
total
lend
results
intern
property
compens
party
##ist
accord
##erc
agent
fair
number
he
##ues
registrant
##ified
incorpor
note
additional
expenses
noti
terms
loans
1999
estim
subsidiaries
ear
cla
1998
transac
principal
employee
##ivid
record
into
fut
distrib
cost
##cept
##ission
bas
##led
1997
inst
##ily
rights
officer
effect
compensation
coll
prim
borrower
respective
##ish
quar
partnership
quarter
service
##ast
##stem
future
lease
effective
##ond
do
exhibit
refer
wr
##les
inde
##use
state
outst
##hn
system
##cr
applicable
##erg
outstanding
ext
obligations
1996
##ward
amounts
increase
##ire
rep
##par
result
##eld
grant
exerc
auth
##ub
##ible
debt
por
##ident
repr
more
rev
can
##ree
##ati
##een
av
##ational
##ificant
##holders
filed
##ined
significant
ris
20
ten
deli
##isition
##ix
admin
main
sale
first
month
acquisition
est
repres
sch
notice
supp
sell
author
##ases
deliver
risk
bec
options
##cent
dated
enter
expense
aud
##mm
cont
restr
claim
march
would
bal
herein
paid
tw
equity
proceed
insurance
certific
##ances
issued
chang
limited
##lement
##tg
event
##ie
ful
administr
betw
between
reference
accordance
##verage
conn
##arily
president
without
coun
doc
##oin
##ying
##ects
use
mortg
continu
tec
could
less
##mit
fe
basis
ord
avail
##ons
forth
str
within
change
account
docu
cal
##ey
##uted
pol
incorporated
increased
jun
ca
##ious
earn
class
##olog
design
##ult
techn
##pend
loc
long
##tained
##ress
provisions
##anu
ref
table
contract
agreements
used
investment
employees
high
##wise
##port
percent
##oci
adver
janu
january
25
included
guar
occ
pow
disclos
adv
1995
otherwise
##ili
pub
##ace
##av
development
marke
##fact
termination
benefit
guarant
revenue
associ
respectively
##ced
##ner
fed
##ved
director
stand
ret
payments
real
sched
customers
except
##urn
activ
##ustr
##ute
provide
##ogn
june
var
product
changes
connection
nor
facility
federal
states
liabilities
primarily
security
##ential
days
adj
##ters
present
but
##oup
lender
requirements
##utions
amended
recogn
available
##uction
##lie
##ata
##ipment
subsidiary
##gin
united
revenues
##uly
progr
parties
16
those
##ves
##reg
see
compar
rates
land
thir
enti
##ability
committ
flow
bu
fore
had
standard
##vern
employment
qual
subst
right
warr
govern
##by
polic
equipment
lic
when
##urred
belie
public
##ule
divid
##ving
##ost
assign
include
##ever
taxes
balance
att
##eto
comple
##ack
##ereto
min
off
##ite
cor
industr
##til
fact
committee
offer
decre
del
##now
thereof
generally
series
program
te
performance
good
restric
mortgage
liability
ph
##ove
##gan
compe
remain
power
payable
manu
group
technolog
##ency
manufact
18
##king
affili
so
##fore
##lish
carr
adjust
leg
##tiz
trustee
##ide
make
iii
instru
fees
losses
##less
##greg
data
##ief
accounts
conditions
represent
whe
sept
defined
consid
september
##uct
tenant
prem
suc
##go
##ole
preferred
well
cour
elect
case
di
transactions
how
again
chief
depos
participant
sf
companies
dividend
##isting
reporting
aggreg
##fici
internal
##to
amendment
whether
allow
21
##ater
sen
17
##itten
administrative
##ecess
exercise
held
benefits
##enture
against
sfas
two
##under
adverse
add
then
three
reser
above
senior
deferred
owned
activities
process
name
third
written
##liance
laws
plans
mr
acquir
##ally
commission
##ges
##oint
average
br
##poses
earnings
contrib
##fe
mod
consider
received
##mental
determined
##crib
##vel
substan
pos
recorded
same
cr
##ight
success
his
##ness
commer
1994
prof
defa
##io
##emn
purposes
limit
gas
##edi
contrac
distribution
vice
##emp
extent
substantial
aggregate
##ys
work
mee
action
##ization
##atory
order
officers
customer
mean
audit
23
##pendent
##eric
asset
33
##mitted
pric
indemn
full
out
systems
means
however
##ither
below
##ffer
##ortiz
commit
necess
properties
only
sim
reasonable
28
##ablish
clos
trad
establish
##man
##ably
##val
meeting
50
contracts
##gment
prev
##ning
##iew
compared
exc
facilities
const
meth
##ile
feb
deem
where
commercial
##iting
##ruary
february
##lord
ll
##ages
claims
##ful
documents
198
transfer
tre
award
##cing
electr
method
portion
100
entit
dem
rest
continued
estimated
ini
hereof
relating
amortiz
respons
investments
landlord
##rement
orig
24
##yp
position
origin
27
default
cent
who
##one
##ound
##aph
##ises
incurred
##loc
equal
fail
hereby
22
ro
reti
fur
##over
##pri
know
##ateral
impair
hereunder
existing
acquired
holders
40
prom
certificate
americ
expected
##ergy
follows
further
##ests
flows
giv
##cribed
artic
granted
stockholders
consent
##ands
##te
vi
collateral
standards
request
##ured
necessary
contents
dr
being
level
cod
adop
##ister
differ
compliance
##uss
competi
##ules
acce
fix
##con
00
does
eng
29
low
liqu
disclosure
transaction
continue
##ator
registration
gener
nov
four
schedule
legal
##tober
october
##mission
maintain
rent
##ension
proced
med
##alu
##inion
independent
refl
##iron
liquid
impro
wa
##ollar
##pan
entitled
funds
indic
maj
env
bene
evalu
##ding
tit
##ged
office
sin
discuss
typ
environ
sup
corporate
regard
code
stor
july
apr
instruments
##unic
gain
sold
opinion
let
##ateg
regulations
##raph
sever
##tig
foreign
until
april
##quent
conf
ability
##ilar
major
decl
cause
##rued
includes
similar
before
energy
##ised
recognized
deemed
affect
national
id
currently
imm
##ll
1993
either
##ks
vol
##alth
nat
##ification
associated
26
##cer
november
pat
proceeds
rele
return
address
grow
among
months
line
##af
shareholders
periods
various
unless
since
merg
specific
##ources
bro
ownership
procedures
title
both
##enti
york
qu
##ian
closing
cover
marketing
##urs
estimates
require
reduc
##olving
##holder
##ines
impact
approval
vo
technology
review
arr
##tives
factors
base
court
reports
sel
matters
life
specified
##alf
##34
obligation
##after
##ret
entered
partner
conver
described
provides
article
##ize
##ort
fixed
five
aug
register
financing
##lus
contained
matur
supplement
##atis
comb
excess
individ
constr
individual
receive
estate
dividends
health
##emb
buil
file
##ath
conduc
##ph
august
##tern
regulatory
international
units
##own
##fied
assess
fl
instit
policies
sof
industry
they
exper
special
sett
using
retirement
##esse
anal
holder
##work
##als
immedi
actual
reasonably
##tib
##irc
dollar
##ular
consum
minim
previous
indenture
prices
circ
initial
der
gre
##cies
authorized
decrease
dispos
controls
##vers
##ten
thous
iv
invent
thereto
2007
leases
##cy
incen
purchas
arrang
markets
charges
servicing
pot
interests
express
summ
##ton
softw
percentage
lar
constit
partners
substantially
##ak
90
##aware
port
software
most
alloc
##lied
license
##going
delaware
##xx
inf
##ood
satis
##unc
coven
##anch
reported
##ium
pe
production
second
##ause
seller
##ompan
##with
obtain
##xt
restricted
##umul
##ival
sur
remaining
exceed
delivery
demand
because
deriv
##co
##iation
gross
bond
merger
recover
deposit
##50
impairment
about
beh
32
identi
relations
##omes
organ
##earch
become
begin
##ordin
##esting
segment
charge
##sp
llc
##ffici
registered
permitted
valu
potential
dam
air
premises
believes
##ote
##encies
regulation
accrued
issuance
believe
##sequent
60
immediately
incentive
##tili
##bted
growth
indebted
environmental
expir
project
##arm
hereto
##dic
sw
indebtedness
##uce
##ables
document
delivered
prot
sole
##idential
affiliates
equival
appropri
##ising
policy
joint
prec
memb
##pose
tele
utili
##tigation
behalf
must
##ibility
contain
01
higher
need
eur
members
network
research
##tical
strateg
div
lower
##cul
##ene
purchased
##set
##iver
meas
profit
member
jud
##fy
experi
##fol
##ural
given
##ences
authority
she
minimum
##will
vari
entity
rati
sou
portfol
resulting
manufacturing
##agraph
accept
construction
##essee
compon
analys
revolving
employer
econ
econom
goodwill
ge
##unications
failure
holding
inte
secured
1934
##sump
assump
elig
key
##orn
##da
approved
principles
local
amortization
calcul
##eciation
integr
located
fee
warrant
##tible
lenders
subsequent
voting
er
poss
##ession
established
some
appropriate
plus
electric
##ield
35
##ically
##ination
##ended
##nel
consist
short
quarterly
aut
letter
bre
executed
jur
36
assum
receivable
stre
##10
##acity
accompan
holdings
retail
forward
cop
regarding
previously
ste
directly
relationship
you
depr
sc
offset
receip
mul
requires
conform
unit
thousands
##sel
accep
margin
separ
##land
##ict
du
resources
agrees
circum
prep
limitation
page
support
hed
allowance
buy
oil
invol
persons
whol
prac
##ety
enfor
portfolio
anticip
liv
banks
least
pension
circumst
discussion
beginning
capacity
##sue
carrying
sol
exclud
duly
##used
##ledge
paragraph
##nia
analysis
##ify
##isted
cali
##burs
priv
##ins
operation
suppli
expend
maturity
recent
rules
##ok
prepar
mo
premium
califor
adopted
##ficial
california
und
tak
sm
34
fully
completed
cre
car
##ler
##ender
500
improv
##anc
while
should
offering
defin
chair
purpose
writing
city
restated
beneficial
juris
##angible
warrants
##ensive
america
jo
##enced
reduction
jurisdic
assurance
hist
##ention
north
covenants
##ending
lessee
street
settlement
manner
corr
expendit
like
##tis
reduced
foregoing
##fficient
wor
post
eligible
accompanying
circumstances
according
multi
##xy
##part
commitments
##bit
ir
proceedings
pen
incorporation
acquisitions
reim
owner
them
accepted
risks
75
inventory
reserves
partic
affected
access
materially
last
evid
propos
chairman
repl
##standing
reserve
##emption
install
fas
##ested
referred
convers
subordin
cle
government
competitive
attorn
37
events
filing
majority
currency
conversion
receipt
45
42
decreased
1992
sheet
particular
##ists
original
##ope
funding
##ivers
six
materials
attorney
99
discoun
col
counsel
##tices
adversely
##ral
election
##tenance
maintenance
##asing
care
corp
finance
##atives
41
back
vote
46
taken
dil
former
consideration
firm
covered
##retion
##td
application
programs
economic
building
##ley
take
depreciation
autom
38
expenditures
preced
mer
knowledge
meet
type
##ps
call
contributions
area
123
proxy
fourth
agreed
ce
issue
im
##itive
constitute
values
##abor
##ool
utiliz
meaning
presented
##ind
##iter
attrib
deposits
quality
increases
furn
assumptions
determination
greater
bon
head
guarantor
terminated
valuation
##lying
litigation
reduce
trading
plant
restruct
toge
##ecting
together
bear
borrowings
maxim
natural
purchaser
actions
items
histor
##ex
conting
##orts
final
sav
breach
##avor
rene
certificates
determine
discretion
continuing
dollars
expect
assignment
em
terminate
pled
##uel
tex
index
ded
buyer
qualified
volum
mis
selected
##lusive
gains
remed
##urer
##gments
sum
tar
super
responsible
indirect
sing
jurisdiction
rule
conc
communications
respects
affiliate
competition
02
##aged
48
supply
##ier
entities
arising
receivables
designated
medical
signed
considered
39
##unction
lessor
##entures
weigh
mail
redemption
adjustment
bonds
##lated
convertible
##urch
place
governmental
##ury
expos
##omin
##ale
secret
monthly
several
##crip
past
awards
44
##utable
##equ
licens
##utes
depend
gu
##rupt
bonus
trade
intangible
renew
levels
tel
selling
agree
##ics
now
##aff
##cc
designed
waiver
duties
##11
stockholder
##ore
accounted
resol
49
adequ
restrictions
##ker
salary
parent
many
treas
repurch
businesses
notwith
ratio
notwithstanding
##omm
canad
commitment
##isable
weighted
nam
proceeding
disp
association
served
home
interp
subordinated
arrangements
none
replac
##bal
efforts
counter
##ories
occurred
cli
technologies
##etary
distributions
fa
down
##ouse
broad
restructuring
viol
ltd
large
savings
successor
texas
compu
bankrupt
##ayment
47
den
##dr
bl
maximum
personal
responsibility
glo
adjusted
therein
##12
##get
treat
preceding
coverage
43
reimburs
##vision
52
primary
force
sufficient
##ators
free
03
borrowing
decision
instrument
american
implement
criter
entire
concer
##not
pred
venture
accordingly
fuel
division
applications
exhibits
south
damages
partial
able
billion
thereafter
world
rede
##oking
commenc
occurr
attributable
##endar
components
calendar
consolidation
ach
personnel
improvements
##ections
private
controll
adjustments
banking
prompt
bankruptcy
advertis
secretary
alle
##ends
experience
compet
liquidity
having
criteria
known
achie
benefici
center
##ling
stated
resulted
chec
70
reflect
best
wholly
##lation
complete
therefore
relationships
nature
333
acceler
copy
caused
55
favor
##ark
leased
execution
confidential
next
valid
##veness
##tiveness
records
derivative
global
permit
open
abs
##aster
comply
signat
cannot
neg
whole
working
##cription
looking
your
##reh
evaluation
la
supplemental
accumul
##know
##lose
compreh
##though
proposed
countr
##ick
said
collective
##ne
although
providing
reli
comprehensive
##limin
patent
prosp
money
represents
issuer
##organ
agency
##22
agents
advance
amortized
industrial
##portun
schedules
opportun
engine
proj
furnish
80
release
single
region
adoption
##certain
unre
accountants
exam
expiration
##thers
##enting
##ectiveness
institution
arbit
times
##other
deal
teleph
capitalized
##cep
altern
##irm
04
summary
redeem
disclosures
servicer
indicated
##ino
intr
manager
llp
performed
apply
arbitr
her
bar
franch
lead
exercisable
site
##ays
##ging
significantly
unp
det
53
equivalents
contribution
##ra
electron
dev
65
contemp
carry
effectiveness
norm
##inding
course
conduct
##ane
##wr
offices
recognition
##ns
##ource
##omestic
domestic
##yal
mic
read
pool
depart
ordin
competit
##gy
##ii
discon
06
web
##tics
consumer
applied
54
likely
contractual
dates
judgment
51
death
##igned
##umulative
pa
interpret
acquire
tem
ed
combined
areas
attach
advances
consult
fasb
excluding
uncertain
56
cance
##ger
rental
allocated
discontin
stores
##thern
conducted
cumulative
vir
##aft
accumulated
##son
clin
charged
europe
squ
met
##ah
space
separate
##umb
enc
shareholder
disposition
declar
labor
##eed
west
plac
basic
assist
assessment
##aud
hand
audits
later
##action
acknow
shee
others
overall
##urers
listed
57
another
##tility
reorgan
distr
successful
advertising
making
did
sheets
outside
volume
estimate
enforce
contemplated
john
transmission
advis
certification
lines
##33
participants
62
square
multip
investors
participation
borrowers
retain
purchases
exclusive
operate
telec
compr
test
66
flo
58
requested
obtained
##ida
utility
ending
royal
enh
05
##ering
guarantee
promptly
##itor
##ington
activity
struct
sections
transition
assumed
indicate
variable
##rug
my
discussed
pricing
way
##ifying
possible
bill
range
59
underwr
equivalent
fairly
maintained
##ipp
impos
check
internet
telephone
##uctu
fluctu
competitors
evidence
prob
##izes
##ina
owners
repair
repurchase
acceptance
pass
propri
##err
consistent
sit
foc
segments
##ech
central
historical
small
treatment
exercised
normal
##goti
staff
administration
organization
earned
unders
64
##pl
definition
protection
give
##unt
district
anticipated
county
unpaid
fam
computer
##acy
liquidation
63
inves
collectively
discontinu
severance
##sc
extension
letters
lien
drug
tempor
undersigned
combination
clause
model
water
pending
defer
mid
exposure
hot
clinical
giving
##art
occur
ve
##arb
accr
98
##anced
managing
beneficiary
sa
##utory
swap
proprietary
clear
elected
patents
indemnification
summar
reins
enterpr
profession
binding
pharm
reflected
infr
##vant
phys
85
strategy
matter
limitations
balances
95
rating
##osp
needs
1991
07
yield
##lass
effects
reorganization
mut
surv
87
elimin
##res
initi
generated
##anties
##yl
guid
transport
developed
disability
lived
different
lib
ever
generation
fo
ul
disclosed
fif
occurrence
##up
residential
67
institutions
##ulting
target
distribut
uns
mc
ver
modified
ordinary
cable
stud
exist
processing
highly
relative
decline
auditors
status
77
completion
issues
liens
earli
representations
calculated
assigned
inj
##ograph
##sh
department
refin
##line
defend
68
hour
feet
contingent
97
partially
##bert
indirectly
vend
amendments
commun
ap
realized
age
mich
obj
longer
##itical
##wide
##aging
mutual
negoti
ill
quan
represented
deduc
transferred
##ison
suit
solutions
##ico
trial
##thing
expressly
pap
prepared
mil
##31
pip
94
##orp
intended
##uled
tradem
conformed
underlying
61
##fying
licenses
vested
discount
hotel
collection
wire
##char
projects
adequate
orders
temporary
sources
prohib
card
remo
72
##aining
merch
identified
asser
consumm
ens
##atic
store
canada
vesting
warranties
unable
arrangement
69
taxable
##fication
industries
discontinued
recovery
owns
expire
##ov
##acted
certified
charter
sent
build
investor
pati
transf
twel
family
banc
relevant
named
##ather
reimbursement
diluted
specifically
appear
additionally
early
representing
esc
whose
increasing
forec
categ
damage
##ames
##eng
broker
197
classified
acknowled
ga
71
fre
wells
master
principally
detail
presentation
##zard
disposal
76
##sa
timely
counterpar
88
96
##way
##itness
78
concerning
storage
pack
74
practices
close
chem
notices
consists
##ifications
##isa
faith
expand
vac
consulting
flor
what
##anes
wash
##aur
introd
##ware
interpretation
delay
food
penal
employed
debentures
perm
suppliers
grants
geor
earlier
announ
hazard
twelve
attached
solely
guaranty
appoint
scheduled
determining
restaur
premiums
##cement
forma
totaled
extended
technical
resolution
positions
##ric
##ump
rad
maturities
book
remedies
84
things
retained
univers
component
description
300
##la
substit
##tc
statutory
agencies
point
alternative
##craft
preparation
execute
appoin
nas
##ont
zip
entergy
negative
useful
08
sets
florida
##lain
union
fle
##iana
neither
##he
confirm
86
intell
southern
availability
satisfact
returns
##izations
##der
79
##ansion
##amp
libor
engaged
73
##bur
##lem
dischar
participate
##eal
saf
##esp
powers
throughout
regular
lending
##itiz
##ectual
thirty
reclass
intellectual
signature
expansion
submission
attorneys
ensure
strategic
92
thereunder
professional
aircraft
brand
cases
transportation
found
dou
##oks
write
incur
ultim
medic
satisfactory
washington
monitor
definitive
##ms
cy
liable
##ength
##ston
successors
##elf
associates
##au
optionee
lives
##van
offered
extr
erisa
compete
##uses
suppor
sem
waiv
manufacturers
audited
annum
comparable
branch
becomes
82
##endered
differences
##mb
1990
##sol
##wh
allocation
insured
thereon
##ned
surr
##wards
hereinafter
typically
import
##utive
89
oh
dif
##hic
##her
computed
spons
##atement
testing
##az
##ax
treasury
paper
performing
environment
light
plain
guaranteed
dig
hosp
##acter
diffic
licensed
affiliated
##lin
##bo
bi
extend
09
distributed
participating
chan
serve
inventories
##ices
safety
centers
replacement
hazardous
every
whereas
harm
##untary
variety
construed
robert
##eu
converted
annually
cond
warranty
arbitration
filer
location
experienced
engineering
##tm
complain
##aceu
issuing
##active
pipel
fluctuations
source
ox
dir
wee
##lear
corresp
correspond
violation
accelerated
manage
evaluating
400
electronic
##ille
0000
##illiam
401
##ta
##portion
terr
prime
hedge
fda
stra
recon
imposed
active
william
deg
##unctions
##lor
hospital
funded
san
##alized
hereafter
vehic
administrator
lawsu
withhold
gam
##oper
character
##urement
nuc
locations
favorable
reviewed
bid
dav
escrow
81
paying
repay
accrual
##lies
##yn
150
expects
function
prepayment
partnerships
##pa
geograph
##sey
commencement
##lusion
txt
opportunities
##ception
shown
hedging
might
countries
affecting
television
unrealized
called
guarantees
drill
##ensed
straight
chemical
automo
##onse
integrated
suble
representatives
phase
prefer
providers
##gest
91
##care
particularly
requirement
provider
##ining
books
response
channel
##read
concent
seek
near
wholes
reinsurance
involved
telecomm
indemnified
legis
250
##ody
omitted
miss
83
##omp
dependent
jr
pharmaceu
##duct
assigns
obligated
subsection
kind
declared
acceptable
sk
backed
multiple
maintaining
franchise
profits
nomin
hard
conformity
conflic
mex
plat
illino
##utation
managed
ohio
furnished
##tice
timing
concentr
defici
xxx
refund
nuclear
cell
prevent
93
manufacture
##ery
commencing
created
thereby
##onduct
functions
insp
operated
promo
##eco
automatic
##tiff
##draw
##gen
##erv
renewal
clients
regional
##aneous
withdraw
##eep
142
##ology
contributed
treasurer
mill
mortgag
uses
worldwide
plaintiff
illinois
bearing
copies
attr
unsec
permits
waste
unsecured
occurs
gaap
##law
sens
sites
presents
foot
conj
modification
enterprise
##force
list
georg
largest
goods
##tional
lou
vary
show
totaling
commod
representative
##west
##empt
wireless
became
rang
mass
##roll
wide
taking
##br
types
##yond
even
conjunction
contrary
georgia
##att
jer
media
144
conven
1989
##ville
penns
credited
covenant
protect
match
underst
appointed
james
##vania
accur
htm
ongoing
133
##ylvania
field
pennsylvania
unc
contains
derived
focus
leasing
governing
community
##ron
added
##ulation
proportion
##ford
##enty
credits
pledge
utilities
120
delin
season
margins
platform
invested
publish
mach
##fill
cooper
dep
articles
##vey
core
consisting
satisf
##izing
assignee
rich
possession
enforcement
resid
meetings
generating
uncertainties
doub
carryfor
1986
witness
defense
volati
indemnit
portions
continues
ms
##bs
##tro
##ened
impaired
him
virgin
operates
err
louis
implementation
healthcare
reach
royalty
draw
gaming
controlled
prepaid
supplementary
telecommunications
reconc
digital
submitted
emerg
methods
structure
hum
remedi
limits
comprised
ra
##daq
uni
##ds
nasdaq
periodic
indemnify
numer
true
calculation
seven
notify
##kes
dele
wholesale
difference
repayment
surviv
##01
201
alter
beyond
sponsor
irre
1122
changed
proc
600
client
minor
originator
parts
park
profitability
recognize
##iers
face
mand
merchand
contractor
il
entr
east
##str
##tirement
country
instr
coal
jersey
press
critical
reflects
##uting
resign
eas
communic
weak
ny
eurod
traded
guarantors
sarb
eurodollar
##ba
projected
##reat
vest
individuals
fraud
sarbanes
authorities
complaint
oxley
##ading
whom
began
satisfy
penalties
##bile
##wood
postre
investigation
sharing
postretirement
##54
approvals
sci
threat
infring
feat
alleged
ferc
xxxxx
advant
##32
distributors
reductions
##pm
relief
involving
vers
commissions
##astr
rein
irs
training
supervision
thousand
consisted
xxxxxx
outc
##ael
##alid
spl
debtor
hy
##rup
vii
interim
recently
##house
improvement
networks
advanced
forms
hours
thom
##issory
opportunity
carried
mix
classification
exceeds
promissory
mi
acts
supplier
800
deed
invalid
university
denomin
satisfaction
##uck
indemnitee
canadian
##ient
announced
pipeline
offers
##oints
##arks
2008
practice
king
integral
fid
carol
mexico
hear
create
david
desir
##cs
organizations
ware
devices
strong
virginia
##aci
##ep
securitiz
atl
##idge
far
spr
##ls
absence
half
michael
intends
cho
##voc
1988
exchang
specialty
twenty
covering
fcc
human
film
omission
shipp
irrevoc
annu
supplies
##iber
creditors
md
geographic
complex
certifying
size
examination
corresponding
forfe
developing
attention
quanti
##ently
seeking
deferral
ebit
secure
plants
tra
##che
processes
achieve
hel
effectively
##iture
##undred
##ibilities
##ry
therefor
sun
vide
##tainment
removal
correct
interc
906
keep
points
dispute
pledged
rap
yes
underwriting
guidel
##04
soon
quarters
hundred
raw
anticipate
membership
identification
##ww
station
las
measured
assessing
receives
##ada
remedy
lin
##estern
broadc
important
examp
##ental
##itable
pooling
responsibilities
##cific
improve
bancorp
black
##bm
##erman
measurement
acting
degree
ventures
##fr
pacific
##audited
unaudited
##uit
##na
investing
gold
discharge
nonc
##ars
prospective
predecess
drilling
electricity
intention
maintains
carryforwards
##tition
appeal
109
determines
revised
obtaining
##hl
##istics
along
rapid
color
assumption
misst
problem
voluntary
cancel
trends
subsequently
consents
names
improved
ther
##tivity
treated
supporting
remediation
anti
##wer
compos
##itch
##ma
licensing
suite
dissol
disburs
indemnity
commodity
assistant
bylaw
judgments
cease
perman
buildings
annivers
counterparts
commenced
signatures
##rought
##ago
125
organized
makes
##ott
rsa
ground
allows
publicly
allowances
carolina
consummation
cat
disag
involve
successfully
dail
clean
appr
##si
##ousing
formed
inher
explor
1987
collabor
expires
rata
appra
trademarks
dur
www
engage
acquiring
unf
patients
13a
evaluated
sellers
daily
##30
ultimate
yet
brought
programm
withholding
qualifying
vendors
##ones
contingencies
predict
measure
purchasing
appointment
##opp
##yz
allowed
ebitda
discover
##ota
##tts
##soever
obligor
certify
reserved
physic
##gated
generate
ip
##lity
intend
leverage
grantor
relate
enable
operational
##ancing
phone
establishing
steel
lieu
guidelines
whereof
installments
##ticable
split
star
therap
##tric
consultant
##mc
aven
utilized
chase
##water
radio
floor
divers
road
##tter
occup
video
thomas
##ev
doubt
jap
travel
outcome
acknowledges
volatility
header
eight
##itation
european
bylaws
receiving
##pancy
scope
richard
released
redeemed
lesser
lawful
##bank
massach
massachuse
separately
massachusetts
requiring
view
derivatives
##abilities
insol
disagre
##cell
occu
solic
prospect
chic
legislation
dealer
##ectives
##ually
##ols
pages
old
anniversary
##tt
ratios
extra
exists
##ligh
ship
measures
expressed
cyc
shor
committed
##urring
manufacturer
satisfied
prod
automatically
regulated
ranging
fails
historically
word
governed
planning
sus
##oth
eth
representation
offerings
occupancy
chap
##izon
leading
bul
team
example
casual
##where
validity
pertain
involves
je
##held
chicago
tradition
##agn
sentence
whatsoever
wil
##ersed
closed
##uctions
mary
vendor
##head
volumes
cancell
conse
auditing
cross
substance
millions
authorization
depending
mot
extern
##ude
fulfill
late
consequ
excluded
apart
bound
101
therewith
designation
dism
existence
##oted
worth
else
investig
##ald
defendants
nev
##imin
administer
austr
##uty
capaci
dealers
minority
documentation
##me
priority
category
relates
##back
practicable
appreciation
capacities
##ero
computation
predecessor
licensee
prepay
individually
lab
apb
##ift
qualify
week
placed
columb
##sim
gran
bud
##burse
decisions
transfers
##ado
gul
plaintiffs
merchandise
formerly
physical
produced
threatened
##lu
nothing
produce
rendered
##qual
nevada
##ony
##apital
recomm
##quar
surviving
shorter
amounted
rat
turn
civ
trademark
external
anything
mortgages
cand
formul
intent
weakness
leasehold
purchasers
##int
waived
nu
##encing
pharmaceutical
users
assume
avenue
restaurants
transfere
##lands
herewith
redeemable
top
inflation
##ports
delinquent
##bc
prescribed
sublease
pan
payroll
safe
consultants
junior
holds
larger
##fc
syn
additions
strategies
##dom
realty
700
numerous
marketable
discounted
reit
actually
gulf
objectives
operator
carriers
valued
house
stations
##time
har
##ri
river
ques
manufactured
conclud
headquar
suffer
tm
##verse
integration
connec
lp
sg
900
definitions
tier
remainder
##lements
placement
hardware
kingdom
reimburse
##app
constitutes
405
identify
entertainment
approach
strength
##ourse
serving
custod
##ompany
##atell
assessments
annuity
presently
approximate
impacted
box
louisiana
ceo
effici
motion
filings
disagreements
executives
succeed
boston
reconcili
capabilities
difficult
##ask
seal
elsewhere
repaid
dismiss
unen
flex
intercompany
inn
medicare
##21
guidance
petr
self
virt
disposed
fraction
unenforce
##echan
nine
##itf
fdic
entry
restaurant
apprais
##laim
programming
drive
medi
##oming
factor
##20
deficiencies
viii
managers
extraordin
##ave
trials
##vency
classes
direction
installation
evaluate
infrastr
housing
##inter
considers
extraordinary
ple
eitf
##uci
expectations
done
##anta
chapter
surrender
austral
sells
satell
actuar
prevail
##99
educ
properly
monitoring
##nes
itself
royalties
trustees
##allen
##ions
##ansas
infrastruct
withheld
developments
content
##eme
implemented
often
conflict
statute
##plus
##sn
upd
serves
join
rather
15d
tangible
regardless
casualty
casino
summarized
quoted
##field
mechan
mem
eliminated
issuable
##itative
1933
institutional
awarded
enforceable
defaul
##simile
modifications
dissolution
absol
advantage
convey
standing
probable
##oleum
patient
edison
technological
quantit
foreclos
western
earning
##fo
petition
absolute
evidenced
morgan
tenants
wind
quantitative
inherent
cancellation
neglig
whenever
##airs
repairs
sil
spouse
civil
floating
positive
resignation
traditional
arise
et
green
##ft
##ecutive
examining
##usts
afor
tranch
##24
##igan
infrastructure
##mark
mess
##unto
##vement
##ios
facsimile
caption
consecutive
commerce
inability
incident
##ama
##we
initially
##off
relation
better
##ca
candid
compound
fall
untr
challen
##oid
promul
##que
duty
arch
##ism
advisory
##fg
progress
don
rely
untrue
##14
controlling
remains
communication
german
##view
requests
##state
exploration
ado
expensed
designate
##ience
##ality
indiana
potentially
##qualified
summarizes
##entic
retention
highest
misle
matching
##rec
consumers
##log
##till
reliance
prospectus
maryland
encumb
extensive
##ibles
##ifies
upgr
swaps
beneficially
misleading
cur
entirety
acceleration
permanent
##inations
swing
rail
jose
##teen
usa
affairs
continuation
encumbr
##enth
semic
prohibited
##iff
fhl
transferee
granting
##ha
webs
peop
fiduci
1350
changing
modify
assuming
actuarial
reliability
utilize
hotels
settled
semiconduct
borrowed
##angibles
750
periodically
corporations
qualitative
intangibles
utilization
lawsuit
facts
##oles
dise
relatively
##oma
##nc
containing
##iable
##light
doubtful
frame
196
ren
emb
petroleum
##entioned
##rs
michigan
recoverable
producing
help
reducing
warehouse
enterprises
put
superior
china
authentic
302
ratings
promulgated
misstatement
##ished
delays
##ening
installment
excep
##unch
categories
territ
dist
automotive
youn
rise
handling
characteristics
cd
uniform
commence
##fies
asp
##ously
fixt
homes
001
##25
insolvency
mississ
tests
##sm
vis
declined
etc
vehicle
once
whereby
mu
disclose
pop
user
tender
submit
assemb
tranche
inception
115
japan
defic
pledg
enhance
bur
##contr
##gas
recourse
106
##lock
surplus
lump
originally
sixty
pertaining
words
fire
interf
complied
smith
clauses
replaced
##ticut
mississipp
clar
connecticut
length
owed
mississippi
distributor
pron
log
##urb
meanings
ix
##more
##oph
contractors
achieved
political
assure
initiatives
uncertainty
nin
copyr
fleet
adopt
2009
##erve
deposited
gp
limiting
select
circuit
exit
##40
situ
obs
planned
influ
concluded
injury
setting
fifth
arm
jointly
workers
mandatory
terminates
pronoun
features
##ring
driv
110
vehicles
deductions
enacted
##cellaneous
bel
##vested
wal
respond
deduction
miscellaneous
substances
furniture
reviews
valley
references
satellite
##37
hedges
fiduciary
applies
futures
supplemented
young
lawsuits
packaging
goals
enhanc
collected
overs
distribute
spending
weather
asia
mac
trusts
columbia
collect
colorado
reconciliation
munic
130
coup
municip
##illed
exempt
avoid
##ez
translation
though
necessarily
brokerage
studies
confidentiality
online
ced
spread
weaknesses
reclassified
tow
introduc
##ern
displ
contribute
oral
problems
run
po
##be
emission
00009
##lot
needed
controller
##gress
lev
semiconductor
tenn
difficul
180
conclusive
operators
fab
depends
device
addresses
club
deficit
hill
northern
##28
occurring
decreases
chr
instructions
room
restor
denominated
##inc
epa
duration
##day
##onstr
##mr
expanded
currencies
##ann
war
willful
role
plas
joined
reasons
lock
understanding
##otes
conclusion
wood
salaries
vesse
##icial
demonstr
phil
adequacy
##vest
body
trend
procedure
groups
fargo
electronics
##kers
##ported
endors
noted
contam
owing
harmless
initiated
micro
dom
mortgagor
customary
##employ
headquarters
reflecting
refinancing
immediate
##23
##gaw
##wc
143
addressed
communities
paul
##27
ang
attract
121
##60
recovered
preference
still
bankers
attest
channels
metr
increment
cs
alliance
reloc
recip
replace
sab
subscrib
synd
declaration
decom
removed
interm
demands
specifications
start
beneficiaries
jurisdictions
convert
farm
impose
perf
securitization
label
##esee
budget
##ml
subcontr
##15
##star
retired
equitable
diagn
acr
advisor
poll
invo
exact
thus
anticipates
great
decommission
##umber
accrue
ci
##ways
excise
wisc
##ians
unenforceable
##cements
1985
##17
ss
underta
bad
##ros
dat
establishes
lond
presence
##onsin
discounts
published
infringement
returned
website
fixtures
oversight
depository
##ney
pursue
school
expired
concurr
bay
crude
##hous
backlog
##tel
prevailing
collections
affirm
london
effected
supersed
approve
##tak
negligence
##tingu
##ble
employers
wisconsin
##ilit
superv
##gl
elements
mag
count
directed
cp
mature
##pmg
vacation
aware
ess
##the
judicial
rents
construc
australia
focused
privile
carrier
kpmg
capitalization
reached
rock
thereunto
##orum
suspend
debts
quorum
diagnos
efficient
commercially
stage
monetary
undertak
proved
waive
speed
brands
##gets
reb
unex
convenience
accountant
syndic
exception
quick
asserted
auto
never
fiber
##nst
registrable
misc
violations
municipal
##ector
##ana
separation
cure
mortgagee
mining
rou
arbitrator
errors
7a
advisors
##tip
sust
##put
graph
grantee
##dw
euro
disbursements
minnes
minnesota
##antic
effort
alab
furthermore
128
recording
alabama
##tise
##ques
institute
detailed
af
appears
forecas
fifty
study
withdrawal
##isite
incremental
dilig
inspection
##rown
exchanged
##atch
going
gl
mobile
##leg
decommissioning
108
107
dilutive
frequent
moun
irrevocably
unreason
ultimately
eligibility
launch
misconduct
##wa
assistance
indef
appar
sensitive
##ares
proposal
billing
##ought
securing
##35
##eseeable
recapital
across
objective
asb
dispose
survive
interrup
pu
fhlb
attempt
lap
framework
resource
frank
camp
assertion
2010
susp
resell
motor
arth
prospects
negatively
##shore
148
##75
extensions
tools
##enn
formula
##eas
applying
very
facilit
123r
enforceability
waives
##65
projections
omit
##vr
revision
prelimin
condensed
offs
legally
##89
resolved
##80
innov
foreclosure
##ider
newly
usu
selection
evidencing
hor
official
switch
indemnifying
render
##quency
discovery
ok
implied
##70
sustain
chain
##down
subd
141
append
defaults
chemicals
collateralized
exceeded
competent
oem
reportable
succeeding
error
heav
##549
candidates
receipts
subscription
##cel
##ready
electrical
installed
##tes
seeks
introduction
track
1984
uncon
shopp
therm
germany
scholes
entering
overhead
##tine
##ink
ke
already
##ancy
notification
131
deems
joining
residual
recurring
105
ernst
tennessee
##ead
harr
jack
broadcast
interstate
england
##uling
substitute
##net
reverse
om
bonuses
##wy
requisite
cam
deductible
bring
blo
esop
parking
automobile
exceptions
reimbursed
deprec
##itz
charles
##tb
assessed
##cp
restriction
introduced
firms
insurer
140
expertise
remained
recommend
pal
gov
weeks
unused
history
preliminary
##wg
grade
qualification
block
acres
concentration
opening
consequences
illeg
##stone
understand
combinations
ur
origination
incons
inconsist
load
barg
versus
mailed
penalty
enhanced
headings
rig
##inite
mineral
##isco
##den
##affili
146
creation
listing
xii
lat
principle
appearing
appendix
##ivision
uncondition
104
foreseeable
subcontract
20549
dan
formation
sums
divided
##fs
##conn
##ourcing
##kk
##place
indefinite
uk
##master
shipping
elects
joseph
roll
acknowledge
debenture
statutes
wall
prud
##estos
attemp
recognizes
sought
##64
reform
steps
##69
foods
##gc
350
dup
quantities
france
financed
asbestos
becoming
lack
substitution
secondary
rated
territory
zero
##opers
marketed
los
mitig
mal
acknowledged
chil
negotiated
nav
ethics
choice
##ug
##ake
resc
##ete
arizon
accession
154
arizona
arthur
utilizing
prepayments
archit
fitness
##eness
complies
accru
wmm
##yc
##quir
wmmsc
milest
shows
remove
##ites
recapitalization
##iel
emerging
resale
##east
##ham
releases
usage
##29
ninety
lost
economy
##ticals
declare
notified
closure
compensated
##ouri
personally
traf
##tinguish
waivers
unres
##ox
smaller
yields
via
traffic
missouri
ele
restatement
brokers
debtors
undisc
hedged
grand
scienti
ep
miles
atlantic
slow
physician
approximates
##onsolid
authorize
virtue
quot
accurate
##jl
offshore
tariff
##iters
##rees
discretionary
disease
hou
administered
##opol
question
##orized
inure
##bers
hart
growing
##ym
repurchased
disputes
retr
exemption
kent
##ext
##aa
##qg
ratably
##untarily
renewed
subdivision
preferences
##acts
symb
ster
delayed
specify
memor
techni
##fiable
deficiency
hospitals
voice
tou
##xm
mortgaged
assignor
cycle
cancer
models
##acc
##ips
consequent
info
##ape
unreasonably
bell
declines
play
##pper
confer
##arke
##mme
driven
context
pronouncements
restrict
##ash
largely
decree
asy
##rets
##ester
billed
lake
multiplied
pledgor
irrevocable
notional
##19
hir
solution
retailers
education
void
##74
##eration
##sb
precedent
sar
targeted
fifteen
shopping
##has
pc
##rw
consummated
custodian
##zl
aep
bb
seasonal
regularly
raise
merged
marine
interconn
people
aband
stan
efficiency
tx
comparison
##zv
committees
franc
##qa
##ades
nation
stay
##39
overview
mfg
##ourn
rapidly
realize
win
spect
##oen
find
##lex
export
interpretations
##3d
##7z
##mmetric
merc
##5s
##68
bears
datab
ray
catal
##abil
##reted
eastern
secrets
pharmaceuticals
analyz
obsol
exposed
distance
145
dividing
concern
drugs
bargaining
##18
102
abandon
houston
amer
expiring
##amortiz
aspects
contest
medium
emphas
manufactures
alternate
sports
##ground
rank
nb
inser
advice
negotiations
franchis
##tron
leave
##d3
registrar
hdr
911
asymmetric
sgml
##atories
liber
allocations
subscribers
##ights
essential
architect
nc
mood
##perform
metal
failed
##k3
demised
underwriters
trig
sensi
restoration
##baq
shipments
##affiliated
symbol
promotional
pays
dental
md5
##gu
##ublic
##3p
constituting
##gyev
##wcgyev
##qgbaq
##wcgyevqgbaq
##wcgyevqgbaqic
mw
##lah
merchant
designs
scre
targets
similarly
##onsolidated
##pc
courts
understood
cellular
display
moody
unamortiz
physicians
##itors
##point
##1t
receiver
153
intermedi
unamortized
conflicts
##6o
realiz
sul
shipment
##ulated
assur
identifiable
conclusions
instances
##lahoma
broadcas
dex
filers
machin
restrictive
describ
opened
competes
disrup
reinvest
harb
deploy
subpar
##ounted
universal
percentages
files
##ik
encour
oklahoma
ae
##see
##itte
1231
##dle
##05
creditor
recoveries
##67
exceeding
oppos
calculations
##jaw
##itary
sponsored
##zyz
involuntary
##edd
na
114
##qab
accruals
195
##tinen
cancelled
##xmm
annex
webmaster
##bmy
pound
##6ag
##zlad
laboratory
##kk9
##af8
##am5
##2sn
##7vr
##xmzv
##avtb
##5sdw
##tdez
##jlwy
twsm
##7z1t
##3p6o
##zyzmr
##ionwg
twida
##dsgaw
##rwjaw
##qaionwg
mfgwcgyevqgbaqic
##3dtinen
##d3tdez
##k3xmzv
##xmm7z1t
##bmyqaionwg
##6agjlwy
##zladbmyqaionwg
##kk9avtb
##af8dsgaw
##am5d3tdez
##2snkk9avtb
##7vrzladbmyqaionwg
##5sdw3p6o
twsm7vrzladbmyqaionwg
##zyzmr6agjlwy
twidaqab
##rwjaw2snkk9avtb
mfgwcgyevqgbaqicaf8dsgaw
##k3xmzv3dtinen
##am5d3tdezxmm7z1t
##5sdw3p6oam5d3tdezxmm7z1t
twsm7vrzladbmyqaionwg5sdw3p6oam5d3tdezxmm7z1t
##zyzmr6agjlwyk3xmzv3dtinen
##rwjaw2snkk9avtbzyzmr6agjlwyk3xmzv3dtinen
mfgwcgyevqgbaqicaf8dsgawrwjaw2snkk9avtbzyzmr6agjlwyk3xmzv3dtinen
actively
157
adequately
##ersen
##ocket
undiscounted
stating
postage
confirmation
accident
exposures
##jo
##night
governance
affirmative
machinery
ark
summarize
##entions
pcs
pressure
computing
spent
##rop
##from
consequently
##lan
hyp
##rey
subparagraph
##hood
holid
eliminate
optional
ec
##38
angel
mutually
news
##lementing
establishment
shelf
pros
details
##aco
clearing
##vent
composition
men
##aza
##oft
##psc
##mi
continuous
much
atlanta
##inn
instead
delo
blue
insurers
inclusion
dispositions
##itan
fabric
##claim
##well
sensitivity
afford
103
reclassification
##wor
##erry
freight
##ams
auction
led
steph
andersen
emergency
bulle
coordin
##icated
contact
cut
inconsistent
capability
deloitte
fax
ken
hearing
##attan
subj
tank
##iated
pret
bases
phot
slight
alone
please
##rals
blood
prepare
assurances
therefrom
supervis
standby
telecop
##berg
##exv
##zz
plaza
functional
scale
##ye
exchanges
tables
cast
corrective
jeff
lyn
extinguish
00000
omissions
facilitate
appe
suspension
##hc
##burg
thr
optim
uncoll
competing
##acting
coast
pricewater
crimin
##lines
mus
counterclaim
marketplace
settle
aer
##irs
micros
techniques
processed
nonqualified
2011
eps
unli
incentives
noncomp
##outh
conducting
##band
unconsolidated
##aces
confirmed
recipient
##de
meets
agric
hol
mov
shared
##jud
##allas
criminal
barr
158
imaging
calls
bott
surf
prohibit
diversified
unique
##trust
pas
hun
attachment
##ows
regions
##houseco
solicitation
gm
450
pricewaterhouseco
depositary
semi
paragraphs
##wealth
##cl
commonwealth
ots
1983
therapeu
sound
pricewaterhousecoopers
212
finished
##ucky
die
messrs
pollution
difficulties
mountain
sterling
appeals
martin
##ux
originated
believed
surrendered
font
xi
##bi
175
dies
##com
incidental
112
##ommod
considering
##aps
unfavor
accommod
375
living
evaluates
##icon
discussions
##aneously
valuable
nominee
spin
reserv
scientific
enab
##ered
legisl
agricult
alterations
emissions
lang
consolidate
marks
braz
doing
violate
##unded
desirable
exercising
##ats
calculating
issuers
360
simp
##ste
stip
indicative
##auth
iso
resort
gives
bulletin
sea
transferor
claimant
attestation
varying
achievement
##gs
causes
##umin
duplic
unaffiliated
imposition
assumes
social
suits
lapse
nj
sl
##ature
##16
arkansas
##atr
ber
validly
renewals
##road
pretax
##ervation
contamination
ibm
dallas
##aker
voluntarily
machines
depositor
##ectible
prejud
metropol
##tibility
maker
refr
heavy
bri
nr
kentucky
mainly
feas
reputation
print
unvested
numbers
inquir
manh
son
##olf
opinions
sop
memorand
ceased
medicaid
implementing
decid
unrelated
##liances
touche
151
votes
##do
advisable
automated
flexibility
minimize
incumb
##gate
toward
reclassifications
severally
proportionate
gene
desires
frequently
##criber
military
hypoth
rentals
metropolitan
relocation
strict
ing
break
manhattan
collaboration
##els
sector
##appro
terror
citiz
side
##issu
trigger
copyright
gar
denied
laboratories
pain
280
##gi
authorizations
noninter
dial
tur
mergers
##26
rico
##esaid
##esh
whichever
aforesaid
grad
kansas
promotion
therapy
##veraged
##pe
subscriber
noninterest
cooperate
apartment
johnson
##ga
##ollo
discharged
shipped
encumbrances
##ked
portfolios
signing
methodology
lc
regulators
##energy
spectr
unan
attend
reh
enables
tv
aggregated
licensor
132
penn
pattern
deterior
revers
supplied
ital
1980
realization
lay
fer
##tail
goal
mitigate
dilution
mall
simult
middle
angeles
404
deuts
preven
logo
##wear
round
bridge
pul
##liant
suitable
##alle
consolidating
counterparty
forfeited
##13
republic
ine
fal
retro
solid
fractional
cc
##ogen
truck
exercises
delivering
accurately
alleging
160
barre
minus
peter
merr
hartford
downs
relie
preclud
fines
usually
##mbh
162
##tenant
williams
##worth
possess
registrants
excludes
statis
illegal
##ementioned
apparel
accompanied
pnc
enroll
##atements
certifications
samp
hon
sev
scott
00010
##erto
##istic
concentrations
ven
insu
expanding
internally
surety
gmbh
refus
retroactive
takes
puerto
unrec
aforementioned
##authorized
settlements
liberty
broadcasting
indicates
forfeiture
##bor
nonperform
155
vig
routine
winding
outsourcing
around
few
##ological
##onald
canceled
realizable
influence
maturing
professionals
mcc
tox
##tar
preserve
subordination
##mo
##pine
dives
increasingly
step
elimination
divestit
recital
##une
sprint
nether
unauthorized
xv
225
tri
117
harbor
determinations
##tered
plc
condemn
stanley
unfavorable
135
jury
bulk
ps
branches
island
hom
149
offsetting
liquidated
cit
##aska
investigations
exclusively
broadband
feature
franchises
utilizes
ceases
thres
##gar
producers
privileges
cin
workforce
interactive
enhancements
threshold
promote
counterparties
compensatory
111
blank
lists
kr
118
exchangeable
recru
staffing
organiz
##bac
forty
0000950
choose
colle
##dro
performs
desp
profitable
commercialization
white
desire
george
prosec
wish
accomp
assembly
##ara
accomplish
##ount
resolve
cfo
associate
138
vigor
##idents
reinvestment
specialized
injunction
containers
printing
tor
purported
##aking
revoc
owning
complement
licensees
netherlands
downt
adding
ic
appraisal
proposals
diligence
##akes
aid
conveyance
intel
drawn
tool
despite
accuracy
operative
remote
donald
recoverability
##edded
accelerate
##americ
taxation
unb
finally
carb
depreciated
stephen
pocket
##upon
##09
mir
lear
enters
##88
##omination
memorandum
estimating
specifying
##tish
attributed
mine
fluctuate
surface
alleg
checks
ut
authorizes
##insic
sn
##ectors
toxic
116
overnight
daniel
brown
steven
##board
##06
##55
##ky
repayments
anc
comprising
cards
lynch
##36
concerns
diagnostic
##gical
search
willing
update
##ream
##arketing
##shares
organizational
##rell
expenditure
12b
assignments
congress
allowing
9a
415
##lp
destr
ly
bat
constant
spe
unfunded
midwest
peak
hire
poor
##yed
underwriter
branded
intrinsic
moreover
encumbrance
element
adjustable
efficiencies
cree
sam
pipelines
##osen
host
transferable
works
embedded
ruling
##apol
mentioned
colum
suspended
independently
##rew
telecom
hydro
citizens
minutes
comprom
##ki
fidel
job
pb
cured
supersedes
hu
refusal
closely
slightly
cooperative
fidelity
##dc
trib
readily
oreg
##adequ
inadequ
flu
arre
oregon
predic
apartments
cn
database
incumbent
##adel
constructed
indentures
deutsche
productivity
mas
##eter
deple
##glas
414
1982
manual
laser
signal
##mon
remit
divisions
destruction
bancshares
nurs
sr
destro
deferrals
accessories
vigorously
tested
alternatives
esp
eigh
##iles
unus
built
collec
beli
##mond
wat
catalog
##veloper
##icing
dismissed
interruption
14a
ppl
124
merrill
defendant
questions
conditional
159
wach
119
acre
server
undertaken
passed
accruing
##84
##79
dyn
ans
uncollectible
package
prescription
mol
occas
claimed
enforced
spring
formal
structured
sponsors
printed
pp
pressures
vessels
priced
##owa
frequency
advised
litt
terminal
##ership
dedicated
amends
population
covers
heirs
reliable
##dren
hamp
##aterial
hud
developer
##oke
spectrum
contingency
interfere
##phia
big
southwest
improving
supported
prote
holiday
optical
replacements
payee
custodial
nyse
##032
feed
mad
raised
concurrently
137
rh
interpreted
douglas
auditor
625
interfer
administrators
113
parcel
compress
executing
belief
possibility
##lihood
##shire
##overs
insufficient
absent
fill
dimin
inventions
translated
##unctive
##pane
rose
##1231
##let
caus
##ovia
vessel
places
jones
##illary
flat
engineers
procurement
capable
continental
##eless
agricultural
##amm
wachovia
##bu
privately
timber
declining
##kin
british
##edia
alumin
aw
structures
mont
##ban
iden
golf
deliveries
degrees
train
anim
stream
##selves
iowa
##gation
creek
protected
fast
##yne
##apor
ligh
propane
lee
manages
##wick
steam
identifying
recitals
compounds
##ster
contracted
requesting
music
firstenergy
calpine
acquires
##apolis
prejudice
ace
ancillary
##033
obsolete
determinable
resolutions
subles
lose
negotiate
likelihood
nos
##umption
##vd
injunctive
publishing
##iling
undertake
interested
promises
mission
bally
##85
heading
intense
leaseback
undertaking
bow
vision
integrate
cab
instruction
supplements
pror
122
legend
left
##tl
ef
mailing
tower
ipo
sty
analog
edward
allegations
sinking
##tricted
190
bio
langu
wages
shift
francisco
allocable
intentionally
##ica
##ola
conducts
silicon
129
creating
##ita
newsp
650
##ills
tons
complying
task
beach
computers
accred
aluminum
newspap
santa
beverage
##77
unrestricted
##uda
children
century
##ospace
##ture
sustained
come
arrears
fewer
instituted
collectibility
1a
ho
fort
permiss
band
appoints
875
194
equals
170
container
kn
heart
attractive
unexp
weekly
##pet
text
hong
relied
##usion
##mer
remedial
##acent
enhancement
inadequate
identical
cells
fulfillment
revisions
extending
gary
wy
##fficiency
engag
affects
quantity
syndication
harris
immaterial
tub
achieving
repeal
continually
concess
refinance
metals
##issued
##earned
unearned
##ystem
cm
chartered
condemnation
phoen
simultaneously
legislative
##66
normally
thrift
announcement
fel
phoenix
solicit
gall
stable
subtenant
mb
##echn
trail
protoc
adjacent
##fall
prescrib
##ike
forthwith
134
ford
swingline
bills
brazil
cra
extinguishment
pg
foundation
boards
summer
referenced
encumber
sand
fullest
reviewing
dry
berm
kong
240
sat
consummate
impairments
sublessee
comments
##ull
forecasted
airlines
machine
departments
nationwide
functionality
vill
##pati
enjo
exclude
proof
##leans
oak
127
college
format
upgrade
aggregating
milestone
audio
pil
orleans
severability
pse
adopting
##pco
composite
captions
126
nearly
negotiation
bed
heating
causing
##uits
365
commonly
surgical
forecast
pump
##ush
nbsp
gath
1974
cleanu
exclusion
followed
eag
taxing
resorts
expensive
move
##bridge
issuances
invoice
considerations
ordered
shop
gap
column
229
##esc
##ognized
quickly
##issue
ineff
mechanical
flexible
hydr
islands
earth
##urrence
compromise
##chem
suffered
##south
bermuda
sufficiency
270
misstatements
lam
produces
deleted
##odies
platforms
caution
##emptions
survey
characterized
welf
isra
550
little
welfare
underc
escal
omn
deducted
informed
lif
unrecognized
##anese
panel
compensate
ucc
stop
preclude
cleanup
##44
interconnection
variations
aerospace
revol
ct
210
monitors
equally
##orb
unconditionally
wm
lawfully
mills
biot
truc
##theless
nations
associations
franchisee
afric
tech
qualifications
counterpart
156
segreg
plastic
bc
gate
stead
##stream
defects
latest
preparing
refers
unith
##gery
image
repurchases
jus
severe
complaints
unithold
patr
decided
shut
landfill
cms
lot
##uate
pensions
sublic
northeast
discr
microsoft
wastes
##rook
unexerc
unknow
gathering
occasion
##bacco
payout
136
2012
##stein
tobacco
allegh
front
rs
utah
revocation
##istar
sponsoring
incorporate
consistently
1981
merge
carbon
curtail
ali
jpm
unde
logistics
unknown
rand
defenses
version
220
alco
rescind
##ially
##thetic
gal
subordinate
rob
##idence
##omb
copyrights
advantages
364
ton
downturn
connected
glass
nonac
nomination
##ka
miller
boe
cancelable
challenges
tn
hourly
##crual
165
##ny
indian
fash
reimbursements
pit
##tration
assert
##vard
##ican
275
horizon
language
immun
kel
##87
fresh
422
nonaccrual
destroyed
##ette
##vert
serious
subjective
denominator
patterns
amb
jackson
eagle
registrations
reinsurer
develops
collaborative
##era
worked
##afts
gard
allocate
kil
antib
pers
alleges
ash
undercapital
kept
config
independ
permissible
##load
disclaim
##porting
household
noteholders
buyers
renov
fron
entirely
##odyne
contributing
forfeit
fish
nutr
fn
prohibition
undercapitalized
encoun
##eth
therapeutic
engaging
147
continuance
##ris
student
occupied
139
pun
entitle
moving
351
supr
pursuing
windows
510
##yst
defending
##tu
maximize
unusual
tissue
catastr
borne
coso
espec
##cor
nationally
feasibility
silver
hs
pict
updated
claiming
falls
bir
##000
northwest
ronald
attn
##acks
maine
incurrence
starting
mel
improper
jeffrey
aa
franklin
approximated
supervisory
pene
disbursement
electronically
theretofore
rentable
shell
retaining
##za
##guard
##fb
601
courier
latin
1st
art
repricing
##apore
especially
designee
bure
dc
comed
execut
cb
science
incap
circumstance
contested
##ysis
##kins
230
independence
bind
singapore
hos
confirming
wom
abb
##attle
##va
competitor
noncompliance
titles
##tinc
nonrec
calculate
matures
instance
##acing
governments
##tery
rub
discontinue
409
addend
marri
retire
psn
enron
grace
lod
mezz
##gn
912
extreme
prohibits
cay
measur
fsp
0001
numerator
adjourn
410
##adelphia
##vin
domain
spot
depletion
isp
aggress
prove
just
invalidity
situated
##asc
tal
games
brad
americas
gs
understandings
philadelphia
interface
recyc
##western
distinc
conventional
aggressive
tread
##pective
##hs
##ivided
upgrades
geodyne
##59
##jm
voted
turb
##criptions
plastics
copper
comparative
grew
induc
##anine
begins
evaluations
##ients
rollo
sars
permanently
##corp
##erved
town
fashion
costly
construct
501
peoples
constituted
rout
terminating
revolver
integrity
dealing
prox
ax
cel
thence
unlike
stocks
adjud
424
##urate
##di
heat
compliant
merit
##elon
##group
franchisees
introduce
reversed
reduces
assured
nursing
terminals
emphasis
##repr
##rete
shortfall
sixth
##lined
##eny
fred
clark
volatile
##wan
christ
subcontractors
live
salton
mezzanine
structural
va
nonperforming
chosen
remarketing
ascribed
minimal
surround
##etical
elections
ba
##col
168
annualized
rod
bru
weight
showing
telecopy
alliances
850
ju
recommendations
reject
ban
punitive
affix
##ng
fm
fulfilled
reversal
allied
##look
##zy
vegas
##echnology
##times
jpmorgan
posted
devote
203
alex
unconditional
fig
##nis
financ
##employer
explan
152
##neth
engin
proxies
railroad
multiemployer
atm
false
##istrib
output
serviced
mp
hal
ry
van
mcf
warner
radi
engines
modern
sublet
asserting
dynam
tend
704
hurr
commodities
##ystems
seasonality
illness
papers
ultr
fraudul
refunds
difficulty
ire
hawa
ridge
participations
japanese
##ides
noncance
sequ
hurric
arises
##oline
fields
##tile
refinery
observ
rog
concurrent
sb
funda
magn
tract
marked
financings
mold
##vi
innovative
sky
nond
internationally
quotations
ts
rising
supreme
aviation
retains
alm
anderson
##aried
consultation
davis
completing
certificateholders
##tically
drawings
##ert
##atever
whatever
relieve
##07
interbank
ready
##employment
aim
doe
existed
##iled
205
kenneth
fit
hen
bureau
vent
325
salaried
italy
serp
consented
301
##orr
counties
marsh
215
kore
cycles
surgery
monies
pharmacy
amp
##payment
subro
substituted
admission
treadway
certifies
attain
##hon
xiii
approving
path
ds
ireland
hall
##anded
pipe
refining
undivided
185
ter
transmit
##rd
educational
outlook
adap
detection
##ticipated
##cil
measuring
resellers
coupon
unanticipated
cents
ontar
310
plural
fro
residence
marriott
##esis
ontario
motors
forecasts
nearest
##key
13d
##eller
moneys
addendum
mg
trades
jan
contamin
varies
cg
breaches
606
leh
abn
analyses
##ancies
##eful
temper
mae
generality
soft
sometimes
argen
singular
appropriately
unreg
##ode
bou
lakes
##ominant
wilm
obligors
##flow
catastrop
##tibank
##patient
##fund
ml
orient
##ze
africa
correction
167
lighting
endorsement
##orm
lowest
##ander
peer
council
encourage
synthetic
aside
psc
allegheny
constrain
##eck
datetime
flood
obtains
##appropri
coupled
ore
movements
regulate
authorizing
asked
denial
citibank
earliest
tenth
##aign
##49
poly
402
##hol
skilled
que
alph
restructured
##fa
consequence
finding
prudential
##acle
tendered
ordinances
hills
distributes
unexercised
##45
nich
og
##86
permitting
hampshire
elev
##ws
underwritten
##ea
##w1
comprise
mile
##due
interval
accepts
##tech
drawing
measurements
rd
women
notary
delinquency
forb
elective
meaningful
fundamental
molec
unlaw
##linical
cayman
unlawful
roof
ave
surve
tc
india
induce
##ived
unissued
thereupon
rollover
fraudulent
##tina
subsid
prevention
leveraged
crown
buying
##america
##ett
defaulted
surrounding
lasalle
312
alteration
##aven
arbitrators
oems
sund
##03
brief
ka
draft
rooms
##tv
trump
sce
rus
greg
##enger
psnh
conferred
answer
##essees
##located
forest
networking
##erate
generic
presidents
countrywide
federally
##verages
minerals
careful
preclinical
privilege
pty
166
fun
##elect
eleven
delivers
##ora
defaulting
arc
successive
understands
toll
206
biotechnology
406
412
advise
evolving
heretofore
sd
confidence
tci
producer
han
fired
scr
composed
sug
wilmington
nol
overse
damaged
anth
desired
merchandising
survival
enrollment
delta
privacy
retiring
fox
continuously
anyone
wrong
authentication
##ista
underground
seq
examined
##igr
incurring
thirds
bp
stages
mcd
303
experts
precision
214
dominion
##iph
soci
lessees
208
163
cf
themselves
aro
perfect
inquiry
divestiture
string
perpet
stabil
##zen
milestones
diss
nominal
nevertheless
village
ft
gpu
diverse
refinanced
palm
204
##locks
##ura
cad
effic
failures
enabling
disruption
soph
##lets
189
allen
vacancy
absorb
accredited
corrections
puc
##anged
##ena
hp
sciences
carl
ends
##itzer
##rence
gasoline
pf
orth
cool
interven
##amation
##gement
nominees
objection
xx
diseases
liquidating
identity
endorsed
260
chris
nrc
164
automation
alig
950
##lick
attempts
protest
signs
withdrawn
##ship
zon
bord
##ench
caps
##fur
pounds
delegate
dialysis
##oo
duke
prudent
vs
exelon
concept
lawrence
##applic
np
330
journ
##ids
passage
background
##yer
southeast
stopp
ni
vacc
behav
rom
decide
##iction
mental
##pro
187
reinst
contem
subsections
safeguard
##repres
creditworth
coating
developers
conditioning
flight
fib
leader
recommended
382
popular
##istributed
161
cinergy
accretion
contempor
calling
payors
expert
illustr
dak
##top
participated
sophistic
airport
dow
##boat
subm
bios
towards
174
look
##ears
payables
##iding
misrepres
fabrication
overdue
##olved
proposes
ingred
concentrated
##ascular
replacing
clearance
anticipation
participates
unitholders
bruce
##inity
rehabil
dependence
israel
custody
wit
##hi
billings
tai
320
##agen
##ami
situations
assigning
designations
2013
##quencies
##acom
subless
cess
comput
quotation
basin
stamp
forming
202
##gun
##ilton
169
entitlement
rescission
undistributed
denver
sublicense
##essed
dennis
remitt
##amed
andrew
parity
initiate
involvement
factory
securitized
insolvent
172
##ime
conservation
##ifts
provin
hospitality
observe
survivor
completely
##cean
founded
pjm
scan
##76
euroc
golden
always
winter
input
commercialize
boeing
##ua
attainment
efficacy
hugh
yank
vul
influenced
valuations
disab
##ired
satur
sublessor
fine
memory
brothers
9b
nit
dip
demonstrate
##win
##oral
leadership
indicators
acted
easements
pd
425
##rich
guard
diam
expended
recognizing
diego
cub
virtually
##allow
bench
wheel
00011
challenge
desk
179
consumption
##cast
took
##tia
rul
enact
235
##can
prorated
##dale
##change
navig
##oe
madison
employs
learning
burn
selective
restore
decreasing
##iced
phr
##02
##tings
lifetime
##erated
filled
ineffective
premier
unqualified
launched
207
##ffers
##men
multiplying
typical
skills
guide
176
hiring
unav
misrepresent
indication
chip
##ild
scot
columbus
ways
##han
campaign
##esty
configur
si
sanc
insign
ib
##imination
conditioned
retiree
wafer
certainty
cob
irres
repe
moved
##veland
##asive
clarifies
candidate
temporarily
0in
736
yankee
race
##oco
##sets
irrespective
amending
245
hypothetical
nutrition
bea
residents
injur
reinsurers
diamond
hub
duplication
annuities
188
delegated
##eb
1940
seventh
optic
barrels
sooner
frag
216
accepting
violated
opposed
accommodate
focuses
inspections
##erald
situation
paso
##changed
mexican
analysts
interference
impacts
##hips
##93
behavior
hudson
##eer
mechanism
213
begun
##ulate
cities
forfeitures
cri
setoff
policyholders
lehman
magaz
renegoti
airline
controvers
222
wayne
pbgc
engagement
disabled
##oked
##rements
rehabilitation
##chester
contractually
graphics
perpetual
weld
ranges
408
korea
184
economies
pools
ham
178
stringent
profile
##pay
##othy
cv
171
nep
##msc
deeds
pepco
cessation
circuits
patrick
hired
withdrawals
terrorist
iron
publication
animal
environments
forwards
inapplic
##try
lux
carryforward
##ourced
describe
sco
pi
infringe
adjour
##urrency
209
barb
unchanged
manif
cleveland
##market
##ored
neu
ff
pitts
contracting
##cher
abandonment
eg
neur
adjourned
##ai
173
berry
notifies
##onic
prescribe
##izer
304
unfor
rf
##tec
polym
181
customized
##spec
territories
mt
inspect
trucks
invoices
statistical
send
##uk
##rix
##ignment
##ibly
inacc
##lon
##osph
177
os
##sell
##apsed
hem
forg
packages
182
##link
subrogation
ratable
qs
kev
coff
wage
grounds
judge
bach
admitted
almost
theat
perfected
merchants
widely
examinations
extends
186
luc
sophisticated
executors
spain
stored
superm
inapplicable
capitalize
##self
salv
telegr
biom
dl
interior
##anium
183
##mg
novel
relies
films
array
rain
productive
##eman
governors
ko
cooperation
192
intermediate
repro
1978
revise
argentina
305
architecture
laur
today
unenforceability
efficiently
reac
initiative
complementary
libr
essentially
##room
remun
simple
computations
breached
game
##tex
##inger
taiwan
soil
clearly
cargo
attendance
##mont
overr
tariffs
unspec
unbilled
##iser
deployment
link
specul
reposs
acad
diligently
abandoned
exter
headquartered
deleting
cleaning
redemptions
levy
rounded
protocol
recruit
##town
unspecified
packaged
distributable
##zyme
gmac
ceded
reinvested
aus
##031
##imm
supports
##outs
##nb
recre
219
kevin
vit
insure
strike
eli
unavail
detect
pet
##ologies
##ken
passenger
unexpected
megaw
commences
codes
communicated
lots
affixed
1b
##emin
customarily
originations
anthony
applicant
cold
314
tamp
##braska
191
procure
315
adh
assisted
howard
mes
##ores
patented
remuneration
##cla
nebraska
multif
##aks
holly
wmeco
##inson
terrorism
enforcing
##tinent
kar
outdo
leav
390
##arry
enabled
pac
gro
1979
petro
##istry
otc
290
publications
##berts
forbear
pncmsc
journal
dakota
##idian
##ibus
hypothec
disputed
##ographic
protective
vacancies
accrues
##itude
elapsed
bids
speculative
verm
unresolved
imposes
map
excell
dtc
signatory
inclusive
discrimination
##lable
indemnities
intellig
tcc
recall
285
appraiser
unm
wareh
ram
1976
anch
engineered
forced
conference
tail
211
indicating
negotiating
engages
airways
224
belg
thermal
creditworthiness
##hp
indications
highway
dere
##ses
corre
##aylor
clubs
theft
lincol
securitizations
vene
craig
timothy
define
switching
228
##ives
667
conduit
##inge
wag
reass
presentment
##57
resident
liquidate
insider
unions
corn
finish
218
castle
reseller
mur
bern
exha
happ
##owners
inhib
fuels
334
cook
##veloped
deep
340
##mann
renewable
unal
subcontractor
242
fpl
remitted
##ishment
conv
pertinent
trip
480
scen
217
eighty
slot
193
dispatch
employing
demonstrated
retainer
awar
keeping
object
resigned
##frame
diesel
awareness
gift
engineer
australian
tracking
clo
dean
reorganized
tort
carefully
tanks
refined
diversification
cath
##zer
penetration
matured
##ceived
##arket
##ung
380
416
transferring
rural
harmed
cru
warehousing
##tek
discip
miami
alan
##ower
rebates
wear
##iner
nortel
dependents
attained
ral
outdoor
dead
migr
dos
345
authenticated
racing
pharma
boule
usual
##roc
##ano
rej
scal
lincoln
defect
stability
reset
##oster
directive
meter
predicted
psi
proven
segregated
postp
brook
incurs
treaty
255
##orrect
flag
comparing
259
##fort
protein
route
antitrust
incorrect
compati
abr
##veraging
frb
tic
oxy
mob
promotions
mode
##hr
compression
##lotte
boulevard
ros
##rote
seab
od
venue
##box
##burgh
sulfur
oriented
##annah
tand
morris
charlotte
maje
hughes
summit
475
vin
analy
equities
ranking
methodologies
227
screen
ocean
wishes
##illy
##antom
centralized
enjoy
seattle
noncancelable
144a
incorporates
majeure
phantom
signals
##oxide
electro
corner
46r
265
prospectively
consens
##note
stone
exterior
pion
thermo
ty
##awn
ascertain
lan
232
introductions
older
nationsbank
525
440
jp
observance
adjournment
espp
fault
revoke
retailer
##eries
outcomes
pledgee
##keep
221
##aded
##eastern
234
expressions
mead
russ
403
##ocarb
exv
handle
evans
attempted
holl
##rogen
lu
unallocated
impl
injection
observed
telex
280g
schools
saturday
phases
248
chains
max
ratified
nar
inquiries
zoning
enactment
237
managerial
enhancing
##08
replaces
convenient
233
footwear
mirant
scenar
coverages
fringe
transmitted
##lights
outlined
##alt
##hca
##kets
aaa
appealed
gateway
##livan
marc
##landlord
discovered
##sen
313
##aham
rot
incapacity
##inos
loyal
666
stayed
tape
238
misappropri
guaranties
236
knowing
reservation
peco
mortal
focusing
undeveloped
qualifies
##idth
coas
child
rigs
savannah
deducting
groundwater
allowable
moore
lifo
##press
save
2014
dishon
double
liquids
##wart
sullivan
parach
retroactively
##liver
advanc
belong
bottom
223
stol
preservation
##ife
manifest
wholesal
244
cogen
ech
cercla
tes
nasd
footh
appraisals
shortages
249
career
jobs
dim
##lington
concep
disclosing
##pped
headc
mortality
consolidations
parachute
reading
depth
##lc
constraints
eurocurrency
420
geographical
switzer
pilot
osi
impr
##emaking
chart
stipulation
organic
creates
abatement
instrumental
##car
##umed
jew
##ema
##atorily
disruptions
subjected
lex
transitional
226
french
##emont
differs
philip
descent
headcount
detr
##troll
##escence
370
050
aes
mixed
allegedly
disallow
fou
distributing
motiv
switzerland
231
wine
dereg
skin
montana
pace
eye
revoked
hawaii
prevented
##mate
teams
distinct
cardi
screening
335
mandatorily
thing
barrel
252
frozen
installations
spend
##opher
henry
xiv
##bury
sectors
hydrocarb
##ova
##tibles
concepts
##imen
tu
eliminating
conclusively
recommendation
ranch
nominating
brian
##ingham
insight
economically
cede
baker
stranded
franchisor
checking
hybr
fc
originate
wherever
##isms
benefited
prol
favorably
1000
arrange
acute
sba
wilson
warehous
retirees
ns
reservo
##ication
coupons
##links
substantive
##oca
239
254
dp
##cels
##amily
antid
compares
defeas
cig
610
hmo
terminations
cautionary
smart
770
sunday
abbott
307
garden
curve
refundable
urban
mercury
conserv
furnishing
omnibus
servers
loaned
unfair
vie
lad
cinc
outage
unemployment
366
wrote
256
ferrell
downgr
deterioration
forum
##58
labeling
considerable
247
larry
advertisers
pulp
transform
broader
deteriorate
##tz
defeasance
jcp
examine
##200
proto
355
parkway
forbearance
christopher
nova
306
##lusiv
multifamily
estimation
##vo
fu
coffee
bag
nepool
generators
colon
gla
tampa
medicine
##71
wam
##uns
succession
lew
react
taylor
restructure
onc
transacted
whit
orange
bbb
retrosp
az
sears
complexity
##mart
bachel
securityholders
rivers
emc
##pson
##vac
proportionately
philli
cincinn
expose
apple
bund
alaska
cincinnati
257
practical
legacy
addressing
displays
versions
inherently
286
bol
ameren
##dd
resist
##ofar
retrospective
differenti
vermont
ratifying
##fi
##41
predominant
seventy
quicklinks
footnote
overseas
pec
telephony
obsolescence
outlets
foothill
zeal
yen
null
superfund
sized
casinos
stolen
refunded
authenticating
dioxide
modules
lodging
verification
##ompass
averaged
295
246
seism
cosme
##72
311
academ
belgium
264
hereunto
zealand
genu
encompass
compounded
findings
collecting
##eline
commissioner
##lusivity
pn
318
simulation
prototy
captioned
derive
insofar
##troller
##eseen
mart
newspaper
students
##ylene
##61
attracting
opposite
dismissal
##bb
sac
hybrid
##ots
nex
##osh
austin
incomp
251
morator
intervals
ice
failing
controversy
pollut
##uls
csw
explo
seismic
franchised
citi
discounting
albert
chatt
bodies
latter
##reditor
surchar
unto
coastal
pittsburgh
inch
deduct
sublandlord
##istered
grown
directory
intercreditor
269
concessions
alcohol
arranger
ks
enclos
kim
344
haw
communicate
##uth
dram
##itage
241
253
accomplished
afforded
drilled
243
constructive
extremely
motions
remod
faster
##brook
278
remittance
kir
possibly
319
268
relying
confirms
founder
amortize
temp
temperature
266
levied
262
gregory
destin
moratorium
conveyed
earthqu
##tious
russell
lg
cpuc
swiss
258
allege
preemp
##ecs
domin
502
roberts
salt
window
##tier
amounting
appraised
recycling
267
legality
designing
##isse
276
cyclic
ira
1977
assesses
##125
##ensity
##just
acreage
raymond
esq
520
shore
##iet
goldman
fs
swed
inserted
newspapers
##usa
invests
divestitures
ball
##ato
refuse
unanim
317
hc
##eland
##titution
277
monitored
misrepresentation
636
therapeutics
reconciliations
allot
bone
springs
316
comptroller
electing
##bell
arranged
denominations
millenn
575
disturb
wrongful
##ilding
##bl
converting
430
308
millennium
inland
discontinuance
jet
ours
eighth
279
##downs
antidil
unregistered
mmc
integrating
portland
identifies
heritage
mandated
analyze
nda
jewel
299
span
##tor
cler
##omic
263
336
##mined
finalized
figures
eme
281
##orporated
lith
da
272
disk
dun
284
274
423
##enders
movement
mitigation
incorporating
##urg
bachelor
lands
exclusivity
chev
concession
variability
describing
delinquencies
injuries
2737
foreclosed
grid
328
generator
inside
inactive
##94
positioned
generates
statistics
liquidator
nominated
consuming
csfb
##iso
concrete
rendering
preferential
submits
nonst
ceiling
appliances
wir
288
indefinitely
tac
vict
pioneer
##95
stipulated
296
##ronic
##cap
wes
thin
##keeping
perfection
tum
quotes
ltip
nm
moderate
visual
540
460
##icks
bellsouth
ende
wyoming
hay
287
331
##0331
bn
ordinance
diagnostics
splits
gender
turbine
##phy
away
raising
battery
downward
footage
occupational
309
storm
midland
align
338
sufficiently
##vc
differential
motorola
033
kwh
mm
undertakes
ballo
emer
intentional
##ouses
385
refrig
ell
hi
282
unlikely
00009501
parcels
drivers
loyalty
10k
beverages
attacks
##regard
amortizing
292
altered
refrain
##10k
challenged
alien
desktop
pt
disregard
groc
fide
matrix
modem
emergence
261
##ellon
interruptions
pleas
zone
lumber
catastrophe
picture
principals
nt
##valu
cola
##ography
pari
lane
##actions
##hz
edge
anchor
roche
outlet
271
411
407
##lamation
coinc
##geting
defines
hardship
probability
lt
2015
bif
telecommunic
eighteen
560
##hares
nonrecurring
hm
sourcing
brow
innovation
##inqu
283
precise
515
##icket
##anol
nv
originating
alexander
##chemical
tab
les
takeover
##2k
cult
strengthen
treating
updates
gent
##uccess
##utch
##tra
relinqu
##advant
860
368
##aha
ak
carries
duplicate
##63
aur
combine
##teries
rejected
gord
fann
##isons
unsuccess
drafts
unsuccessful
ubs
##usting
portable
border
saif
fluid
charitable
##ela
faces
telecopier
sier
imperial
##10w
telecommunication
##78
294
##wal
505
recruiting
470
minne
lub
inducement
lewis
matthe
##awk
##teenth
specimen
administering
##esign
##kee
disinter
pier
reclamation
tied
nonmon
cib
substitutes
nonmonetary
throughput
##90
##itorial
sanctions
720
importance
neigh
outages
heavily
intermediary
permission
constitu
##agon
necessity
##estar
leon
famil
713
linked
refunding
budgets
rolling
##stock
story
273
417
511
row
barry
microw
burd
domic
pig
promoted
buff
suscep
fri
upc
nondisc
##ustion
syndicated
berg
ccc
752
suisse
severity
324
hollywood
vertical
##ss
337
infringing
indices
venez
rc
corrected
citigroup
aggregation
patri
scheduling
supersede
630
prosecution
##reen
0pt
connectivity
spare
transit
defective
605
warren
##aton
exemp
617
332
towns
assignable
##enson
cars
malays
rescinded
triggering
nic
sach
298
##w2
simpli
##afe
justi
##width
honor
slo
anten
contraven
cfc
##works
hosting
327
cubic
applicability
##nett
endorsements
##atin
341
bread
##anda
noncon
##hen
taxed
##timore
referral
bandwidth
feasible
675
style
excessive
hurricane
processors
attempting
minneapolis
outpatient
strictly
insignificant
##ilipp
mmb
decor
gb
patriot
640
##urrent
aol
bona
connections
venezuel
ger
undue
##orne
unavailable
click
spaces
overdr
baltimore
##inal
volt
instrumentality
standardized
##98
connect
predecessors
322
kilow
323
hr
paralle
362
occupy
advancement
arose
acid
easy
ceding
dock
acceptances
##onto
restored
bringing
##ttp
bankshares
verify
aig
escalation
blvd
580
classifications
capture
##notes
##ece
specifies
boy
cobra
##aho
felony
salvage
prop
321
gerald
##elson
291
unpro
pick
419
nash
accreted
disinterested
512
##vere
##troit
interchange
detroit
gil
bt
consensus
serial
invit
vacated
foster
historic
conversions
##pi
sugar
disadvant
##ensing
floors
foss
nitrogen
families
surveys
portal
eliminates
suites
sample
530
297
##anger
turnover
marshall
##hy
intensive
diminish
commens
ingredients
collaborators
349
logic
940
cul
326
policyholder
modest
noncash
insert
achiev
coin
directions
barriers
sierra
##print
kaiser
506
climate
dress
329
504
cogeneration
##nr
english
ri
lucent
reconcile
##erely
##epco
##etition
txu
554
cil
293
came
recap
encounter
16b
suntrust
debit
289
888
ups
diab
pronouncement
toronto
unr
financially
samples
##atts
approves
sue
consequential
cigar
detected
##vance
856
tul
remodel
##licit
363
sachs
mechanisms
bak
radioactive
footnotes
mit
franchising
renovation
##pping
435
rebu
depreciable
##mited
tom
346
##ko
entitles
undertakings
configuration
dod
##lett
sure
negligent
503
388
formulation
##card
http
fannie
victor
##oul
airgas
condomin
attributes
352
explanation
bax
cooling
condominium
adviser
##etermined
725
490
greatest
508
399
towers
lag
comfort
suburb
reaching
counterclaims
mines
numbered
chattel
merits
graphic
subletting
transported
##lay
parallel
databases
##any
tag
999
jon
ku
##what
395
##opharm
unlimited
treatments
parame
358
701
microwave
##atically
477
383
discharges
612
##lyn
ranged
neighbor
modernization
##rise
apollo
##ipheral
enough
announcements
##omery
aftermarket
montg
##ugh
peripheral
forgiv
975
frederic
pream
ah
shel
invention
contempl
philipp
##quis
chester
tuc
perry
mutil
unforeseen
tandem
meridian
montgomery
commensurate
hyper
photo
genzyme
##ologic
puct
pledges
cyclical
comparisons
increments
subserv
sick
fossil
narrow
dd
680
357
transferability
570
toler
campbell
adjusting
dlj
biological
##lar
##ball
watch
sands
challenging
nbc
comcast
glob
tas
intents
434
antidilutive
indianapolis
reproduc
noteholder
##hire
ninth
904
##62
##eased
dealings
995
##osc
555
cro
readers
banker
dear
372
graham
##unct
homebu
##arkets
reimbursable
backup
##ume
levies
##vine
##elec
upward
prohibiting
susceptible
mellon
444
##titions
aurora
protecting
374
##ibr
declaratory
##vp
##wich
payoff
##vk
peters
354
dual
strip
guil
737
##escent
orland
verizon
pes
##des
wid
479
explos
funeral
ages
##eli
justice
bail
##omer
estopp
recreational
knows
bod
eb
swepco
ease
titled
disclaims
021
passive
citic
438
mitch
gordon
proxim
thorn
twice
##iann
002
aging
rider
##rics
pfizer
343
leach
cnl
telem
marginal
mci
fy
359
ffo
660
preamble
##minent
ru
367
348
somewhat
##inder
centre
abuse
knowingly
vulner
hew
384
outsourced
1970
##ched
excepted
##ho
nonperformance
3d
##itr
images
ross
subscribe
708
760
haul
asian
supervisor
regulating
calgen
454
vaccine
phrase
##erica
therapies
455
cryst
adapt
spir
predominantly
glen
495
messaging
trailers
repos
620
925
yours
615
respecting
stem
detri
get
satellites
omaha
indexed
nap
guaranteeing
forces
ethical
mbs
reinsured
subp
386
##netic
465
tro
##ij
doors
views
affiliation
uc
examples
dor
wave
preventing
428
nord
y2k
comes
deliverable
025
##apes
plumb
hvac
926
347
explain
keys
worker
##ibb
writ
birth
excellent
subscriptions
transferees
445
murphy
##quest
peps
accumulation
expectation
rulings
##insured
balanced
libo
vacant
experiencing
sq
##owner
orlando
coatings
812
oxygen
369
effectuate
happening
occupation
awa
339
disord
##104
disqualified
cpi
609
920
vp
camer
436
jaco
wc
disposable
dar
thor
342
entries
ogle
strengthening
plate
innovations
walter
##jr
circulation
restricting
encumbered
vista
customs
specialists
noncurrent
library
sizes
multim
acknowledgment
reward
subpoen
437
##81
grain
woods
curtailment
investigating
714
brist
idaho
825
scotia
redund
upper
itc
519
462
cham
crediting
##aired
disappro
waters
compatible
combustion
incon
356
scru
wet
syndicate
ng
rubber
society
traditionally
whereupon
457
ordering
##ergies
##hawk
deductibles
##xon
##ards
##ram
spa
##yon
deliverables
conviction
##isters
499
##aris
municipalities
partly
analyzed
lessors
21e
rejection
assemblies
703
353
##ador
##ops
transact
furtherance
advertisements
correspondent
pm
##ymac
subleased
implant
expedi
payor
fabrics
categorized
pma
##bel
coordination
inaccurate
##loyd
394
sovere
sovereign
seed
merck
tot
##book
840
409a
418
indones
##utor
##mar
truly
387
annexed
parker
furnishings
##tton
397
hunting
oun
bend
himself
schering
##otherap
392
516
misappropriation
##affirm
##orpe
abroad
directs
377
divested
##boro
805
ensuring
initiation
antibody
colonial
485
xvii
oversee
fis
supplying
nrg
prc
christi
##cra
##heim
ferrellgas
mini
indicator
richmond
4999
trained
plumbing
681
##augh
exhaust
##vs
602
malaysia
aeg
507
conforming
429
dynamic
relet
371
361
378
jefferson
choos
oncology
indymac
hanover
hur
diversion
expl
379
holidays
easily
investigate
775
magazine
##biles
pursued
eld
381
004
sweden
##omo
##thorpe
801
edwards
alloy
genes
833
##essor
jewelry
##ulations
creative
mck
740
452
945
376
715
391
##zo
subleases
cutting
421
sher
##electric
##orporation
535
413
multiples
ticket
experiences
1973
396
sap
pinn
unsafe
predetermined
imposs
plains
unexpired
empow
grocery
restricts
mediation
exped
kelly
attended
expands
bowling
running
subjects
email
evidences
relieved
##bec
468
##ipped
frontier
satisfying
pad
nonemploy
ces
##ets
##isource
a2
trim
##ploy
coming
##gor
441
amen
nextel
##ervice
anton
satisfies
usap
##isen
benchmark
arms
hamilton
rio
##yeth
lockbox
processor
398
447
rebate
discoveries
fronting
dm
departure
imports
estoppel
622
cox
nsp
oglethorpe
baxter
pharmac
##life
hiv
seabrook
isol
lip
originates
crossing
rhode
arb
farmers
910
005
drop
802
##uster
1975
373
assignees
fsb
590
venezuela
524
##ented
analytical
##mented
divert
thail
citicorp
telephonic
semiann
acquiror
##0330
611
marketers
recons
nonass
##lows
hend
432
driver
contaminated
##alco
389
fluctuation
mn
thailand
authenticate
##ona
716
appell
fried
00012
458
dro
##iliar
scrap
transl
arts
saw
bidding
prosecute
##omics
evol
##atured
##mbs
488
880
449
##aiss
lilly
433
464
burden
publicity
466
565
viable
##american
##mal
unbund
##amin
##ysler
alpha
aspect
scheme
walls
remedied
##inese
easement
consumed
burdens
bristol
##zex
demographic
contributory
690
chinese
448
3rd
bs
myers
density
multimedia
604
suburban
446
started
placing
exploratory
laund
075
sunrise
##olds
unmatured
mitchell
hsbc
960
trustor
pinnacle
810
469
affordable
chips
980
mechanics
sonic
zinc
sbc
608
456
483
mesa
nonstat
561
describes
varied
roger
crop
leaving
##aming
stronger
agr
633
ol
710
millstone
##bean
509
727
15th
nonstatutory
780
alternatively
20000
513
##brand
651
fifo
crescent
##thold
##andard
retroc
beth
##sts
##gers
514
coca
restrain
607
refurb
972
730
##ini
cambridge
impossible
##incorporated
##agara
spreads
thompson
veter
subsidy
ruled
collaborations
telegraph
radiation
drives
##asters
cry
faa
670
545
474
487
426
stim
reconciling
818
seasoned
bil
apparent
corning
newco
614
wi
tear
spp
unincorporated
##chi
campaigns
494
subscribed
478
497
393
484
fp
cardio
strat
contributes
disaster
containment
544
automobiles
442
fremont
##anto
slowdown
pollutants
451
classify
jerry
opco
637
chronic
##osis
##osa
496
courses
##yers
##fers
proteins
navy
459
campus
##tinguished
ue
economics
wholesalers
481
705
penelec
prps
closures
filter
minute
promise
illustrates
effecting
sod
dna
molecular
protocols
niagara
adams
wastewater
correspondence
kle
deadline
##ob
ampli
645
blocks
521
deregulation
parameters
901
439
allotment
insuring
930
disadvantage
aggressively
hip
463
interpre
##ula
702
tia
552
achievements
777
td
467
recoup
526
reservoir
##idav
ou
2016
totall
unsound
fisher
affidav
529
##bp
globalstar
stewart
irvine
ig
oe
noon
aps
nonemployee
switches
totals
brokered
placements
##icom
breadth
buc
sros
471
semin
math
shr
avoidance
476
disbursed
derives
562
eds
rab
687
ipc
##adyne
rational
wafers
##quisites
reinstated
guardian
2nd
lind
readiness
ago
litig
discour
vital
711
toy
##ji
##atric
dissolved
dvd
585
665
724
enrich
riverboat
cna
nd
559
purport
528
magnitude
vies
dimension
settling
crow
appur
ies
faithful
538
##green
tour
provisional
804
reaffirm
boxes
431
oz
hurricanes
1ex
635
461
enj
actu
080
lotter
nonrecourse
likewise
547
uninsured
##ologists
documented
486
##osoph
matched
targeting
warehouses
appellate
498
536
chile
rocky
dw
instability
820
cleco
recept
##oining
clay
visit
npc
matthew
domestically
##101
philosoph
antibodies
optimize
##enton
492
walker
bernard
517
jay
regulates
snow
472
985
gases
collins
formally
impacting
barbara
indemnitor
712
870
accommodations
chemistry
neutr
eu
##away
542
inspectors
menu
427
encountered
443
sharp
variance
765
invitees
unil
opt
irr
graduate
518
redesign
020
phosph
everest
482
heard
agreeing
recordation
pictures
015
defining
453
deny
travelers
563
helps
landsc
830
nutritional
mmbtu
remediate
puhca
##ae
##ilian
directv
069
wamu
selecting
595
quebec
recapture
mostly
sig
mrs
contingently
036
prototype
534
denying
884
787
griff
548
767
hearings
deployed
##abs
cu
##ache
571
perceived
letterhead
dues
fdicia
##proc
labels
473
##exv10w
gn
##eca
earthquake
##bursed
speak
unim
delegation
propose
##front
949
unsu
imported
489
northwestern
marketer
session
designates
compact
dub
lac
brew
nan
624
grove
cablevision
loading
engagements
##earns
constituent
budgeted
outflow
pumps
688
619
abnorm
falling
phillips
gsu
combining
857
finder
closings
highlights
liter
##nell
postpon
955
bradley
orion
restate
ent
parks
overtime
##abeth
533
shops
mbia
ment
officials
717
556
ee
metro
contemporaneously
nox
layer
encouraged
estates
destination
822
converse
studios
##ifer
lor
dose
uranium
tep
infl
referring
instruct
diminution
lng
concentrate
polymer
ask
cbs
convention
1972
27a
adm
ath
hans
builder
813
747
bore
batteries
060
010
cpa
subservic
reyn
970
constructing
renaiss
##alo
631
imprac
crystal
promin
disposing
trou
##ieg
745
disqual
574
493
722
variances
printers
geographically
southeastern
568
passu
nw
##arc
732
584
familiar
eric
567
fnma
aqu
##orse
##sex
549
apportion
564
gave
##rol
antenna
baa
070
inserting
##timate
fourteen
532
catalogs
572
nonex
pin
576
depositors
546
##dy
##athon
dpl
847
explore
603
counted
cement
pso
040
alliant
reprice
755
classifies
posting
##earing
646
intrast
handled
claimants
superseded
lae
537
actuarially
virtual
##rom
902
##uity
intrastate
531
supermarkets
626
punct
surge
leveraging
nick
##zed
648
susan
cancellations
dal
##comm
guest
resub
novar
##oy
respir
nols
paint
mcg
orally
diversity
077
##omac
##trans
concord
fragmented
579
rogers
dsl
naic
insureds
##prac
655
815
prp
522
10th
alt
simon
noise
overc
068
belonging
roy
loral
sex
ferr
057
bry
ralph
566
door
599
dol
hereon
ov
insur
##med
wherein
596
csc
##ager
modular
731
formats
freely
intending
prince
583
##ourg
peat
balloon
616
##vascular
588
1935
##omon
eventual
527
707
##zabeth
compare
estimable
908
30th
sir
audience
621
##otech
##iger
px
frederick
substituting
responses
soliciting
intermediaries
assembled
marathon
chlor
##nan
adult
dair
solvency
unanimous
subacc
berks
cisco
novartis
quota
regulator
burlington
594
perquisites
718
indonesia
alarm
909
914
4th
keith
thornton
557
seriously
fitch
##burn
790
814
fd
551
##itated
644
withholdings
essence
##nam
overdraft
allocating
bab
685
990
champ
sle
##ede
motivate
903
491
chiron
nonpayment
639
integrators
757
##othermal
##bound
elizabeth
panose
734
petrochemical
lig
leonard
539
gradu
roman
fundings
luxemb
##sch
553
too
deceased
695
variation
735
##fth
megawatts
##ouch
builders
cole
##tree
##emed
message
##mex
appliance
##around
582
##gram
advisers
pegas
fluctuating
##ales
femin
documentary
factual
preemptive
philosophy
##rea
706
662
587
naming
comment
915
##gent
##asis
atlas
634
referrals
callable
ryan
577
bac
geothermal
627
597
hazards
analyzing
reed
##ew
waiting
586
##above
originals
pine
redevelop
668
feminine
tribe
founding
##tient
websites
##rex
003
965
##umbered
philippines
##atriation
investigative
surcharge
ethanol
541
broadway
plug
890
potomac
bodily
conversely
558
piz
632
pmi
synth
specification
ratification
lowered
##uous
754
##iminatory
##power
618
continuity
speeds
##ries
upgrading
761
dissolve
##fl
antonio
stearns
manuals
investee
cliff
781
569
resin
thirteen
ky
jacksonville
wol
laundry
midamerican
suitability
00008
avoided
exemptions
##enter
shutdown
carib
nets
cardiovascular
tight
hereinabove
543
##fm
0001193
thorough
receivership
disney
quad
modeling
unpred
province
##ils
murr
puco
623
reacquir
578
638
locate
warranted
kitch
responding
dispar
triggered
god
legends
enclosed
amenities
cord
modifying
gues
cohen
repatriation
releasing
523
empowered
appeared
icc
holdco
oly
reciproc
presumed
913
##anton
0001193125
816
##hal
triple
taxpay
unpredict
cign
coordinate
##ek
module
759
marwick
scenarios
dbs
hands
598
##ket
tribun
654
919
testim
revlon
powder
progressive
stev
642
intelligence
appraisers
678
luxembourg
visa
shif
669
nashville
writed
613
889
writedown
persu
mack
##atel
webster
invoiced
ome
##nor
629
pseg
gt
wel
adhes
notation
beck
poland
sony
858
interfaces
672
##iday
objects
horse
689
##aq
cw
variables
louisville
recipients
phi
coopers
628
664
shaw
academic
##cia
dishonesty
808
extinguishments
keystone
infringed
upgraded
vic
ourselves
011
937
workst
beer
008
905
biopharm
009
##wau
ward
voltage
reynolds
729
prolong
interlocks
733
compute
sewer
dairy
lengthy
bayer
meters
ashland
cts
hanc
##wall
658
relocate
030
proviso
##quid
recession
817
682
nonassess
hancock
drin
southwestern
constitution
##lications
##atri
589
maw
reconstr
hab
appearance
quin
##iate
##web
cigna
bit
airb
845
mobil
##hill
581
652
wife
641
959
certificated
dynamics
olymp
lpsc
lottery
728
nonassessable
regards
openings
irrepar
mascul
954
waiving
592
067
803
foundry
masculine
houses
respiratory
immune
692
guilty
951
tp
positively
revalu
circle
russia
bryn
disregarded
kick
purchasable
studio
nab
approaches
migration
movie
##entech
007
##rus
726
concerned
nl
647
rb
endeavor
twelfth
chevron
divest
subpoena
rt
oxide
formulas
wright
828
asph
684
triad
costa
ideas
##non
885
593
argu
##ila
routinely
922
696
973
platin
milwau
berkshire
##rett
viv
foodservice
##tronics
pv
##asi
677
petitions
psy
bcf
charters
equipped
##his
074
unreasonable
751
##abl
573
##lers
##forma
##pass
spanish
leads
barney
679
church
2020
viewed
entitling
restraining
##eet
stri
##iro
832
tribunal
height
skill
patron
cardiac
thresholds
fruit
##amex
attachments
beliefs
mutilated
834
tooling
mason
reve
tyco
inpatient
carm
schw
785
amro
undeliver
gallons
mount
magnetic
contacts
reacquired
reinstatement
criterion
geological
mpsc
arti
656
719
773
917
heartland
bv
ventil
lasers
855
ratemaking
768
nec
ppa
000089
kits
specializing
nonfor
674
platinum
milwaukee
938
transm
##acia
835
591
correl
797
sho
kilowatt
mons
entail
hd
nonforfe
occurrences
lexington
gifts
wales
##iage
864
##tsman
teach
##tle
birm
##roe
pear
657
852
niche
executes
653
packard
744
strengths
aic
greatly
bancorporation
players
idle
##portions
genesis
textron
##oms
tire
wireline
atr
oxford
659
umb
offsets
cater
##osion
079
proximity
811
infusion
resolving
exercis
749
##yx
db
##hm
involuntarily
affirmed
rid
cotton
794
944
##icted
objections
repossession
substitutions
##ennial
824
sensors
ncr
switched
provident
orthop
vascular
disorders
orderly
warm
##ecom
seg
##ployment
optimization
877
telemarketing
809
018
fertili
euros
proportions
tumor
sym
##rock
006
birmingham
samuel
795
attains
046
quant
649
746
soundness
huntington
disrupt
035
774
##ults
priorities
738
gem
simul
adjudication
rr
reputable
reag
descriptions
oracle
784
723
terry
abnormal
nominations
guests
architectural
788
865
661
inelig
noble
mawr
collar
projection
inconven
noncompetition
contesting
##acement
energ
americans
698
024
nelson
admit
clara
hop
introducing
ats
663
762
hydroelectric
778
meristar
kk
monsanto
agriculture
memp
disabilities
hundredth
045
memphis
952
sealed
undr
694
799
spill
imputed
todd
014
repeated
toys
699
brooks
catastrophic
933
foreclose
##quire
crew
sporting
roe
ships
756
exercisability
709
flash
amgen
693
986
##olas
signage
xl
671
decrees
directing
776
tan
lloyd
instruc
686
coordinated
##orship
ntl
019
ellis
##atures
toled
##thal
rosen
017
indemnitees
##emens
##person
##itas
harvard
neil
pic
seam
643
eminent
aimco
stein
hydrocarbons
technic
##backs
998
748
jv
918
illegality
robinson
683
freest
mercan
onto
abc
934
isos
farmer
aids
769
rehearing
753
881
897
nonforfeitable
pel
boil
##nut
##otherapy
676
##iley
bottling
friend
accessible
essex
dining
toledo
pharmacies
sending
792
grantors
lyond
viability
lyondell
pend
kat
895
want
memberships
disasters
pte
826
ramp
coach
validation
088
782
subdivisions
758
separated
owens
rolled
contrast
asphalt
harold
protections
807
gray
928
936
838
wp
publishers
endorse
instrumentation
##202
935
cfr
##ira
truth
genco
arg
##ancings
downturns
shortage
responded
##fp
finite
dex10
916
refinancings
kinder
ads
924
673
##etes
outsource
holland
promoting
##mouth
overha
##hare
772
fhlmc
meg
hb
freed
mcm
836
enrichment
murray
symp
complexes
##hai
empire
boat
862
streams
renaissance
978
806
sampling
789
csp
##anet
##strong
railway
gi
unenc
##ostar
matches
solar
956
quote
farms
848
exh
743
adher
786
readjust
negl
anywhere
##ados
874
mercantile
##atus
861
responsive
dutch
seat
697
721
rochester
makers
##10vk
##elli
comprises
yearly
##ella
846
076
armstrong
dac
1971
lockh
065
teco
army
carriage
counters
augment
997
844
clinic
guideline
trucking
occupies
##lip
reaches
##oga
871
brazilian
disagreement
tube
viacom
mwh
##arch
monong
undelivered
branching
mri
##isure
repealed
hh
tulsa
831
wild
968
984
traden
879
behavioral
2018
nonexc
presentations
nts
055
capped
barton
omega
987
cosmetic
779
navigate
subtr
843
pegasus
fixing
821
764
090
rjr
violates
paris
breast
sti
012
welders
diabetes
worldcom
forever
expression
presumption
mohawk
034
quo
bundled
783
valero
766
741
buck
peru
##inary
friday
informal
##icken
943
085
edition
rim
airframe
827
atc
titanium
994
valves
798
mirr
796
kee
cinem
unencumbered
mcdonald
comerica
931
742
synergies
witn
fitz
ceram
possesses
829
026
ls
793
##bow
resubs
##ahela
inns
alf
rsus
739
tek
bloom
monongahela
links
771
parents
966
##olic
shifts
029
narr
kw
##ari
##chr
shipper
genetic
##73
occasionally
##segment
leisure
xvi
gib
929
##esseth
ledger
realignment
oct
reconsider
henderson
italian
intens
exclusions
clarify
adp
adjusts
slower
894
ches
##itech
996
044
907
retrie
balancing
866
witnesseth
842
691
coated
reliant
jen
cardinal
##gary
##hand
##eston
harvest
testimony
runs
##edic
vulnerable
nalco
voip
devoted
976
bath
icon
927
alban
##tium
##vale
##ellow
066
837
relocated
4a
064
unregulated
carter
hoff
command
rewards
rcra
##assis
injunctions
##andings
differing
872
868
882
newport
simultaneous
##hu
763
##exv31
##user
neutral
hilton
noncontrib
##atrix
wagering
941
orb
047
tree
##dp
resubstitution
lybrand
yielding
sip
resins
tun
867
084
ree
seconds
instant
##omple
genuine
amd
2023
791
reits
896
emphasize
unreim
recruitment
##ener
genomics
##erox
consignment
glenn
realizability
residences
conclude
valuing
francis
earns
intersegment
878
##xi
quantum
penetr
township
redevelopment
emm
tenor
939
##banc
enrolled
affidavit
substandard
bmc
ipr
renegotiated
##endant
863
troub
coins
retrocession
859
prolog
metall
subservicer
##ulin
022
asc
ceme
841
876
054
1968
969
servicers
##hg
854
scotts
8700
resume
clerk
tasks
977
genentech
1969
tailored
921
887
##alg
xerox
ltda
cedar
##aine
culture
869
microproc
ryder
071
unreimbursed
819
dupont
##iving
aimed
dealerships
icg
cruise
948
923
formulations
stabilization
##ders
pooled
ineffectiveness
gear
883
inflows
sas
bet
hamm
##omed
publisher
adel
vests
embod
cus
xxxxxx9
driving
caribbean
pere
953
prologis
cypress
038
inspector
992
contaminants
kid
063
028
##illance
harry
pep
2017
hewlett
reciprocal
967
noncontributory
##ecc
839
cei
bruns
892
theatre
postal
shield
##ando
trs
##lantic
##otal
faced
cips
entitlements
974
##sea
comparability
barcl
surveillance
accommodation
finances
jean
downtown
outstandings
amex
31st
dispro
diversify
harvey
##acon
combines
honey
literature
imbal
turnaround
##odes
##kyo
059
##lemen
sor
958
resigns
kit
##vis
988
ineligible
declaring
herc
witter
##stan
016
loop
849
989
acquirer
ahead
##stores
##inated
invalidated
bh
##isk
administers
megawatt
expiry
tenancy
obligate
judgement
unpredictable
mist
radius
disproportion
851
presenting
056
returning
nac
beds
irreparable
dot
negotiable
magazines
alberta
grey
apparatus
biopharmaceu
explicit
095
inflamm
##fit
##psi
verdic
notifying
893
ftc
tnc
seid
946
cogn
##real
joe
027
colomb
hil
steve
afc
899
albany
imposing
##boy
sv
048
032
smallcap
fixture
plm
886
eaton
amc
##verly
equistar
removing
932
outflows
981
reposition
directives
##athered
virus
##plant
##terson
##udc
critically
reader
turnkey
securityholder
##no
tokyo
##espread
siemens
823
grie
widespread
hair
beauty
quantifying
completes
artis
intentions
##uder
991
assisting
##103
pizza
898
dix
ultra
theatres
cafe
touch
mun
947
dayton
titan
apco
##track
##orrow
monroe
##uart
novo
interconnect
inject
2019
grades
betterments
arrow
diminished
964
downgrade
repatri
083
##ito
healthy
stoppage
discourage
stress
gradually
rbc
cyber
fha
039
drain
tam
##ala
undrawn
##ague
853
afudc
##cars
styles
ports
042
cornerstone
##mento
api
ipl
wps
gentlemen
mmcf
memorial
pnm
942
sport
remeas
phones
consor
sponsorship
seiz
juan
##83
957
##jet
speech
60631
hawai
052
realloc
mitigated
blanket
routing
##ads
expansions
##gg
hawaiian
shang
062
buyout
961
barge
submitting
safeguarded
nymex
breakdown
positioning
randall
obtainable
visits
##atech
##illo
strikes
sj
983
proforma
telegram
consistency
goodman
finova
adopts
antig
chance
distinguish
elk
##102
captive
049
accidental
cdn
oph
031
indemnifications
cmos
013
trailer
teles
demonstration
contemporaneous
roaming
solvent
patric
corrid
873
cpl
963
austria
##ser
mcle
proportional
assessable
dex3
ingredient
pose
garage
greenwich
mitsu
vast
##icare
fibers
##oston
concert
##md
undis
falcon
041
seen
constell
3000
attending
kron
gained
##itel
waterhouse
native
bright
writings
096
explained
891
carpet
inconsistency
philips
##82
##strom
##0329
pav
renamed
lem
harrison
037
##ugene
physically
timet
##oney
attaining
invasive
##phi
##erco
constellation
enjoyment
##inet
hipaa
993
refineries
stands
moral
persuasive
##ogene
rp
##boston
joinder
cabot
amalg
##apeake
##igua
installing
pci
feedstock
kath
##len
acs
##glass
accountability
reemployment
stark
dick
chesapeake
962
precious
##rx
salem
kitchen
phrases
leaders
shanghai
092
##imi
dealership
##axial
actuary
##56
cher
angi
yellow
plasma
swift
computerized
labs
meritor
registry
buffalo
cananda
enhances
bush
compell
vaccines
canandaigua
##estr
beef
##rella
regency
971
reletting
sdg
katr
982
crime
061
##intend
delaying
##iton
stain
058
kin
##onder
imc
watson
phased
predictable
conservator
vulcan
verified
##ordan
##avis
##hall
ey
dict
072
1967
pge
strain
uncom
selectively
consp
undergo
fern
canyon
echostar
ws
mastercard
chrysler
postem
##tica
dv
kirk
##side
fell
reactor
bearer
979
##tieth
086
inflationary
sequential
mari
postemployment
remodeling
apache
laf
chrom
norwest
##ayette
bdo
##las
contributor
##avors
##fax
katrina
ksb
provincial
reveal
##icts
brother
erc
078
4975
reassess
facing
depot
screens
nonexclusive
charging
ngl
##isys
089
condens
profitably
##659
aet
ari
neal
neill
demeter
railcars
##itus
##onics
sinc
043
kmart
strategically
routes
exploring
pepsico
##willing
unwilling
cz
073
enlar
087
sud
blu
magma
denmark
094
093
##ableness
displayed
eugene
##ificance
wyeth
helped
molding
conve
##ifiable
##ughlin
taxpayer
persist
##tronic
ply
batch
scotland
enum
000095012
##ronics
redacted
ink
allocates
thereat
quiet
osh
kv
productions
versa
lockheed
##icher
xcel
inad
brain
prolonged
cilco
neglect
universities
gat
hydrocarbon
valve
fic
laps
##enz
mhz
##51
reasonableness
##ires
023
quantify
reservations
wound
##ius
underpayment
marr
docket
082
aj
prohibitions
federated
fairfield
stuart
chassis
##twh
reo
2021
lm
centr
domiciled
brunswick
draf
possessing
tos
wiring
paging
sacra
textile
sacramento
wealth
designer
cables
birthday
preside
dominant
upfront
098
shortly
##002
##har
##53
transp
redwood
051
homest
scenario
pleasure
##oto
landfills
nn
lyon
timberlands
##agher
contig
irc
erp
ptwh
##rance
nominate
homebuilding
gel
dramatically
circular
unst
cyl
invalidate
linear
counts
fen
kg
##cery
quasi
reissued
delete
announcing
solicited
willingness
chancery
kap
turner
showed
collectible
subaccount
jac
##iors
significance
naec
friendly
panels
mdc
qwest
semiannually
##bish
tubing
roth
10b
gig
##opy
doctor
superced
realizing
resched
diagnosis
consenting
##109
brid
conceived
infec
##mons
091
zen
##ensen
households
beaver
oste
##hf
basket
sppc
cris
warning
##rin
##qs
activation
workplace
asserts
behind
edgar
099
initiating
discrete
conflicting
ctc
consortium
restructurings
hein
soy
hercules
specially
sincerely
fredd
##theon
turbines
metric
053
renovations
##aul
##erving
##ahoo
manually
##ava
subparagraphs
##gested
##chron
eventually
explanatory
denomination
arn
lifesty
applicants
##thalm
thcr
dell
incompet
kickback
totally
##icop
interaction
acquies
recovering
##030
centerpoint
raytheon
erie
##48
infectious
intelligent
ims
##awa
compaq
tion
reborrow
attrition
fedex
stam
##immune
5th
catheter
##don
tickets
fairness
##amination
heights
turbo
cautioned
retires
ones
why
eliminations
finishing
prominent
polymers
##hard
##oring
legate
##regular
resistance
filters
visibility
gallon
irregular
semiconductors
##aters
097
meritorious
##orf
##ja
monte
cusip
repossessed
scrutin
##porter
contravene
exxon
reno
friedman
##erex
cashless
beverly
expectancy
arisen
##ciences
directorships
081
contiguous
lauder
kal
hog
opposition
ophthalm
rg
aventis
ski
##rate
##llable
griffin
montreal
accenture
passes
gnma
frames
neighborhood
messages
coaxial
figure
stap
hit
##aping
freddie
##upp
mcgr
norman
##001
appointing
noncancellable
detrimental
ada
pursuit
steak
efg
disturbance
cum
carp
granite
visitors
ams
##022
jim
##placement
##rane
clinics
peach
unbundled
##laimed
fon
venturer
##ria
personalized
rice
fulfilling
demanded
questar
##linary
##orption
addi
minimizing
##atlantic
malls
foamex
player
bondholders
nickel
manip
##ectiv
blackstone
hawk
professor
derm
##eta
capitalizes
narrative
emeritus
filtration
##eder
discontinuation
conferences
went
graduated
ker
allstate
optimal
##phone
##46
##grad
sourced
hunt
##bility
salomon
vacu
pik
outplacement
homeowners
rulemaking
lowering
coron
repaired
shippers
worthiness
shrink
dt
rale
cibc
northeastern
bob
payers
parish
bakery
legislature
norway
secretaries
cosmetics
##emen
arranging
closest
fluctuated
corpus
averaging
tds
emerge
yahoo
patricia
adhere
comming
readjustment
contemplates
suggested
##otr
esi
accumulate
sed
shock
marcus
##teness
unitholder
sew
##105
printer
sleep
download
##405
##fx
uncommitted
clothing
discre
2022
improperly
tubular
heco
##losure
evergreen
stabilized
intervention
##alon
gramm
cmbs
timeshare
##econ
comd
##chlor
cendant
panhand
lung
sid
newer
retirements
##kline
fmc
rainbow
cyt
night
roofing
ozone
##ountain
jacobs
stoppages
perception
kcs
##yle
demograph
repairing
meat
ordinarily
##sett
panhandle
ambul
grill
severely
fi
pierce
afg
soc
enjoin
amt
adelphia
verdict
impracticable
lak
seaf
actuaries
technique
specialist
abide
##tholder
##store
##lier
exploitation
jordan
incidents
alc
adjoining
##gence
##ming
nexstar
delt
certificateholder
midstream
directories
handsets
correctly
sugges
relinquish
clinton
##mt
##erner
reconciled
optics
kay
analogous
sensor
donnel
equaled
quest
tabular
elan
ambig
cspco
quaker
cis
listings
##111
tin
abilities
gluc
chicken
klein
##yard
gor
demol
specialties
married
pendency
4b
seidman
payouts
transplant
pam
diame
lamp
turp
fortune
materiality
conduits
replic
linda
##atur
##effici
sued
demanding
centennial
##ridge
administratively
##engers
putative
##bro
##termin
manor
chi
wyn
fluor
ammon
denti
5000
disposals
ounces
telephones
##ophys
terminology
msc
investees
illi
000105
##woods
bhc
analyst
fluids
wolf
completeness
colombia
huntsman
anniversaries
piv
supervise
##ocon
##illar
clearances
oaks
walk
delphi
axa
landlords
redundant
alltel
citgo
broaden
tranches
gab
underway
compressor
lec
freedom
distributee
ia
streamline
assemble
##lim
procedural
hut
beta
##auer
patrons
locally
adherence
amplif
lion
hca
unsatis
gc
##rel
vacuum
impress
kod
sara
##agement
mlp
##child
doral
##ias
leaves
additives
refuel
designees
extinguished
##0328
##walk
cmc
##dis
recycled
stake
seasons
factoring
##aties
fg
seniority
nim
##amer
##wp
##urc
sprink
fsi
conectiv
gsa
terminable
competitiveness
recal
airpl
homer
jurisdictional
cutoff
arab
israeli
mos
fertilizer
alienation
foam
shareowners
leak
##ometr
encr
pax
borough
piggy
aetna
hat
##exv32
overriding
##ray
torch
##eces
hang
restatements
adjudicated
leather
canal
gg
collateralize
welding
proposing
fibre
duques
maximizing
severable
wo
ex10
##lion
rv
abbre
spc
##opard
supermarket
morr
hereinbe
powered
ion
starwood
princeton
honeywell
escrowed
##fin
##issues
##pes
lum
knight
athle
demographics
treaties
packet
hex
patronage
lift
legi
hypothecation
carroll
fabricated
vinyl
accidents
barnes
2a
pedi
##aced
netted
tapes
##berger
parad
param
revocable
ics
cemetery
resold
000104
conges
polaris
craft
duquesne
butler
inadvert
scientists
##ein
decim
rto
precluded
requisition
raleigh
railcar
pure
remic
##113
someone
inspected
gaf
jeopard
rite
airports
ambac
conservative
curtis
##frames
##met
hampton
bonding
renders
1956
##mans
fsa
##uard
usd
2024
##fn
spart
impositions
danger
insist
replen
stamford
##oker
nondisclosure
encourages
czech
centex
infre
tran
##books
##dt
##acker
dish
poul
ineffici
unified
freestanding
riverside
globally
a1
disclaimer
##plan
designating
warn
ze
##assemb
magic
1900
veget
orch
##bil
dwr
connecting
kerr
cds
fan
coinsurance
##ourne
ridgewood
nhp
decont
luxury
##igm
competitively
cigarette
executor
arrangers
turpitude
unw
nonaffili
bryan
profiles
aicpa
prescribes
libraries
umbrella
passengers
refueling
##funded
nh
random
reinc
cameron
acknowledgement
##redit
approximating
regarded
assort
unn
metrics
definite
##144
camera
rabbi
disallowed
capit
peaking
multic
bargain
spar
##athan
##96
subsystems
hungary
onshore
##ineness
##ni
dy
impede
advantageous
infrequent
##ipping
metab
auctions
##lt
insignia
wend
activated
expressing
dyne
moin
cooperatives
probe
broadly
maritime
fly
20th
disciplinary
attested
dedication
devalu
recalcul
finds
nonetheless
molecule
herbert
reclassify
3a
##thernet
##wave
##bt
gamble
emphasizes
advertisement
ethernet
milli
chamber
suspected
paired
forgiveness
avon
##oil
finlay
founders
ot
upheld
wrap
lubric
ratifies
##ielsen
moines
undergoing
##yo
tolling
##dm
##irst
##zh
chooses
genuineness
gallagher
##iper
##cade
fuj
illegible
incomple
overhaul
digit
demonstrating
tribal
##acare
microsystems
ti
pertains
bart
##uma
4001
faithfully
apprec
frequencies
##aire
mann
##add
marina
kings
cic
kraft
technicians
jenn
biomed
nondiscr
cing
licensors
secures
launder
tucson
horm
6189
encryp
bk
ceasing
wed
##elle
sms
##gon
audi
##encor
##laughlin
executory
newsprint
deliber
fes
##97
turkey
oci
##aus
##erer
cingular
inters
##52
stack
##arth
sherman
scalable
contend
repayable
springfield
shir
exploit
healthsouth
imag
infection
##izable
rex
structuring
richardson
##cers
rib
plea
##berry
ign
freeze
liver
radios
sbs
##ulating
seizure
##leton
decides
expedited
bailey
hond
rented
entrance
1964
ngls
hcc
crane
mclaughlin
macro
sevent
scrutiny
tends
medtronic
roles
##transfer
reconstruction
revert
classic
##fications
submissions
theater
incapable
nonaffiliates
boc
mge
##ornado
##wb
##057
winds
200204
nonp
##avour
reproduction
irving
seminars
eleventh
capitol
##ayed
ladies
mcv
dana
theme
hull
biopharmaceutical
sic
strengthened
##lake
nea
sps
refused
elder
##phan
decimal
absorption
telerate
synov
##heimer
fifteenth
draws
logos
legitimate
##803
merely
elli
forgiven
oils
contravention
astr
py
grandf
micron
intra
lapsed
inappropri
transporting
sportswear
sworn
##ugal
##ima
absolutely
meyer
construe
prostate
steering
##iders
stevens
consolidates
troy
configurations
##urally
bras
tractors
##47
allerg
laundering
rebuild
##intosh
engle
rigor
pent
compass
interpreting
purporting
##ettes
materialmen
averages
##educ
geophys
tb
##ao
tast
##angle
lb
constantly
diver
differentiate
steady
hope
netting
acp
justify
practic
incomplete
enjoyed
aar
##tors
desist
caj
ped
lenses
usury
sweet
palo
investigational
apportioned
##iracy
hole
##tinational
atomic
deductibility
hydraul
modems
gill
capt
wheeler
mom
##esa
troubled
bhca
haven
mattel
##lix
##osphere
10022
liquor
assists
terra
deepwater
answ
len
resultant
##d1
divisional
kinds
##ancial
##wen
##nick
burns
russian
kodak
##iere
##idental
idt
fnb
shortfalls
##omy
nancy
##lede
unsuitable
dosage
unilateral
dodge
##tenances
paperboard
circumvent
hypothecated
repeat
laclede
##iii
##arial
taj
intensely
smel
amsouth
nondeduc
##ih
reconciles
##baum
##urf
appurtenances
##electronics
bypass
##health
greenville
talent
informational
##yte
feel
specializes
coke
xm
##olph
animals
say
gir
commissioners
bliley
improves
lifestyle
navigation
laid
blow
unprof
multinational
ring
developmental
postpone
occasioned
whitney
neuter
##ahl
tent
karen
evansville
sudden
cleared
usf
gay
attribute
newark
baldw
bard
emerged
scrip
overpayment
receptor
cush
alcoholic
##isers
aon
warran
##etek
customization
nicholas
strive
navistar
remanded
attack
underperform
diameter
teller
masters
##ffe
aler
##reet
hsr
roads
##ithe
chest
24b
railroads
condensate
##dn
hinder
##vanta
presiding
occupants
yard
barclays
diem
uncured
reserving
hei
##antec
filling
elevator
dale
charl
unprofitable
owe
adobe
portability
felcor
deciding
indemnifiable
baldwin
dsp
algor
totalled
emerson
metering
analyzes
mirror
##oria
##0402
jonathan
hunter
affiliations
vernon
##43
orphan
hepati
markdowns
insulation
ballot
wpsc
unix
reconsideration
koch
recoupment
##year
occidental
saving
msa
wheat
assay
seating
bennett
nontransfer
extraction
##ani
2025
greenpoint
instructed
barbados
nopsi
rud
rare
##92
districts
wing
fountain
repriced
rm
##rene
covanta
strips
resistant
hepatitis
##paired
enumerated
foundries
renewing
exports
temperatures
originators
doj
correlation
valor
achieves
disallowance
packing
celera
seamless
ble
histories
##title
omits
ric
##axis
yar
mortgagors
unass
cdma
subsidies
##anti
##pra
a21
stree
pars
glax
inhibit
zenith
mainframe
##tronix
greens
crm
##scale
##nedy
reflective
##loss
preca
providence
inaction
tracks
nathan
oilfield
##agan
technologically
decade
push
##criptive
coronary
plough
##045
conseco
exhibition
chen
dart
ministry
wallace
signatories
wan
refuses
fiduciaries
##703
obstr
##raft
patentable
exposes
##isation
##wo
municipality
suggest
inconvenient
affinity
remarket
algorith
aster
patterson
simmons
medal
metlife
arnold
##uters
wilshire
arlington
syl
cmp
awi
seques
usable
00007
##voting
1100
vacate
ratepay
bars
unimpaired
##rc
##ante
##lining
accreditation
##oor
desc
ferry
assays
6060
kennedy
som
stainless
synovus
kru
##fk
##icate
nondeductible
nonvoting
##phere
reinfor
##274
##iverse
governor
victoria
commits
coordinating
declarations
biosystems
dynegy
wein
extensively
merging
##axy
nonre
tsys
lawn
dietary
vincent
breaching
punctual
##igas
lanc
zones
cream
tap
aegis
modifies
##urgical
caterp
irrig
hors
purports
citadel
lens
facilitating
vertically
opeb
quotient
##aya
static
caterpillar
addr
##rad
insurable
##stown
propriet
hov
putnam
excellence
garn
salon
expedient
suited
sixteen
occupant
disqualification
##eur
choosing
voy
elevators
criimi
prevents
encore
carryover
weaker
##0316
##gal
unpat
scherer
monter
##eners
gly
bidder
juice
exhausted
divul
burke
rigorous
bnp
tie
depressed
##tress
playboy
##odal
surcharges
ingram
adjudged
dismant
corrug
gpc
harmful
featuring
mba
heller
cascade
cart
microc
stro
##tide
amortizes
forecasting
compel
landing
##ele
oy
introduct
arith
postponed
mandate
remittances
introductory
species
dgc
lon
deposition
miso
nonreg
agc
##ocs
##mentary
pk
nonvested
boats
insulin
bbl
loads
##emia
kb
alum
dispositive
radnor
##overed
arithme
cajun
incumbency
panama
##rick
##graph
bacter
cameras
fusion
4000
servants
institutes
trop
pca
##wl
##ombin
ids
chl
tnmp
blocked
conferencing
ceramic
penny
hydrogen
dwell
21st
xviii
##kel
cros
niss
mcdon
exiting
joel
rack
scs
tires
aggregates
crest
renal
paramount
dearb
barges
clarification
joy
indefeas
controllers
foreclosures
dill
##avision
anad
seafood
tentative
lambert
subcontracts
##argo
##ersion
accessory
##oro
dearborn
12th
hosted
laurus
pref
annul
segregate
renegotiation
revaluation
bain
unisource
dilute
meadow
thousandth
vanc
procter
nonaffiliated
##iveness
decontamination
marking
descriptive
alphab
reimburses
cca
texaco
mobility
chemotherapy
dimensional
seats
merchandisers
##321
cdo
sumit
pxre
transmissions
helping
overseeing
itt
converts
sitting
##utia
##leen
streets
##ompleted
novation
transco
tren
designers
evolve
##idad
##puts
cti
receivers
##ezz
considerably
##289
epo
rug
wnc
##wartz
##lia
sumitomo
acknowledging
conce
##cience
fractions
viral
belle
congestion
##enda
davidson
workflow
mind
mso
xxxxxx8
bankatlantic
lights
implications
reservoirs
helicop
##bishi
mitsubishi
ems
molecules
pointe
discriminatory
fueled
chees
schwab
vat
##bson
unitary
reagents
##bid
alb
cadence
dover
ew
##naire
psychi
##oud
schwartz
standstill
perspective
##aves
scanning
##ateness
##vesting
broadcasters
interview
vars
solutia
optioned
wider
von
ercot
citizen
ron
alpine
tenure
ammonia
bought
meal
accountable
kem
singly
dispensing
flights
tl
practition
##xs
encompasses
##ulty
facilitates
netsc
bookkeeping
vas
##losed
advising
coincident
showboat
pag
drink
recreation
##park
residing
subpart
embezz
simplified
hmos
##lec
inquire
upscale
lauderdale
tcf
galaxy
branding
broken
arithmetic
##controll
alam
inappropriate
wrongdo
finger
injurious
bun
pivotal
characterization
prosecuting
clayton
surgeons
feld
staples
concentrates
gau
searches
compensating
questionnaire
##operating
clerical
stanford
compatibility
##bach
##zi
##asting
##iston
admissions
patch
unclaimed
##good
##loading
explicitly
dpuc
bic
carn
columns
##ori
milk
dth
spirits
monday
authorised
recommending
wires
##ittal
##opes
unstayed
distil
purpa
correctional
orbit
##base
vine
kan
##ogeneous
##kon
csi
fold
ugi
rac
##iti
fem
gree
##itted
colors
ahcc
pcb
edc
locks
prospectuses
sunoco
npv
tubes
##esson
##omag
caf
viruses
gte
guy
duc
repositioning
csx
##mas
##42
finland
##pps
override
veterinary
geophysical
gatx
##017
gmp
bankboston
earnout
uncompleted
tiv
inaccur
sithe
adr
barter
afl
mgp
##opic
undisclosed
glucose
bms
vog
particulars
##0000
detriment
##eon
disburse
discloses
gsm
##rooms
cgmp
plead
carpenter
smsc
##ulsion
sympt
solv
cartr
registering
##iral
bonded
financials
layers
##bar
##ishing
refurbishment
##utili
infinity
##jb
collects
payoffs
tbc
encumbering
dump
leas
nil
emea
edwin
wrongdoing
synchron
squibb
wynn
ich
abst
##practice
mamm
penetrate
furnishes
##302
easier
trenwick
kimber
beam
##dock
##iant
pcc
0001104
knox
perc
baseline
##ingo
lamar
concurrence
brien
medically
##hydr
grievance
fulton
charterer
##ectivity
transmitting
11th
unforeseeable
mountains
malpractice
dishonor
gecc
pumping
##rable
neon
hind
pmc
winning
fitzg
hk
interoper
##exv23
assortment
symantec
##uy
interconnected
benj
lob
irrigation
turf
biomedical
0001104659
contemplation
immunities
differently
sons
preserving
##agger
a3
docum
movies
kur
billable
pharmacia
bags
##js
##quin
hus
##stand
##tax
theatr
chel
kla
domicile
moment
entrants
deer
newmont
brigh
exited
cens
intermodal
phosphate
recalls
lenn
nonregulated
maps
cov
##bpu
refrigeration
hwh
disproportionate
cashier
ranked
workstations
##owitz
tradenames
deferring
##boards
##ui
environmentally
sprinkler
encryption
##lee
twe
sanction
shape
catalyst
cilcorp
##cle
pratt
##alach
ilecs
adds
bros
drinking
##tian
hatch
obligatory
attornment
fuller
molded
alcan
tolerance
embezzlement
berk
amerigas
benjamin
psa
##marks
substanti
licensure
weakening
irwin
0000912
ultras
##estin
leo
refrigerated
bns
njbpu
phen
alfred
7th
vist
overl
robust
implants
distinctive
hospitalization
lancaster
anda
marketability
bis
rowe
fairchild
recordings
njea
sentences
totalling
kronos
##yth
##uw
treasurers
##oh
multiplex
infringes
sha
unavailability
interruptible
outer
burdensome
poultry
reaction
adc
procured
##owski
addressee
growers
memoranda
shoes
##pore
academy
##sung
pride
phel
rapids
appalach
calculates
##jc
opti
ratify
retrans
##chan
collars
varian
##tha
rounding
##roy
envelop
arrive
nonoperating
awaiting
##yder
treble
precisely
sie
penins
tmi
illiquid
grading
pipes
mounted
theory
cant
lifec
phillip
##una
fluctuates
sessions
subc
artificial
unicom
capita
shorten
landscaping
##yls
kc
impac
##fac
kos
vod
tumors
fres
neighboring
aged
invalidating
leslie
##oplas
rationalization
biogen
sanitary
nurses
adhesives
cattle
##kal
##lm
accessed
retrieval
sweep
##tiles
ant
##ums
overruns
##119
handheld
attendant
nonbank
##0315
##ibration
duane
investigated
warb
ai
erosion
shre
recommends
humans
orbital
advoc
##oard
acme
timel
fat
kacc
##taining
compli
labeled
ounce
unanimously
##manship
cec
##bourne
rhe
##trix
##agra
demolition
recep
cinemas
lpg
valorem
infections
unpatented
sant
dura
rebuilding
bm
##fed
digits
##nas
##ubb
dissemin
##114
cron
##e10vk
##anson
##ibas
piggyback
##folk
exceptional
##sat
brasil
##ifax
violating
kenn
##sum
barn
legatees
ngc
enrol
drawdown
shear
##7469
fico
reload
died
barnett
reversals
occasions
harass
##uch
cmi
##amine
blended
accelerating
expensing
portugal
oversees
##ungs
highland
norfolk
##erville
depleted
##enet
servicem
storing
phh
documenting
systematic
sag
handset
abi
discharging
retrof
wv
supervised
induced
pieces
threats
lynn
##gf
sequence
inaccuracy
wheeling
optionees
##uter
gtl
aux
1954
samson
superstores
harrah
paribas
relay
cen
crisis
boiler
nug
westing
brent
prima
##certi
##gett
deputy
willow
usx
marvin
cooperating
sunny
ratepayers
advanta
researchers
subassemb
##gp
hayes
westinghouse
vacations
dba
continuations
##stex
ibnr
schl
supervising
lit
robo
consumables
obliged
avista
appropriateness
##ycle
african
pim
##aman
##world
snyder
meals
breakage
trace
##121
##adium
wynd
winston
sys
bould
##cho
charleston
laurel
meadows
think
##derm
placebo
destroy
msrs
torchmark
unjust
notifications
artists
samsung
avalon
##rates
btu
##esco
##estone
10017
chand
0001047469
abstr
##monary
kidney
keyspan
dust
warmer
pall
elm
bra
stent
transactional
##gard
powerful
annapolis
unexercisable
ames
cott
ddi
minimis
nonpublic
gps
##91
##page
##itably
##quer
durable
dealt
reallocated
quotas
transporter
smo
owes
waterford
curtailed
ons
##limit
##etech
trinity
ppuc
lav
xxxx
misuse
attribution
chargeable
mgm
fx
unnecess
timeframes
advertise
unaff
schm
theatrical
##olo
crops
sei
jeffer
layoff
imbalance
##ervices
deals
retailing
alphabetical
tuition
dunc
chesterfield
piece
morton
10019
bny
peg
fhlbank
layout
xxxxxx4
lnc
includable
architects
earthquakes
cmo
tell
twin
casting
correlative
hydraulic
shoe
##iliary
alcoa
proactive
##gone
heads
peregr
distributees
transformation
mti
edi
peso
tsi
desert
premise
banco
##luent
3m
ide
hq
spouses
namely
##feld
kau
isle
cafeter
bang
photograph
scana
##ulli
nuis
paine
sodium
corrugated
##ruing
tile
vicinity
witnesses
din
lans
peninsula
sustainable
warburg
##nie
peachtree
dropped
evolution
proving
peregrine
caa
flooring
dex2
inverse
prere
inflammatory
amortizable
goodyear
bookings
trash
emmis
##keye
economical
embodied
exempted
##ectron
editorial
pond
##occ
proration
peripherals
chancell
##jx
vint
hicks
polar
cir
resumed
rehab
xxxxxx7
lone
decatur
outbound
materialize
##zu
gilbert
proves
synthesis
albu
qtl
##cie
dsi
agreeable
##arma
genetics
summaries
##ouver
##bin
convened
chancellor
ultrasound
hispan
keybank
suffering
ek
##ijing
brit
encouraging
choices
surfaces
unaffected
##arko
gann
mans
graft
authoritative
grows
dramatic
boliv
athletic
biology
##fundable
taco
farming
##eding
rechar
##produc
##eters
gloss
##zation
viewing
shifted
nonrefundable
um
flavor
reallocation
vancouver
dalton
amerco
aero
k405
rockwell
nearby
rica
unred
##inas
nct
thick
theod
minister
premarket
nau
tonn
workover
devaluation
somer
##aper
lomb
snap
beijing
##izons
isolated
bedford
0000912057
##hart
upwards
excel
passing
directorship
purportedly
kend
assuring
ranks
traders
westwood
unac
muse
reliably
paragon
##gm
vang
##gene
exci
nolo
stp
mast
saud
suspense
lafayette
cypr
reel
apbo
counseling
expresses
andrews
##qc
conagra
boulder
dfs
divulge
incidence
fittings
pediatric
##entral
governs
phelps
8th
devon
wholesaler
ld
##street
distill
integrates
unremed
unremedied
heightened
solicitations
zap
greenhouse
upcoming
xix
novell
bge
occupying
inhibitors
mask
detailing
punch
alleghany
orthopedic
ust
krupp
1001
initials
delisted
biolog
bj
boom
bird
wald
isa
chairperson
cancers
unusually
thermadyne
vending
fds
deutsch
puget
##illet
##ogenic
travis
curing
garnishment
defers
##esterly
unsold
atms
scrub
bos
opc
##estock
cigarettes
duncan
##gian
tenders
mv
rubin
observable
grandfathered
inches
rx
ortho
blind
##thes
##dam
##ayer
13g
cup
selects
##therly
popularity
rough
castings
bottles
pps
1028
rescheduling
fires
cnb
psychiatric
defe
sublimit
correctness
flowers
mccorm
fernando
nonres
provisioning
##titive
radiology
##uff
brooklyn
simply
##apse
craw
java
carnival
terrestr
loe
gra
anadarko
ea
tivo
cinema
moist
sublicensees
theodore
##tran
##lary
twc
##ader
xxxxxx6
benchmarks
nuisance
countersigned
inefficiencies
apper
000002
##lonal
seprac
sepracor
##word
alj
holm
##efield
crc
##117
horizontal
consign
16th
infer
intranet
##lays
disapprove
tva
workman
frost
pwc
##first
##ared
unproved
brac
detach
marion
appurtenant
societe
d10k
inbound
##aires
carly
1966
ami
bron
##imil
##llc
ncb
horizons
willis
peace
sta
mueller
wyndham
##itsu
fork
unnecessary
interrupted
zur
topic
competencies
##titude
overcome
asi
##asterly
nonel
withdrawing
visible
kill
##enthal
##ytic
##chap
##endale
judg
workmanship
breaks
exemplary
indoor
morrison
avant
aided
vc
assimil
afs
hundreds
kne
org
forwarding
polyp
1200
barrier
##anne
pawn
mechanic
##ulates
discipline
windsor
harbors
cone
jerome
shreve
nur
##cence
##zak
reop
weighting
deferrable
needle
ventilation
insiders
jam
smar
##core
overst
lyons
absorbed
rita
##unte
monoc
##arin
hospice
brick
leaf
##bling
sulph
pollutant
wheels
reevalu
psb
triggers
supercedes
encod
jane
circumvented
usc
settings
uncerti
##asco
##apc
score
median
arena
olin
##airie
gun
forwarded
mps
##aro
##702
##iman
colony
baby
saudi
terrestrial
shifting
differed
buckeye
3b
##recy
hereinbefore
formulated
##city
simpson
volunte
hack
tissues
disks
demonstrates
amalgamation
physics
1965
secrecy
christmas
deere
trun
automate
reuters
mec
##etown
tablets
feedback
ambient
kaplan
entrust
harassment
ecu
antigen
##logic
kcp
anes
teamst
intensify
unaccept
distress
deltacom
relig
injured
explosion
methane
##iegel
correcting
ethylene
##qr
carlyle
downstream
particulate
writes
predictions
alloys
mercer
equalization
drainage
##lene
co2
capitalizing
inputs
knowledgeable
clock
mckesson
vanguard
poker
yale
pleased
diligent
exv31
unfavorably
powell
irish
scc
daim
superintend
rmb
gaining
##ici
doctors
spray
deleg
##yards
##tiously
reconf
##aint
##vable
ocwen
0000950134
kl
##ario
##soe
pole
commercialized
shreveport
##bone
##adia
3750
moves
##tention
reorganizations
allo
sanders
shap
##ypsum
deficits
##aling
transpar
responsiveness
psco
commercializing
leap
substation
populations
mcgraw
##icor
homogeneous
##balt
precautions
##116
dunn
mandates
##ionics
##mill
bnsf
nonelective
jc
vance
marvel
##amsat
hovnan
malf
triangle
hovnanian
interpretive
##utilized
laying
herb
cpc
panamsat
aspen
mcdonnell
biotech
##ersh
daimler
citrus
nmp
6th
corridor
qf
hallmark
compil
recorder
##ickson
aegco
proofs
amplifiers
revises
distinguished
gsk
pto
##atham
licence
losing
painting
agil
implicit
midway
##upo
eastman
nondiscriminatory
brings
lamin
correspondingly
ips
spartan
##xxxx
##iphen
dgcl
wines
boyd
enlargement
hick
iraq
##tera
workstation
signaling
sca
explanations
nissan
subassemblies
mtm
##ficated
appealable
tonnage
hous
##essors
alto
supervisors
extracts
rockford
hypothecate
ferro
##ipe
indemnifies
civic
##jack
horn
timberland
tus
maur
7000
pursues
##kson
announces
catheters
ameritech
trw
necessit
resigning
refine
preempted
boca
declares
##wi
spinal
pne
seneca
anytime
##123
b2
ssp
spok
emphasizing
fujitsu
##acer
insures
conway
##po
outlays
spills
##irk
##ex10
dsm
norton
tiers
seventeen
writedowns
maf
nq
schro
fract
##pher
peterson
osc
seag
duff
freeport
mined
contendere
cci
kimberly
kpco
logan
##ocor
venturers
nucle
rpm
cbi
monterey
##orily
earnest
##porters
territorial
capitation
##152
christian
##bre
anne
symptoms
che
nulli
zim
potash
gse
##usch
sunnyvale
berke
##ometers
glb
thank
rouge
disconn
learn
kell
coleman
extract
##etal
carson
##similar
manchester
gardner
##gins
barred
uncertificated
uninter
quadr
dissimilar
tca
strives
smooth
equis
nom
oreo
tues
mcfe
toyota
armed
immunity
usda
graded
booked
capac
vornado
coil
mails
##idel
irregularities
blend
##hound
assertions
somerset
unsolic
scanners
unsolicited
coo
paxson
cluster
mlb
gypsum
compuc
##hiba
##hoe
##onia
gsr
ern
clec
apsc
gh
rz
##106
walnut
##wire
continual
eis
hig
importation
microelectronics
complic
##lium
advancing
uti
bug
compiled
upstream
lowe
1960
try
cheese
bcc
##eree
##charged
discrimin
2026
medications
piping
stabilize
kaz
accorded
##space
mutuel
brigham
##achi
##clp
disadvantageous
tnp
mistake
semiannual
17th
linux
1939
neph
fiserv
##like
##0327
unacceptable
##ulp
solectron
ffc
##gt
uncollected
triton
configured
mediacom
answers
wpc
cme
mtbe
tuesday
mmp
medication
tall
##illa
##rose
gather
arbor
summons
colleges
beech
##apped
cps
##tholders
ted
implements
##enza
enz
spirit
##ylon
toshiba
##aux
berkeley
pilots
ero
dee
##tan
13th
##utility
##activ
technically
##zers
fastest
andrx
mcn
refriger
subchap
lsi
reilly
wellhead
##0401
9001
dissent
staffs
tlc
baa3
9th
nig
polychlor
succeeded
rick
vector
sabre
homestead
##lease
banner
adam
advertiser
##hem
##erted
1500
##cier
sense
pacificorp
pepsi
prepetition
milling
weiss
robin
##urface
10274
monoclonal
mts
mention
appertaining
nonutility
##athers
microprocessor
satisfactorily
escalations
justified
functioning
##hanna
dresser
corrosion
subchapter
##quidated
cyprus
bok
surrenders
gamma
donnelley
terrace
shipowner
unliquidated
chandler
pscw
greene
scalability
gtc
##qq
qa
acquiescence
publishes
##utors
##ergen
gci
bass
hansen
##omas
katz
ssb
preserved
raises
ange
##ocal
underwrite
##imming
convicted
downgraded
delisting
ensu
vsoe
##stead
ran
##max
punctually
woodlands
recombin
biphen
uninterrup
##waters
##jv
polychlorinated
greyhound
weap
johns
##mith
ogden
pasta
exchanging
combat
kellog
recoverables
clarke
agilent
carryback
korean
excepting
##esta
##inders
vel
vouch
sexual
snack
retal
dh
whar
wals
odys
##atology
dj
emit
conveyances
mip
preval
2b
indul
gol
ex31
turned
##db
deprive
##100
janitorial
brewery
##eva
verbal
alta
##mph
seals
polyeth
2027
voidable
dog
exactly
compuls
mathema
##uez
hurt
compelled
kathleen
holdback
balcor
refraining
vf
brake
disapproval
programmers
##ringer
wb
collateralization
subtracting
allergan
pike
greenbr
bates
verde
cyn
ambiguity
sigma
4043
racetrack
recombinant
restitution
kellogg
pneum
3com
##isel
##aj
beacon
suff
saleable
mog
motient
hl
sulf
stephens
wax
a06
##akers
##exchange
drinks
odyssey
spoil
##neider
champion
##sop
carryovers
subten
establishments
kelley
##elman
microprocessors
##querque
derec
hark
glossary
pulmonary
onyx
##mac
trin
##anufact
ian
kane
geo
watts
##ran
14th
imposts
quantified
osha
albuquerque
##berto
corest
hormone
a07
premature
vouchers
transports
fsc
##yw
consol
##oran
homeland
apl
une
##ajo
copying
##itance
##pd
ascent
denies
amf
exide
##112
simplify
updating
argentine
inadvertent
interact
wich
nielsen
efc
polyethylene
##took
malt
formations
catch
##eek
morning
workout
mailings
homeside
20020415
clust
coding
advent
##union
illumin
5324
cere
subsurface
conformance
##atherine
undertook
0330
promotes
membrane
mcleod
##ulted
mike
cip
##prime
predomin
truckload
##tcher
##echt
##ren
als
decep
controversies
pdf
octane
sunset
hoffman
mend
storms
interferon
worksh
dismissing
##trator
logs
plates
starts
##dles
jmb
appleton
avoiding
ppg
##etter
lie
midwestern
cooking
##astar
##mor
regen
male
##yd
apt
sublicensee
decorative
lv
zcs
disciplined
hertz
##ahan
so2
medallion
wfs
capco
predictive
northland
apa
pcbs
depositing
mccormick
tucker
nichols
##bler
teachers
##aly
##ppco
donaldson
ltv
boundaries
wagner
infrequently
opa
heinz
continent
regal
prolifer
##olk
answered
confined
veritas
drafting
##emark
##mentation
sdn
##cheduled
##uer
mapping
zcsia
itemized
doses
relinquishment
mms
allan
subrogated
algorithms
bankruptcies
nsr
reversion
lightw
##locking
piper
tankers
holes
blair
qui
staffed
honored
elliott
corestates
recovers
cobank
moder
becker
paw
apc
##burton
stimulate
attaching
programmable
5a
contacted
cabine
superintendent
##enberg
##written
wise
smoking
lithotr
##umph
0000950144
retrofit
##fil
##uson
##inski
won
cftc
chose
##107
nys
pef
terex
pledgors
sulphur
mh
##enne
grupo
deline
sep
expirations
gibson
amr
threatening
remeasurement
errone
aeros
ih
complications
rancho
##fh
##ennan
contemplate
cbm
sickness
downtime
lobby
vitro
devise
9000
strongly
mariner
suppress
##oz
##kn
##buster
closer
##itant
burger
rolls
arriving
ensuing
tsa
underfunded
experimental
bull
wab
##aver
advises
privati
jeopardize
##edics
suspending
6000
bd
pvc
monopol
##coast
unclear
pri
7733
##ometry
cdc
olympus
c1
##plc
ophthalmic
epc
collectability
baham
##zel
ernest
pledging
announce
wins
##jj
merges
underperforming
spoilage
bah
equitably
eviction
##path
margar
restating
##ardi
##mus
transamerica
acacia
mother
broch
dixie
contacting
numerically
trailing
##iva
nyseg
adults
smc
osteo
oneok
sequestrator
brass
wake
queens
##108
awarding
partition
deconsolid
rigid
telecopied
wichita
sureties
##004
weatherford
##148
endosc
prax
nabisco
ikon
syd
schneider
queen
25th
##501
landscape
photoc
reception
##ya
wex
rfc
boise
stopped
motorcy
redundancy
##utt
yourself
bip
##lings
talk
furnace
airplanes
mehc
exculp
tsc
converters
pulse
gardens
coincide
asa
connects
grouped
##ritis
nstar
##rac
##chip
drew
atmosphere
ligand
oli
plymouth
police
nicor
omni
spss
##xv
95113
susque
bifurc
deck
globe
ras
halli
ascertaining
rmr
ensures
##quisition
10a
procuring
##rep
tactical
farmland
##exv31w1
appalachian
fte
hod
ifc
##uni
cherry
gannett
unscheduled
##come
fischer
##bed
withd
mild
pork
##astic
alia
reconfig
##illian
##ups
dtv
compulsory
withdrew
halliburton
mcintosh
alumina
spark
resignations
ambulatory
prepares
nwh
excav
weakened
chestnut
dwelling
##ommer
aligned
hanson
brun
pens
##isle
twenti
##iba
helco
twentieth
tio
stern
nsc
daimlerchr
0004
stipulations
hispanic
jans
excused
concludes
##therap
differentials
##308
postponement
##hae
valen
##places
##trol
regent
consumable
coral
prudently
busch
##6404
refract
ilec
spectra
hewitt
##ometer
fleets
zc
johnston
olympic
daimlerchrysler
susquehanna
##umberland
eco
##115
##annon
quit
ncm
carbide
##ellsch
hcp
##atec
##icious
launches
rsu
remanufact
bin
##okee
##d2
prescriptions
109289
clearinghouse
drs
protects
prescribing
gould
cyan
remand
conspiracy
effectu
dispersed
regulus
##ockey
promising
evenly
##endants
##via
constrained
necessitated
##bus
impairing
iac
scanner
##emination
2500
builds
xp
weyer
recordkeeping
knew
cherokee
pair
weightings
anony
cele
mckin
svp
##ese
segregation
abated
weston
prairie
courty
hence
expro
##yy
##hes
riv
envelope
timeliness
mhc
##quet
pla
aip
pti
loaded
000001
ppo
neder
backbone
renegotiate
##stad
ceridian
degrad
benz
leuk
pfg
robertson
buses
mou
##ping
rcn
##ocr
##0703
porter
fellow
bhd
util
##rail
consulted
antibio
aber
naturally
brewer
1980s
##tainer
meyers
reforms
bcfe
biologics
21045
##vasive
schult
##803000
xxxxxx5
curtailments
expedite
fragrance
facie
bethle
acl
bethlehem
##atron
spes
1101
##rances
##ument
s1
devi
misrepresentations
reposit
##tides
suns
incompetent
blockbuster
7733803000
sempra
destinations
commissioned
camden
crunch
embr
##utz
##mins
demonstrably
aba
languages
##tp
toxicity
umc
9062
transformers
boundary
infant
greenfield
honda
##tici
ole
##nais
##inck
enjoining
unif
communicating
qualcomm
imminent
mathem
hutch
pix
29th
stagger
1300
footprint
enstar
conoco
league
hometown
fpsc
mcne
##station
28th
derecogn
##ourt
senate
deceptive
1123
##iners
benefiting
molds
schlumber
pdc
##ellschaft
slowed
bingo
recti
safeco
characteristic
0001056404
entails
sydney
nass
##dep
notably
discusses
streamlining
tarr
goodrich
##dl
percep
vand
payer
crawford
pink
trinidad
commingled
##005
##arian
reemploy
##ellan
randolph
pw
mds
##contin
argument
chemco
finders
detract
##eyer
minimizes
biphenyls
##liffe
locating
##mach
berger
##lees
##ologist
vander
metast
browser
##uco
boots
arden
abra
##borough
wool
jup
##flex
releasees
italia
##hegan
hungar
census
carg
northrop
influencing
chambers
microm
remarketed
pak
##minster
##financial
##np
fdc
offeror
inventor
tendering
brady
leasable
##roach
moss
##ynam
born
engel
corresponds
expeditiously
cai
boss
opp
zo
newton
##283
connectors
deploying
ston
accessing
bold
judged
locomo
warrantholder
thru
entrepr
compressors
ez
interactions
goldstein
dissemination
steakhouse
0001265
learned
foundations
##itrust
repatriated
transmitter
acn
wtu
dublin
##qua
##igen
consci
extrusion
encompassing
flextronics
nest
##nt
disrupted
leathers
##committ
ellen
coul
cran
bilateral
budgeting
##haeuser
buffet
##opath
msr
hhsc
airborne
alder
##ours
tractor
detention
subprime
mathematically
geoff
mcgee
nhpuc
##urgery
##qe
airnet
gambling
chapman
uniformly
diod
vertex
inheritance
curric
jaff
topical
liquef
weyerhaeuser
lymph
tandy
nurse
roan
petersburg
safekeeping
predominately
praxair
boilers
##ometric
willfully
phs
niger
##exv21
calenergy
fairfax
cranes
overad
mutilation
conveying
gts
##imatrix
1951
theories
perils
encroach
holmes
cliffs
##eemed
envir
sli
stockp
towing
bacs
organize
landmark
pearl
ica
##vax
provinces
recalculated
vapor
##aser
bottle
chord
redeliver
##ecare
subcommitt
##yson
19920703
carey
suffolk
gerard
23a
##ucci
avid
dough
possessed
doctr
##pancies
westfield
avi
lyonnais
perkins
infrared
remediating
lecs
##prec
legg
insub
routers
mate
dres
westar
lady
ivax
promoters
geneva
herman
##avi
##factory
prejudiced
auburn
schlumberger
headwaters
mohegan
purification
resides
pierre
forego
mileage
##flo
metered
ideal
nai
##fman
sarl
rosewood
ucb
ana
##orization
nederland
races
unredeemed
##oux
##kirk
harvesting
spac
brackets
##vil
##vity
sib
expropri
walsh
deregulated
overdrafts
bomb
netscape
dew
hopkins
dade
downey
10004
centrally
36th
deadlines
hexcel
intraven
icn
magellan
cch
fuji
##acion
##303
ppi
harmon
bpd
thomson
bgs
tunic
machining
portals
korn
njdep
##zzi
unrem
pms
##xr
pregn
reorganize
cited
bes
epis
##united
firstar
##walks
roanoke
grum
orientation
vitamin
polish
investigators
000003
npi
mclean
##gage
1400
borders
plr
##dq
differentiated
kor
qvc
combimatrix
germ
18th
interoperability
##eda
27th
cong
casing
webb
tennis
##itis
euroclear
hcfa
seca
scottsdale
compelling
k2
anr
amax
sysco
janus
reply
discontinuing
bradford
luf
reincorporated
##vances
reside
ascertainable
werner
##imes
navajo
armor
drag
overcoll
spv
cornell
##isch
##jk
##grim
subdivid
##exv31w2
##219
ulh
amoco
sanford
incoming
securitize
cbc
robb
##eds
dst
highways
##imens
##engine
eog
wamms
eden
avionics
supplementing
entreprene
bailee
elmore
superseding
crush
courtyard
##335
workmanlike
##dv
artery
blending
optimized
dixon
transponder
cun
bofa
debris
subscribing
egg
##ocean
downsizing
igc
##706
##elsat
bioc
lennar
dating
##yb
##xa
mony
ck
gates
bearings
consensual
##amark
livestock
pilgrim
abbrevi
##tsville
##mut
##ighter
slowing
steadily
lufkin
lifting
flem
polyc
aver
medimmune
reemployed
nbd
##adena
a05
citation
micr
##ck
interexchange
daw
##usable
transmittal
poles
importing
guides
relinquished
exert
cafeteria
sidewalks
uninterrupted
nordstrom
dess
##2000
bbls
calc
##gb
practitioners
retransmission
decentral
buys
ici
chal
##tracks
##331
sustaining
greenbrier
sang
unionized
##born
capstar
##ousal
honest
vulnerability
mckinn
##prs
##azz
pied
##days
slowly
enzyme
schul
hires
hitachi
staggered
coulter
mayer
tej
##acorp
majes
merchantability
wasted
melan
influences
appointments
protr
keycorp
noncumulative
##odon
ptf
flags
##isp
ub
sight
bmca
rouse
bankunited
coram
roadway
##spe
prioritiz
persistency
##cript
##ofi
compounding
bf
pasadena
injectable
##usions
covance
equip
ties
inhibitor
##anor
midas
donor
restates
forged
permian
intuit
instituting
venues
auxiliary
thread
minimums
casset
pecuni
##quist
accompanies
baton
3g
wars
unrecovered
whitehall
usb
##etitive
formulae
oig
alert
partnering
wendy
##aria
greensboro
barrett
nerc
abbreviations
radar
echo
alcatel
subtitle
displaying
wl
##avo
momentum
mcl
motel
##terol
1600
extracted
sends
massey
##vue
##eno
obligee
arbitron
bpc
rip
raton
##cal
000004
zd
##abit
erics
flagship
yarn
wink
grumman
celebr
dentists
tone
vant
plum
dend
bundle
rut
antennas
reaffirmation
reassessment
ges
noncompete
tradename
unsatisfied
gart
mansfield
ja
turns
templeton
favour
ziff
##ilings
mountaineer
##turn
charac
acous
matthews
eva
##feas
remediated
mbna
tomm
tektronix
earl
reinstate
isps
corridors
pga
optionholder
wacker
##kw
##ocus
wpl
sublicenses
ade
##eenth
acuity
horsepower
conceal
translate
cardholder
hes
deconsolidation
##crest
bish
inoper
inhal
schem
##0326
##continental
allegi
mpuc
costing
26th
alexand
characters
##abel
##grav
6050
optimizing
tsr
nascar
seaboard
ott
##orded
topics
reprod
revealed
##uv
##fully
auton
quinta
##esville
mone
nmhg
includible
##xp
isolation
fh
kids
appealing
4060
birds
worst
vid
##eteen
streaming
hostile
lifes
##atia
palmer
cmt
floods
##bee
diet
##kv
statewide
nineteen
##zing
warehousemen
unecon
##phin
epm
debited
subtenants
wick
kh
##getown
bahamas
disgor
##bred
fragrances
impound
##pton
collision
##330
forfeitable
bpu
rol
acknowledgments
##jq
churn
booth
abl
ukr
hell
rit
##390
rti
20041231
scand
mentor
stair
inergy
##fw
20030331
habit
##ooga
incorporator
exv32
nok
##128
salvador
sjg
spun
20051231
descendants
spousal
contributors
##attanooga
cove
brewing
c2
thirteenth
methanol
repatriate
dream
chattanooga
ibe
clarified
firrea
shortened
##istan
cumberland
lq
cultural
lateral
viking
tpg
smoke
##nstein
sna
servicemaster
moderately
substations
##fel
##odified
bdc
unasserted
milton
##ien
chargebacks
shrinkage
distraction
tenneco
1950
luck
hess
customize
##255
partitions
arco
##approved
comdisco
kon
deutschland
predicated
##haven
ppm
polo
overlap
ati
stric
styled
condominiums
replenishment
foresee
63017
dul
ppas
compositions
ibc
phc
tommy
##icana
lazard
kern
##oa
progression
forbes
npac
oakland
levine
19th
inex
conforms
##orah
classroom
ticker
##illette
aik
ceilings
itg
cape
##holding
antic
manipulation
amm
revpar
ecuador
km
sanofi
rna
##yr
##umes
majestic
metroc
indefeasible
disposes
haas
shelby
lsb
gram
morbid
##mobil
planet
##etti
educate
recapitalizations
gables
reid
weights
transocean
budg
imbalances
##ches
accompany
bernstein
consultancy
goldberg
gathered
stic
##abody
grape
rbocs
cumulatively
jennifer
##goods
commons
float
tip
proposition
hubs
exxonmobil
ewg
riggs
bent
idx
depress
prosecuted
ferrous
unbundling
youth
##addle
deviation
hammond
mere
pon
relax
jenkins
##prin
traveling
20061231
photographic
cabinets
pplus
1963
contaminant
intelsat
##sten
oppose
myron
nisource
##list
##215
ericsson
sylvan
trimble
deborah
##grass
ses
peabody
nonpro
sallie
teppco
recomp
mitigating
##plex
cort
##vak
resales
xxxxxx0
disbursing
monetiz
centered
budgetary
cag
refusing
ventilating
signer
2033
psych
sharply
messenger
##activeness
mccann
outlines
wilful
##044
mckinnon
##okes
##lanned
thirtieth
minimally
dickinson
calci
attractiveness
architectures
hoffmann
mlbfs
##kb
berlin
undischarged
cco
hid
##aba
msi
fica
flavors
tol
amster
validate
##oli
epic
contests
##kr
##icide
levi
suffers
arguments
veris
disaggreg
##issed
clifford
factories
mattress
analytics
hann
picher
##emer
surrendering
grande
preventive
furnaces
anesthes
baum
conveys
hickory
##uctive
relocating
tribes
##lynn
##filled
airbus
##lio
undism
shire
basketball
collagen
undismissed
committing
##tx
advers
bethes
kios
pbm
subcl
lawyers
##oxi
dangerous
monument
bethesda
mafco
##iden
##etto
unplanned
safeguards
invoicing
durham
neuros
lance
tony
workmen
runoff
0005
##houses
britain
mogul
biosciences
hv
blackrock
amph
##assy
metallurgical
stricter
amus
xxv
unsatisfactory
##ello
oakley
stemming
gillette
##dyne
geoffrey
unremitted
choc
complimentary
##uan
visteon
speedway
##006
macau
prototypes
melville
solvents
cac
##haps
quanta
hob
zurich
##illage
consummating
integrator
##eroy
##tige
clarity
arbitrate
permissive
##orado
##onet
georgetown
bair
perhaps
##pin
juniper
##upply
pie
excuse
xoma
safeway
transitioned
oasis
localized
##otion
winton
mcderm
greece
subclause
campuses
dimensions
chloride
moisture
##309
##uities
triarc
purity
convergence
cargill
burning
atrium
pops
upr
deviations
starb
matern
winn
breath
missing
stroke
reade
missile
##320
escalating
iec
fishing
catastroph
admitting
##hler
##center
##eart
10036
rl
redeeming
##appeal
##smith
counting
impractical
##arco
##ighted
msd
##oter
##working
harness
hiber
motorsports
prevalent
lodge
jj
worn
love
##wm
biloxi
nintend
audiences
##iance
preferredplus
##402
rodney
##tite
percenti
nintendo
dys
##129
carlson
ferg
##essional
congr
##ogenesis
margaret
evident
nontransferable
metabol
imprec
loud
centura
creditworthy
colder
##500
blake
finishes
nci
sort
ivan
giant
charts
##avia
20050331
guidant
scp
nue
prid
connor
##tie
##antied
westminster
residuals
##leaf
bondholder
distinction
##zhou
ventas
linking
akron
amalgam
enbridge
twa
ballots
kohl
reck
primus
assignability
divide
1958
2028
ipa
editing
catastrophes
##csa
exacer
maxx
orchard
hf
exacerb
carmax
##uz
##olar
soften
deletion
guarantied
butter
startup
toback
dosing
cdr
saul
slm
reborrowed
##ancer
selections
howell
##124
reproduced
tastes
lisa
externally
##oton
1274
strauss
statistically
handles
1115
##gra
arrear
unutilized
payne
acety
cogniz
##rog
##azen
rsp
stret
packer
##boats
featured
width
remeasured
##ffa
dictate
cytogen
##anted
##strateg
##ilders
shallow
fiberglass
##illips
baseball
intervene
specialize
60th
0331
leakage
williamson
##yme
hibernia
1114
##clair
##ureth
dominated
recorders
caller
collaborate
firewall
banque
janssen
emcore
nare
conveyor
amsterdam
strati
##onge
liner
laidlaw
proliferation
qfs
latex
1990s
24th
farr
kazak
##qi
wellington
optimum
inconvenience
isaac
egy
corrupt
ahcccsa
implantable
revalued
ssi
uncontroll
prestige
pom
interrupt
console
lfc
##case
ubi
ex32
mccarth
theaters
tunica
pill
0002
gfc
dispersion
dorado
battle
stef
mai
fung
##yt
endo
scw
atel
corners
woodward
gbc
nbp
xxi
propylene
checked
##imeter
jefferies
transce
##pta
##207
comsat
blm
intravenous
##xc
asth
tenet
##inoff
nigeria
fare
##urst
directional
enclosures
##ilt
polyester
77002
##ieties
##wares
cerv
##016
overheads
migrate
attends
assistants
sedi
angle
countersign
egypt
newman
##throp
##proved
gaylord
t1
hines
##hed
##tino
hep
23b
mccarthy
##lit
unimproved
dominican
##erver
belo
canton
reinforce
sfx
egress
englewood
oliver
##source
lengths
pitney
##pring
olp
convin
wci
energies
altering
cim
nonconform
inducements
##eeth
drafted
cronos
bla
erickson
9601
corps
wade
biomarin
coval
##acher
depositories
cylinders
nareit
pcr
##witz
##acor
atk
booking
desiring
graphical
srl
bowes
ahl
carc
lithium
rif
pecuniary
mcdermott
spine
##location
sask
uphol
graphite
lakeland
echelon
unrest
vr
ucdp
contemporary
stil
##ackaged
clinically
feedstocks
conoc
beat
##ebel
##acles
sandra
abbrev
kemper
morbidity
##fuel
conscious
chaparr
conventions
adhesive
##wd
##enburg
##203
coordinator
monica
coverings
strongest
epid
swimming
thrifts
aoci
fixes
annuitant
depths
##eg
##touch
meag
##253
vial
##cos
##gie
##mina
syrac
arthritis
syracuse
dedicate
##webber
indulgence
##etta
broc
cushion
recordable
speaking
upholst
chaparral
fasteners
##ietta
conocoph
beckman
father
##itrans
##velength
slots
##anco
latent
painewebber
##exv32w1
1031
asterisk
bedding
##andrew
tourism
##502
consigned
##ferencing
##banks
calcium
conocophillips
kp
rav
glad
subjecting
benson
22nd
journals
msv
clecs
20031231
arabia
intercept
tyler
peril
knit
noi
hollow
chug
nut
inspire
cock
departmental
csf
asking
##rodt
verifying
knoll
erroneous
##roid
focal
##nv
##319
gon
registrars
imper
nih
##asa
shoppers
lup
ceoc
tried
arrays
breed
aerosol
marqu
##328
0000950137
implementations
cns
dark
notebook
obligates
anonym
perimeter
pir
severed
##terra
carpe
bfi
jol
##thia
##onders
##rig
finalization
unsub
sts
typed
alza
disorder
unaware
##choice
shad
elderly
unilaterally
kendall
naval
##thus
posts
##ystic
##isphere
discussing
401k
generale
bishop
companion
kopp
joan
nem
accessibility
tiered
##channel
rci
1961
haft
##inf
loun
scottish
fores
tanker
0001pt
kilowatts
btg
##emy
##inckrodt
##ird
##houn
lia
mallinckrodt
shirts
20021231
##body
objecting
melbourne
##xl
scoring
0630
imi
durability
##arillo
bausch
##220
astrazen
coli
##277
marietta
##encer
##ahe
##sbury
explosives
##ondale
baytown
stevenson
robbins
##endi
treats
fleming
cognizant
burr
intercable
mop
##dg
archstone
anchorage
##marketable
tropical
##appealable
gan
lite
transitioning
celle
martha
wavelength
iber
sidney
asthma
astrazeneca
lying
stocking
fractionation
soda
##ounts
wrongfully
brink
decentralized
##ben
##emax
##direct
collusion
implic
cbl
##uay
integra
compucom
rmg
donna
mang
amaz
iris
hyperion
ivillage
##kh
##oi
withstand
chat
tea
practicing
oversupply
effluent
gyn
callaway
syndr
siding
jackp
cabinet
shing
interd
unloading
cadmus
liggett
deerfield
##arz
esrd
axis
lund
generations
intensity
sinclair
constructively
##uso
competence
orthodon
allegation
##atem
beau
analyzer
mk
facult
discs
##tgage
complicated
##xis
mortgagees
rockville
validated
##keting
illinova
##136
joa
salesperson
deteriorating
exv10w
electromag
emphasized
##ulum
strand
piedmont
enjoined
trc
insec
soybean
hts
90th
##ipps
greenwood
kaufman
##rid
##991
retaliation
ard
allevi
##run
pathways
##idt
disputing
##patr
steril
swedish
ug
wf
abate
acet
aerial
sanmina
freeman
brush
100th
downgrades
fenner
##estation
kkr
pem
pines
##je
corne
wilder
reex
##itex
enrollees
defended
whitman
##asm
lid
benton
rush
##twork
nel
vivo
##ilion
spinoff
oath
bourn
##weight
##rams
anita
anticipating
removes
successively
##iscan
denotes
subleasing
##patrick
compromised
degradation
##sg
##1c
doctrine
##ront
domino
offense
belt
qrs
##lite
equifax
unmodified
##tiva
promp
brock
##146
amusement
gile
contrad
##wx
biochem
fbr
##etic
stationary
cummins
weapons
mediator
opto
lcd
doyle
apportionment
cuts
rca
tribune
expropriation
monarch
##qm
angelo
gst
##leys
appropriations
plugging
composites
doubled
congoleum
facultative
fpa
##nic
cyb
##unee
constitutional
helicopter
sonoma
bryant
paradise
grass
merisel
unid
vegetable
scores
advancements
pleasant
gilead
##oting
7701
tok
survives
burton
precip
compressed
glaxo
illustrated
gy
embassy
##bra
instal
daugh
##alta
unin
depreciate
##2004
0000950152
##003
herm
concluding
usi
culver
fayette
rend
spher
guatem
polyureth
disproportionately
1962
restoring
refractory
gsi
rear
impar
##umbo
southland
rieg
wis
4041
disturbances
lnr
deliberate
subcommittee
intake
rotary
surgeon
garb
pronouns
encounters
brotherhood
cylinder
cans
dissatis
ather
brig
westchester
knoxville
ie
oneida
animation
cardiology
garrett
cmgi
##ppa
igt
fors
dex311
68131
agi
lean
westin
paradigm
dave
5500
##ovan
retentions
rings
##igy
inserts
markdown
neck
##ische
gauge
##242
interiors
garcia
unisys
yielded
endeavors
congressional
notarial
cynthia
privatization
##glo
prison
jupiter
reckless
repository
##j7
##lop
##issible
sabine
dissenting
hcv
ferguson
looks
slovak
timeframe
23rd
endorser
getty
locked
pdv
rosenberg
homeq
thickness
racetracks
premiere
gw
hfc
sage
sla
housewares
##141
unilever
alexandria
pinc
marl
avaya
neighborhoods
preparations
peo
medicines
objectivity
##nl
##stor
nomura
##right
##jp
##verted
##cross
##cripts
##205
silverman
##imo
bluff
##sville
hygi
bps
jas
schwe
##waunee
duplicative
ex23
kewaunee
mch
myr
biograph
larson
projecting
legislatures
reagent
coordinates
0930
hanna
vibration
capitated
chargeback
magne
mtg
griffith
broadened
##udes
viewers
receptors
hundredths
undergone
correspondents
litton
percentile
defamation
##iler
pumped
muzak
preliminarily
teradyne
nonacc
apex
roc
hollinger
subpoenas
incorrectly
liquefied
##ilink
isis
genome
curtain
chad
objected
tortious
pestic
schn
kirin
diane
northstar
explosive
atsi
tiff
substrates
hort
unocal
##oods
dumping
connector
lign
yards
nacco
##wind
calhoun
preferable
famous
suggests
##enheimer
interconnections
ltc
carver
##azer
alderwoods
##kt
renews
##belt
probably
reengine
##anets
brochures
endang
##overable
retainage
infringements
nms
rez
comfortable
braun
janet
jt
##oon
brine
unduly
spinning
alignment
reauth
##cester
root
ye
smi
##tilities
redetermin
cvs
##008
sham
##ulo
disciplines
eott
calvin
rfp
osteopor
##sky
##nm
confirmations
dcp
maternity
riegle
distant
ccs
kroll
##partners
gsc
maxt
faculty
e10vk
randy
lapses
judgements
peoplesoft
urea
denny
##asset
interventional
sri
augusta
##0630
##ault
stephan
middles
curriculum
##tment
tug
hyatt
infrastructures
admiral
malfunction
devry
emo
bye
hostilities
multicurrency
##osmith
tate
tang
ccb
raz
nonprofit
diag
crafts
##kinson
regain
mains
outback
ihs
psnc
translations
lauren
plantation
##209
ftd
kas
towne
blockage
omnicare
ww
osb
ald
swe
woven
overla
revising
hough
nsi
conex
recomple
##339
avan
laz
harken
keeps
voyage
cdi
villa
wti
##pert
rescinds
##ois
ingress
##umble
beld
geologic
apria
nyp
silic
factored
pets
reactions
empty
markup
saint
celtics
3517
nassau
lcr
##ulu
assent
supercon
icp
##408
sos
loom
elevated
##w3
sheff
##317
surveyor
allogr
veterans
allegiance
##rt
gastr
tig
refinement
vault
prg
appropriation
thoroughbred
lubricants
glaxosmith
##jz
pads
hoc
keen
##insky
preceded
jeans
dex312
correlated
kazakh
markwest
##roads
eop
tunnel
excimer
standardization
carlos
bourne
##erick
##exv99
##ishable
##kq
glaxosmithkline
concentrating
appendices
##ament
000100
markers
textiles
trak
indetermin
segmented
scha
inspecting
whomsoever
wired
1959
##ika
trident
joyce
cair
issc
tradable
##andrews
illuminating
differentiation
penney
secondarily
pathology
bare
augmented
transponders
suez
depar
cert
pope
beard
##omedia
sally
vail
##watch
bnplc
ntn
smelter
vaugh
wak
hawth
##erci
##uxe
dte
nhl
ride
retroced
sheffield
huff
aquila
loews
pod
song
capping
anix
inflammation
##amar
rodino
accre
commodore
anixter
nasa
lifted
lect
confident
ceph
devisees
wednes
##hv
4500
qtr
boli
berman
##ipsy
cass
##eq
node
occasional
##mers
##vex
hirsch
brocade
##leclick
jama
era
sister
amic
tops
spencer
fundamentals
rof
broadcasts
petrochemicals
##iera
richards
b1
neo
tat
##electronic
##gesellschaft
additive
##rette
finalize
electromagnetic
ghz
pregnancy
attracted
##992
buyback
webmd
insertion
conrail
unrecorded
##stantial
riders
mcmoran
1700
examiners
safely
bridges
federation
alienate
##omax
pucn
prideco
maxtor
panda
lime
facilitated
tractebel
artist
derecognition
##match
nokia
hungarian
##uman
##0930
holog
##ulse
stamped
##lich
iss
southtrust
##zone
played
lignite
credential
affirmatively
##hing
doubleclick
chevy
##certained
cellegy
disapp
depreci
##urgard
##abe
introduces
avery
shurgard
1800
cumul
wesco
defeased
habits
ceramics
0000950123
##240
enjoys
gle
##999
##ju
saturn
hale
bergen
##feasance
payless
regeneration
subgroup
weber
juli
howsoever
perceptions
overcollateral
dole
spi
examiner
trauma
##payments
overstated
bci
laptop
autoimmune
aflac
osteoporosis
xo
refiners
synergy
floyd
fueling
etch
refractive
shareowner
undet
disgorgement
jost
capacitors
##emic
malign
airplane
prudence
disqualifying
wer
impairs
##dx
transgen
chlorine
practiced
reaffirms
##omal
fcb
wellsford
friends
##court
marketplaces
cautions
francs
middlesex
mats
crowe
verisign
cartridge
deluxe
hrp
questionable
interpublic
aepsc
universe
goes
siegel
bottler
carlton
retrocessionaire
##oplasty
streamlined
##jw
nmc
reversing
hsn
drydock
outr
walt
woodland
tupper
##esignated
overlapping
prepackaged
judith
decker
dahl
overland
prism
##ilin
cashflow
emotional
kro
rsi
ual
##pu
sealing
##120
vans
##asia
recur
trees
female
closes
shipyard
authorship
acm
uneth
##kc
chc
##function
dic
wors
versati
##quisite
alz
6a
accessions
attractions
opportunistic
plurality
teled
diverted
tru
coils
##661
cantor
bauer
unethical
videos
intermedia
leaseholds
evolved
##opening
spokane
##jh
holdover
##itu
unapproved
regis
presses
bolivia
ahp
##maker
bays
whitt
preopening
reluct
macd
progresses
orthopa
foreseen
harvested
##sys
##ucks
decode
##ogram
subdivide
hcs
2200
discontinues
smok
ffca
transist
ui
##dell
prene
subaccounts
lithia
asic
##uded
maple
coinmach
wd
soils
interviews
sql
zapata
genders
##ieu
contra
performances
emery
chey
macandrews
imply
taste
condemned
##iam
programmer
cgm
bellevue
forge
##axel
harrisburg
mips
restraint
gibral
maui
nis
elite
smithkline
incapac
##ustive
##uarant
voic
wesley
##iano
gradual
paclit
nii
solve
shuttle
blum
##aher
paclitaxel
gour
hanging
ascertained
nobel
lawson
pleading
necessitate
##itized
capsules
remington
showroom
##building
exhaustive
biz
hillsb
##banco
##idges
hmc
reissu
reusable
fares
telev
nsa
wellness
reaffirmed
##north
bartlett
realign
polyprop
lunch
elizabethtown
regime
coat
invitation
8000
greenberg
alv
propriety
svb
lithotripsy
choicepoint
briefs
maxwell
grains
westerly
galvan
##omical
tracts
lightwe
tt
wednesday
wang
specificity
handbook
bacteria
quinn
##ippon
slide
kam
measurable
sewage
subtracted
overcollateralization
mud
thurs
vivendi
##ht
inner
4980
##olesterol
subsidized
##4s
##fts
portr
usepa
warrior
sequa
ajca
polypropylene
##tivities
rai
dti
##fare
honol
cervical
##875
##ulk
##122
culmin
bloomberg
##hut
luis
##ono
inflow
cheryl
##amax
reactors
##opro
engrav
cutler
bingham
synops
insubstantial
aesc
bankamerica
promptness
judicially
fb
ubiqu
##itization
reassessed
gbhc
captured
temple
##oni
##eralds
ciba
1ex31
##range
##asse
##505
enzym
cheyenne
uss
volumetric
durations
beffa
worthington
reacquisition
watches
systemic
sequentially
##strategy
conserve
exhibited
fob
hhs
cyto
jensen
##total
##beck
derog
gibraltar
precedes
blount
schemes
password
petrol
net2
debits
jostens
mcken
curves
conexant
moran
3c
winery
lud
levitt
lehigh
cous
##tag
seb
dismantlement
anesthesia
anat
nonstandard
baa2
volunteers
gec
basins
donnelly
ibew
nf
reapp
immuno
tant
tracked
chs
stipulate
##burger
mixture
##omar
socal
trustco
arbitrage
modeled
programmed
microstrategy
isdn
coinciding
##ueb
malone
cabling
consume
##602
##4x
wh4
enthus
jets
headend
garments
affidavits
##troleum
circus
intervening
repossess
##eo
prints
000088
complexities
##anz
##lerosis
translating
##kl
19801
chairs
##5r
##bernstein
karl
characterize
prevails
hersh
##witch
wesbanco
departures
##plate
juno
substrate
favored
fitzgeralds
lifesciences
cfs
cobalt
payday
oxides
02110
rcc
##tsch
minors
poses
concur
tosco
fhc
alliancebernstein
000006
bankcard
lineal
launching
inoperative
##fq
flying
##points
lightweight
##span
##tix
cha
##225
sequences
##amins
bakeries
guatemala
acids
aaron
tib
diagnosed
##vy
chelsea
##ywine
luci
lts
##eets
promus
retrospectively
encaps
brandywine
amerisource
simulcast
undetected
crested
c3
keller
##omega
cpr
peoria
ambulance
lojack
conditionally
embody
reformed
casey
##504
arbitral
mcin
bedroom
nba
panc
illustration
##sels
outp
collocation
nonresidential
eman
rpp
honolulu
rast
##locity
syndrome
##eex
turfitt
airworth
##545
manning
000005
construing
epco
stimulation
##ecton
cow
sandwich
lamps
cyapc
renovated
##picher
##asso
finco
secretarial
saxon
harley
eaglepicher
tmc
##206
##248
helix
singer
ale
##enex
reauthorization
iurc
tide
condemning
decades
nasal
aec
ahc
highlands
##heading
poc
##ogex
spacing
seagate
pyram
##exv23w1
##yan
##icker
mismatch
kindred
##veen
##224
admits
barber
diversifying
opted
enogex
unsett
dawson
arranges
templ
tolerated
rome
carramerica
protracted
##2m
liquidations
interferes
ay
##och
20040330
propulsion
intermediates
millipore
covent
bands
##nq
rox
qsb
##onson
lessen
meditrust
rtos
loew
tron
syntroleum
thursday
##fd
metrology
ibj
##omi
##ube
sioux
transtex
muscle
kelso
modestly
discrepancies
##horn
americredit
##oty
##atal
zh
magnet
transformer
##utter
##okine
stopping
intersection
alfa
rtc
nitr
eyewear
cheniere
cio
##bot
##aden
##ameda
##607
sail
stere
centur
##hack
adt
##288
nullifies
crews
redeploy
##idio
mathematical
alameda
organizing
dri
slate
psp
beneath
indexes
multiplier
snf
bits
bfc
humb
sharon
painted
jazz
cores
agri
converter
cholesterol
boys
sanitation
tiffany
elabor
tonnes
##imer
shenz
pei
interfering
tcs
##ytes
survivorship
idacorp
antagon
preneed
investigator
##311
contraction
glendale
##emini
##oldt
residue
eve
##estinal
stefan
salmon
junc
##uto
venetian
bidders
discriminate
endpoint
chubb
subsisting
endangered
bcb
impressions
collateralizing
syring
laura
##orough
##reit
visiting
200403
panavision
rosenthal
companys
photography
nontransferability
tions
zam
vitamins
lumin
tpc
rea
entrances
delegates
kazakhstan
sybase
midnight
metrocall
deconsolidated
headed
unfilled
dialog
arrival
cdt
assurant
reckson
##erves
scandin
whx
biologic
proprietorship
coors
embargo
crack
catalytic
carton
##igley
regener
mcgl
sgi
000007
bowater
##atics
rust
mahon
shapes
antigens
tfc
preston
notic
imprin
trillion
hardgoods
shenzhen
immigr
helicopters
mateo
4050
intensified
##747
bsc
vish
plex
clc
##twell
macrom
understandable
teva
indemnitors
lent
ribb
neen
##alty
2700
passbook
##emetry
sensitivities
dolan
debar
cubist
##atsu
##train
silica
refurbish
##asonic
chocol
##149
cbt
jamaica
##997
trap
20070330
magna
worksite
untenant
trustmark
genta
catherine
broadening
##394
toxicology
1201
veba
prediction
loseke
tacoma
##345
besse
gateways
gourmet
observation
##hardt
alleviate
overadvance
knee
peptide
noven
triz
wetlands
2d
xen
##emi
hastings
ambass
ticketmaster
ais
minimized
jb
synopsys
zion
##jg
jude
alerting
rheum
##avir
everything
##copy
##emar
##043
becton
mmi
##uli
tailor
10005
hospira
exported
##118
##mil
vencor
digest
##olith
##hd
##wt
warwick
jumbo
yorkshire
dependable
##305
younger
rayon
stadium
gsaa
cartridges
##oglo
crom
gregg
carcin
safeguarding
hopp
vip
feels
norwe
##peg
pione
##ilder
vandal
oppenheimer
hier
##hurst
##bilt
abstain
##izers
transderm
televisions
alzheimer
unsettled
alkal
limestone
fdia
norwegian
lester
fram
##asmuch
ya
inasmuch
herself
dca
roller
net2phone
predicting
ffel
crus
sutton
radian
jar
gartner
fmb
s3
distances
bakers
mro
taub
artes
##040
rollins
shutdowns
hogan
sherwood
airtime
pincus
mf
##etz
zions
rollovers
entrepreneur
##kp
abel
randomized
allin
##management
hook
##berman
frances
##aka
##503
1ex10
alls
##403
##ecraft
##edo
mrv
unreported
macdonald
##uces
foley
##phones
bancgroup
frontiervision
##wing
weaver
carrington
##alde
##opia
##ercare
eldorado
##fton
arby
dg
flan
catv
mannatech
##bls
##fz
defiance
stationery
hotline
s2
mfc
dex321
pnmr
transplantation
##tox
stretch
hpl
particle
spite
succeeds
ano
##aca
undesignated
repurchasing
got
tfs
milan
jackpot
insitu
tablet
##2006
optio
walden
##usen
payco
subsystem
highwoods
newest
scientist
pamela
tce
rebal
##ithness
caithness
vegetables
##aheim
mouth
plays
##342
neenah
eei
coventry
outbre
stilwell
##olt
palms
jwh
overturn
lis
ares
2031
##eshore
judy
##efast
##ycin
insurances
##casting
bog
##leman
gulfstream
vineyards
spor
jenrette
easterly
10d
chordiant
vt
##asion
##127
melvin
religion
##cb
sepco
mmds
##605
nationsbanc
instantaneous
anaheim
aramark
##343
nes
unmarketable
logging
epi
wgl
cedefast
tully
##nx
finn
peers
regionally
1957
polaroid
vpc
grav
antil
alberto
##ordinated
everyday
musical
guided
litigated
synthes
radioshack
ptc
geopol
aai
rowan
##emis
leaks
irb
dtn
##pac
mort
tmcc
##ortgage
##andez
rollout
soup
sixteenth
rotation
commutation
##efront
opposing
whis
subsea
abo
munich
##urious
repaying
##245
##ecomm
restart
kirby
pigments
jacobson
wolver
ump
lakeshore
schroder
mah
##324
claib
telco
daniels
freestone
puts
telefax
csg
impartial
transtexas
##antis
westbrook
##ometrics
rockland
humboldt
bion
onset
##ixa
simulations
shafts
wellpoint
clearwater
photographs
jps
stars
presump
nail
prejudicial
ments
ingers
snacks
keane
ht
mosa
bioscience
timetable
dwy
weis
donovan
pesos
##member
canned
speaker
dvl
##atidis
##126
consultations
authenticity
pull
geopolitical
marin
nonin
sans
vestar
##free
particles
reef
masco
spal
levin
dwight
##rb
olson
vl
presidio
deaths
graf
cruises
pbg
champions
tellabs
damp
##enna
nonrene
tejas
manpower
polk
siebel
cly
solomon
##asure
speculation
prorations
ingersoll
vacating
insertions
seeds
amazon
claiborne
leban
centric
hearst
energen
cymer
catsim
##qb
cobb
##qv
evp
nucor
##540
##fv
##ilia
fairbanks
transitions
mineralization
winchester
catsimatidis
dens
managements
trem
geography
ves
frankfur
##addin
fitzgerald
opens
chill
unad
rehabilit
posed
##hyde
hillman
belmont
##606
drey
cng
lebanon
##home
##arms
onsite
dime
raf
outline
hola
##ningham
varieties
insituform
lobb
tg
networked
saks
candy
multil
bleach
andrea
##zm
zimmer
oneta
addison
commiss
unitil
proprietor
##ango
acry
collaborator
##km
##iza
separates
dwyer
nerv
viad
muc
basement
ukraine
diamonds
symbols
disruptive
trips
dispens
aac
seas
paving
lucas
jason
repossessions
##inex
incapacitated
vishay
0003
redelivery
##ras
##lera
conveni
##enco
dex231
planners
2032
portray
0006
flus
sequencing
##ligen
kramer
briefly
collectibles
##ogens
mbps
borden
shawmut
recharge
gli
##titious
lord
netz
##rest
cunningham
form10k
##isks
##amor
realizes
omi
offsite
acetylene
reston
##loyalty
broadest
tmr
genomic
motels
##641
distilled
abm
outright
wip
happen
borg
electros
swan
##ibor
floorplan
diff
antilles
stb
explosions
2030
hierarch
##lift
cta
houghton
19961231
acrylic
baseload
nervous
rj
##anka
boost
bech
perkin
friction
epact
laurence
marm
4224
paints
##amco
unsubordinated
hood
ebay
teaching
nabi
mouse
viz
##igene
erected
laminated
nippon
##ulators
cerner
reput
baking
marital
codification
logis
wharton
iq
sheld
pleadings
##wn
briggs
vintage
poin
aladdin
usec
roseville
siting
harper
##0325
dillon
pervasive
phosphates
##odesk
##efined
mgi
##check
evan
talented
wpd
claridge
sungard
genetically
kra
categor
rhino
ein
sdi
##ysts
harbour
videoc
lifecycle
excite
autodesk
vandalism
asics
##aki
4980b
1401
kist
##edes
##709
cary
classifying
fletcher
functionally
flynn
jd
##bancorp
##essa
19981231
binder
norcross
##mos
##entia
kol
##ski
##fast
tramm
uniquely
simulated
dma
blast
nordic
19971231
riviera
melanoma
chico
socalgas
inflated
##679
defease
##fern
engelhard
##lane
reactive
drp
##arex
installs
stamps
##onda
farley
negligible
rugged
lasting
tactics
##otherapeu
higgins
##ecard
notations
inadvertently
boll
removable
##fred
19991231
2100
preretirement
##awe
studied
tempe
sirius
airworthiness
coc
##cope
nonfinancial
##307
##236
pearson
##undo
crlp
progen
trains
##344
abstracts
bluegreen
mosc
##anche
separable
##ql
safes
influenza
##644
dai
jor
joliet
rag
10q
diabetic
reincorporation
grat
2300
barclay
electrodes
crs
pfs
corillian
achievable
##jt
isg
bres
fresno
olig
urug
applera
guam
##say
franciscan
pss
affirmation
chugach
##ilver
##uble
bridgeport
carmel
mastr
##bird
##dar
thromb
60601
catering
tba
##alone
##acell
promulgate
##beacon
##qz
carolyn
affords
remodeled
wakefield
lies
telewest
onebeacon
iomega
qib
arv
fictitious
##cii
##uca
corona
##omputer
formulate
terti
##ynamics
reissuance
##icitation
inconsistencies
roughly
witnessed
##226
subcontracted
urged
##acs
0012
distributorship
bouti
ocs
2007022
wolverine
cull
boomtown
bg
14d
##708
disparate
miff
disregarding
pigment
copyrighted
60606
covalence
pvr
ung
ariba
shapiro
sterile
christine
discrepancy
carve
reproduce
statia
##umont
reengineering
##vaco
southerly
oyster
##quarie
tdma
untenantable
##trial
##ople
##ahy
donnell
mifflin
infected
##327
dinner
pcp
urs
##atche
nonsol
vogtle
sox
nuevo
vms
haley
canceling
macquarie
##0314
bba
nonappealable
sheraton
clusters
mii
pog
flower
physi
andover
lawyer
cultiv
spalding
##unition
ness
wyatt
nees
voc
denominators
##ectal
kva
cannon
indictment
malicious
remotely
smp
noticed
zimm
tracy
78m
saskatche
##iery
saskatchewan
kre
avoc
northerly
alienated
hrs
zy
hutton
rps
removals
xxii
fortis
obligating
mainline
appropriated
##graduate
utg
##erich
awardee
watkins
##uque
prejudgment
cabin
##cox
000000000
compilation
##fish
subcontracting
folding
##b9
grantees
stakeholders
##ideo
scotsman
ticketing
highligh
drying
mcp
teamsters
kci
westmor
##aldehyde
##609
##rp
shale
##056
dubuque
wans
viragen
visc
westport
scripps
##fu
resumption
##pres
annexes
rfs
##weed
stafford
6901
##tegr
observations
leaching
xml
##aga
##705
##thetics
##erti
jameson
eci
quarry
containerboard
celgene
pyramid
unip
behringer
initiates
runner
##eria
##idan
belgian
vsi
marie
westmoreland
bam
fourteenth
##exv32w2
junction
alg
adea
atwood
stents
ops
univision
nontax
vias
##phase
##access
bullet
thl
shen
wms
##idex
motorcycle
nonsolicitation
felt
crowley
ventura
dobson
rally
ast
avis
helpful
addenda
broom
emergencies
reassignment
tags
20001231
importantly
camb
miscal
transacting
threaten
nonconforming
juven
wcg
##tson
smithfield
softness
uci
winthrop
##elling
ddr
##die
amplifier
dye
chf
defra
airbag
embodying
##thr
carne
miscalcul
dsc
lti
intermet
tps
##otel
neuro
bld
##week
accomplishment
chocolate
complements
##onau
adapted
eggs
baa1
ipp
##usive
##329
katy
##trad
subclass
abstract
##bay
orthopaedic
turning
grievances
transdermal
uruguay
2029
stratton
payees
distressed
undisbursed
tms
alberts
rohm
reissue
equipping
##ogle
homebuilders
healing
vigorous
motivated
##liness
mca
##763
hockey
ex99
teledyne
tyson
transd
hag
pab
interpol
abbreviated
##emaker
##ighting
mcneil
trammell
##wald
##lone
##alog
##lipse
artwork
newmil
florence
pavilion
advocate
acnielsen
hw
##258
carbo
lotus
##esity
threatens
1c
##atar
0011
endeavour
bacterial
piracy
owen
adversary
lcs
centocor
napa
##qx
computes
agl
hey
crda
curable
survived
cmg
##243
ugc
##urities
hap
##lik
swanson
photocop
wcc
##essing
##509
telcom
cdwr
deeper
carlisle
##hony
llcs
gigabit
encoding
sensing
silgan
chromat
unidenti
risc
##ifier
gloves
movable
##qp
kmc
##orks
schae
##castle
gynec
##kom
elapse
guilford
##istown
brack
reselling
deployments
##4i
garr
cashing
ammunition
cmb
obesity
##508
##375
horton
##enos
comstock
misd
nuveen
feldman
hns
tertiary
shearson
ldc
##rite
redistrib
simi
stops
undisp
shortening
wadd
farmington
aesthetic
dia
pico
sock
driveways
registers
argo
ethyl
##enstein
offeree
clifton
faulty
taubman
20011231
cancels
planters
ablation
caliber
hain
##lized
polyurethane
js
rum
dias
collectors
prest
honesty
symphony
bargained
separations
shoreline
embodies
football
4911
##dwell
igf
##isub
casualties
fow
servicios
ralston
hath
clair
ils
##647
lacks
##accar
mixing
##655
menlo
ling
fei
beaumont
stc
whist
##anks
polr
interconnects
homestake
##zc
offline
orr
##ogas
viet
backing
chron
harlan
sonoco
spacecraft
mfs
defray
##jd
broadens
sow
brennan
65th
familiarity
incompetence
nonaccruing
rockport
indefeasibly
gemini
allscripts
gail
arbitrations
burg
ltl
trex
mpf
jag
scar
##042
nso
tcw
teamstaff
##kf
##007
aci
boardwalk
##auge
demonstrations
##0324
allotted
sper
##yphon
0010
bloomfield
dysfunction
forestry
nvr
##oning
##onate
##owoc
##ulte
lastly
oshk
lmc
duck
##jn
##tured
##usco
artra
risen
##222
zimmerman
gerber
shamrock
blocking
univ
transmitters
peerless
fitzpatrick
thought
shaft
telecorp
mim
usp
lun
undisputed
nike
signet
responds
illnesses
eisen
invited
##506
ottawa
spinn
20030328
elmer
caremark
deteriorated
lighter
wakefern
caes
##346
##221
intermune
sanwa
transc
schultz
##isson
knife
christensen
bipolar
liaison
b6
##asite
advertised
##coming
##alia
seem
harleys
spd
indexing
enzymes
sank
sykes
tio2
inh
##217
tourist
prompted
kear
sax
theore
acadia
dispatched
disseminate
frankfurt
bradstreet
schwarz
cine
##people
stanton
napro
harleysville
kpp
spg
fleetwood
nik
intact
judges
eclipse
tumble
##wv
intest
##ghan
weinberg
recomputed
cardholders
bottled
lindsay
hec
catalysts
dipl
##cott
##rr
fhlbny
slowdowns
styrene
legatee
flamm
detectors
replenish
alo
nyn
##ucle
mdi
iti
usfs
##608
nqso
dans
mice
##scape
segco
cml
000s
shelter
ramsey
asm
withdraws
breakdowns
0000950124
teleport
ahcccs
spinnaker
scales
ao
gpsc
frp
##holdings
sloan
mig
arter
20060331
lockout
##qh
reclaim
##603
urine
vick
immunex
eti
##chil
rigas
amid
denim
##695
immigration
weekend
thoroughly
replication
dljmb
litigations
depression
##wah
herbal
visualization
##keeper
##arro
##omatic
pst
##aston
hamburg
gbcc
soa
sonat
waddell
##uh
identic
blackout
adsl
bee
depicted
amy
transferors
emitting
wilk
discouraging
tupperware
lattice
slurr
sheridan
nontaxable
cwc
##arge
mcco
hypert
specimens
vect
occupations
playing
ohn
letting
autoc
syndicates
crucial
meats
##weigh
css
mant
noncontroll
bayou
welded
appreciated
foil
##olin
finalizing
cups
robotics
scans
geographies
##014
##326
perce
0014
##357
75201
debra
2800
crem
##colm
oshkosh
privileged
biod
##workers
scb
moscow
standalone
wiltel
bottlers
exv23
##endon
contractholder
predicts
rayonier
##239
lamb
disagree
olive
videocasset
affording
##rg
##uras
themed
incompati
romania
detachable
gens
weider
endow
trench
caval
1ex10d
##kol
underwrites
transparency
jaffray
antis
##illard
mega
##392
reacting
ovens
drum
antidilution
propell
prost
stripping
scm
asterisks
dmc
inco
##548
alamosa
departing
##zn
medicinal
##vedere
sfc
mirage
ecc
atp
tsg
disagrees
candle
tumbleweed
ccr
gym
fost
utm
modes
vintners
##beam
sbic
banknorth
belvedere
bert
bookrun
##179
dred
##807
ata
leaking
sws
cellu
mitigates
locomotives
skus
ciena
##dick
xxxxxx1
calgary
derby
bonne
harman
malcolm
upt
google
firstmer
cray
transporters
tgc
autoby
browning
##jy
##aving
escrows
##755
oo
calvert
demise
##uaranteed
##avenport
bior
stamping
humph
##eler
mcgu
marriage
belden
preex
stry
pathway
perryville
copied
helen
reinsure
villas
pickup
rheumat
dockside
disseminated
firstmerit
disapproved
unum
msm
000008
venezuelan
royce
portrayal
raid
uv
flour
microb
##comb
instructional
housed
dept
nag
##707
##746
mcleodusa
preexisting
wri
contemplating
furman
nursery
tesoro
constituents
utilisation
plot
alk
manit
medco
##ampton
roundup
simplifies
kurt
allograft
##easterly
sanctioned
hathaway
thc
20050316
speakers
dictated
mccr
binds
fans
brus
##145
##enzie
crossroads
##hren
formaldehyde
##using
tpa
flagstar
jsc
teleservices
sender
inm
multichannel
madden
dts
minn
pepper
sunbelt
hopes
##140
prosper
ubiquitel
snc
##cv
amarillo
undergraduate
banctrust
rrp
aikman
thrif
cnf
##244
hereinbelow
lounge
bbc
##333
relocations
##692
cartons
flip
##plp
##687
##atorial
analges
##mund
##meter
ministerial
##nco
restro
bentley
slud
relational
dome
reissues
renting
##jan
##dal
0007
lifts
ols
costco
bookstores
gastroint
loewen
apac
##318
angioplasty
autobytel
astor
mcgrath
sear
tf
corixa
steiner
shea
1955
mpc
##onne
norwalk
altr
blad
pelican
gastrointestinal
nerve
arteries
colgate
mccul
drove
enthusias
tfm
chairmen
milp
hygiene
iri
schmidt
exv31w1
##erch
##xiom
amor
emerald
pulte
##onex
savvis
numerators
##216
vicks
##fix
whir
##009
##lities
##roken
decod
html
4042
rearr
clic
defibr
lesions
mcglad
erect
##314
unbroken
##ngs
acxiom
huntsville
metallurg
insulated
sct
oss
##agic
##atern
79702
enclosure
stryker
bulletins
sis
landry
calder
concentra
metabolic
loses
transmits
inexp
para
starbucks
das
firearms
quincy
##prints
briefing
lil
centra
##heuser
unrecoverable
neurological
##vas
##arden
##2003
catell
hauling
impco
macintosh
190875
0000950129
190875283
bpa
uniro
plano
worcester
##orus
rendition
superstore
oxid
##kg
fortress
davenport
milpitas
mcgladrey
rw
isc
stipulates
loy
##efa
garbage
infine
inaccura
nico
##igo
intergraph
valencia
ixc
rosa
##olor
exporting
cann
dpi
dismember
misdeme
riot
cork
##pharm
devotes
1ex32
kiosks
coyle
##340
inaccuracies
algon
##ilog
statutor
carls
##isi
so4
rmc
11390
hemod
stockpile
nuts
##690
defibrill
possessions
ncs
obst
##0301
entrusted
caldwell
putting
globals
commercials
deficient
macromedia
carnegie
optionor
telegraphic
clinicians
tod
metrop
##442
chromium
mammography
zale
##techn
regimen
precludes
equiserve
uniroyal
redetermination
fci
##ded
papa
##genix
els
dismemberment
afr
55th
michaels
ruby
cruz
##atoch
##gel
unison
leve
##229
statutorily
linden
hbv
##ucker
ecker
kratoch
kleen
manitowoc
kratochvil
##zs
anheuser
amergen
broward
algonquin
##usiness
styling
juvenile
dhs
agings
transcription
avondale
potato
inexpensive
elast
rheumatoid
##essler
trus
abd
complemented
##gren
pean
msp
icf
centurion
jams
outerwear
calibration
reimbursing
nyc
palis
slc
espan
##177
slu
westlake
megab
bldg
shannon
claire
##atth
ccp
##kx
metastatic
reconvey
srp
appreciate
thrifty
##icz
uncollec
unusable
marker
northbrook
richman
oeh
stall
isda
##852
contends
mss
##type
subservicing
bmw
uncons
meco
##ectomy
kfc
naa
divor
durect
qsr
imprinted
inclement
000009
reps
imprecise
bonneville
beecham
chas
##entis
unguaranteed
dorm
sparks
abt
firmware
radon
syniverse
troubles
monopoly
softening
csa
##eclick
edit
leeuw
pueb
nucleic
##543
cfi
respondent
##ileo
healthaxis
softbank
contradicted
cuc
##trics
centerior
custodians
bechtel
mma
overfunded
europ
0000905
livingston
iro
equivalence
sophistication
eic
kine
subservicers
##etics
agenda
90071
pest
humana
palladium
catalina
perfecting
reinforced
##mic
##umab
emi
##377
sonus
dap
longest
psori
pbop
a4
jl
eo
matson
floral
hillhaven
dane
##385
elaborates
hager
##dex
marrow
probation
##vv
##media
dhc
coalbed
##235
ahi
##apple
pastoria
maxxam
trader
cirrus
psoriasis
corus
feeding
verb
##idia
refocus
telefac
terrain
identically
oce
maria
##259
supervises
uncontrollable
pharmacology
metabolism
pakistan
logistical
illustrate
editions
kirkland
##arten
##275
##preced
bundling
bladder
##dorf
faults
antibiotic
gonz
accomplishments
aia
##ocare
newcastle
realistic
confection
##auvin
##ymour
##ovich
slab
animated
filtering
uhs
rei
zar
##undai
20070402
religious
##omers
nodes
migrating
biographical
dau
##adi
copyrightable
##uber
unpreced
spear
1301
gum
lf
forthcoming
adventure
unprecedented
aames
hyundai
ccl
mpeg
leverages
transdigm
##eka
##izz
sponsorships
clyde
##bago
ex21
##text
semele
volatilities
##liff
alar
packs
telefacsimile
##trac
wrc
ias
steamboat
bti
tcp
telecon
meant
20060330
refres
##507
sonet
oled
gryphon
periodical
seymour
explorer
organs
bifurcation
methyl
##347
brookfield
sour
indent
mered
ars
seniors
demurr
ihc
valhi
artificially
##through
knowles
##john
welsh
comdata
exculpation
ure
orm
##deon
##ecca
canon
outfit
##hner
amongst
##386
sheldon
2c
##hb
##antown
writer
resolves
forgive
taxpayers
silicone
clearstream
idc
locality
alpharma
tidel
##bad
##fold
cyclicality
##ocard
000010
##306
undes
a04
everett
hug
##westerly
canargo
bw
bisc
cleaners
toil
bookstore
overhauls
dov
outperform
armco
clover
##play
##208
unproven
mosaic
##uation
thal
##afee
##sburg
##itek
vein
feeder
inscribed
extruded
cnet
##iney
giga
haupp
##onetics
##282
wait
quoting
##802
numerical
hypertension
##nn
dependency
##cles
stockton
controllable
tresp
##atherm
proportionally
gmacm
0000905148
##nison
spares
hardee
uniformity
##therapy
pathmark
enrollee
conveniens
##emore
##letter
landamerica
baggage
rga
coher
objectionable
##4l
hail
leuc
canter
indeterminate
##children
telemetry
decorations
##oulos
programme
viewer
clarifying
yak
evang
repud
reevaluated
##nard
interfered
47710
tryon
hierarchy
dense
gosh
grc
goodwin
advantaged
wildlife
##lab
volvo
##697
vy
##anos
mirrors
alton
calab
##995
##tinet
spots
10286
glim
hef
electrode
##kalb
jabil
vestin
##qd
##abo
origen
##315
niches
antisense
hul
geology
playstation
upholstery
cytok
dusa
oed
overcap
200104
kilroy
noncontrolling
sides
sche
pbx
substantiated
leukemia
ginn
powh
outweigh
galileo
intervenors
plywood
6500
yang
##hx
surg
##intz
renmin
disconnect
trespass
absor
vineyard
hawthorne
racks
wu
salespeople
consoles
renovate
flooding
gtech
malkin
litigant
husband
##155
formulary
reallocate
dive
rms
prenti
greer
decorating
glimcher
dea
conferring
lifepoint
handic
milford
empress
dialing
annulment
hauppauge
eip
rsl
gic
##cu
endurance
df
ruth
rodrig
stratus
sewing
##zie
upn
##ifiers
outlay
freeway
ki
##vg
idled
uneconomical
reproc
quantification
prorata
##feron
goth
##lpool
##bey
dekalb
invacare
parenthe
##214
tours
crypt
amres
uniforms
browns
degr
avnet
confisc
whirlpool
gase
applica
limitada
weighing
assembles
insectic
parenthes
billions
hpv
fayetteville
ppp
anhydr
recondition
cvd
reads
ccfc
dvds
mbc
andre
shoppes
nynex
lma
conrad
##544
mitsui
trede
dermat
toilet
operable
##scan
xxxxxx2
imagery
mars
subfac
adjunct
##amid
vicksburg
router
heaters
fw
##vec
caliper
xxiii
injected
aztec
pawnee
pretrial
pdl
tredegar
hsa
##onucle
arial
curative
##endorf
1111
renminbi
predece
##645
indonesian
fog
abey
2034
colorectal
adapter
dentist
parentheses
darr
facto
textainer
fashions
docking
alamo
pruco
impedi
accumulations
welch
intrusion
meredith
eda
##cliffe
##lander
til
##ecent
chartwell
coalition
diodes
oi
actel
##otec
##256
macerich
maytag
##olla
extrapol
##echanical
##aste
realigned
powders
##verness
cleanliness
retrocessional
retin
mahal
##isto
mauriti
zoned
hayden
##qw
activate
##0929
##elo
unic
harsh
promoter
technician
nz
##urable
sees
rpa
icahn
##cover
##170
strata
wyman
centrif
lansing
daughter
imperm
misdemeanor
watt
kilometers
malaysian
ferris
gladstone
empower
windfall
ameri
sram
tong
fhlbs
##809
climb
vibr
0009
ducts
##izek
landowners
mackenzie
##associ
mauritius
inverness
perishable
trac
transduc
##323
transparent
##kz
reuse
relatives
creditable
freezing
wishing
anchored
nortek
deviate
csmc
routed
##orescent
##offs
isi
##rosis
cce
cloud
recharacter
allison
emf
suspect
##olase
retainers
ist
trg
lowell
7500
##ipple
##df
strengthens
luminent
xbox
ethan
cryo
catellus
telef
##alling
fertilizers
comparatively
pharmacists
telesc
##hine
salons
##228
1119
##ostat
walton
kroger
##cock
imprison
##tinel
##etec
bean
precede
paula
aesop
holograph
brussels
lug
##ocom
enemy
entice
cygn
##nw
##osy
boa
##usey
hallwood
amendatory
reflection
dormant
##aken
##zzo
arrearages
borrows
bureaus
commingling
bossier
vantage
##erts
releas
petitioned
mccl
##ustar
blades
revolution
pancre
##kase
undated
nabors
vienna
##805
hershey
rey
intertan
##arez
firstcity
misappropriated
##wig
chizek
modine
casa
sao
##153
urology
pseud
ribbon
rework
payphone
planting
transacts
wsi
benefitted
optimistic
##sep
##806
rhodes
5115
##nings
3100
overpayments
tsfg
dci
ned
mcafee
lupberger
##eve
mylan
##dsl
glba
gabri
cleaner
reeves
gaseous
foregone
ivy
arsen
crestar
practitioner
proactively
lbi
v0
dexter
tomp
circuitry
##abr
moor
##ocrine
gcl
sweeth
attaches
halls
##atable
##ority
bearingpoint
inducing
cookies
trouble
lionbridge
riley
boone
##4w
basel
roa
ample
gaps
ener
initio
##657
##erp
curagen
spreadsh
ccm
chiqu
sweetheart
affyme
mdp
##249
glas
affymetrix
medicis
##equival
intral
populated
microt
subfacility
torts
stays
##annual
sean
agrilink
vogel
allergy
michelle
lockouts
burned
transgenic
engraved
lpa
srs
000101
tut
formalized
attraction
##orari
tooth
1930
6b
certiorari
cavity
meta
dso
spie
nfl
forster
##ertz
##alum
20000331
lori
obstruct
astra
excavation
surfact
wiley
rebound
restraints
distor
frontline
msw
kingston
lipa
seminole
endorsers
gabelli
neiman
##lux
pullen
vpn
informix
adapters
cooled
fonar
backs
ballard
dek
plane
formalities
mahoney
amh
reson
##bros
##677
##223
reinsures
##015
rfid
gin
##gys
opec
showrooms
tucows
slt
cvc
inev
##ione
paulo
assembling
##171
episodes
##aped
tornado
##vet
gmc
##994
gav
##dner
beers
uno
bunge
aru
ptr
##bv
##eci
forte
palomar
nigc
liz
cmrs
##ryn
capstone
jmc
serono
princess
hsi
##290
mccown
exciting
bioequival
yu
subtotal
mik
intercontinental
devoting
carolinas
energizer
8a
basf
americold
##356
pnb
intimate
shc
norris
conservators
dolphin
inactiv
normalized
enrollments
etp
amerip
suppression
exon
##407
phar
organisms
##ogenous
peptides
pharmacokine
reluctant
alarcon
##abank
mesaba
##kids
##licity
spur
landstar
kris
drops
voyager
##utual
precedence
feeds
prominence
suggestions
qspe
usg
abil
redmond
schein
miniature
amcore
malignant
dms
sz
cotter
##046
suspensions
##letree
binders
pdi
ate
milder
##bx
##688
cataly
liberal
flammable
straddle
##252
neurogen
##341
xxxxxx3
pathogens
eyes
sah
pert
replicate
cassette
sherr
##itional
regents
25in
aeronau
hahn
2400
##team
rebecca
referee
healthgate
delineated
searching
tdi
##kill
lees
##eye
##foil
##ticel
billboards
biometric
quantifiable
celanese
##asts
tricon
abol
terrence
adaptive
carlsbad
disparage
hbo
##ersburg
##amore
officially
##arthur
##roft
chargor
electrom
##arine
autol
mesh
byron
##844
igi
##veston
bloomington
tolerances
reptron
grossly
shores
nonassign
sanch
##usp
navigant
pvngs
dqe
mla
zell
polyone
britt
##ynchron
persistent
cea
marquette
imprisonment
dvi
interpool
##atoga
quite
tet
grossed
noncompetitive
##iegler
baf
dispensed
screw
triumph
fluorescent
galveston
rambus
treasure
ios
##ulding
omitting
coincides
mrp
brauvin
##ovir
photos
tompkins
syrup
marshalling
stur
##316
whistle
curb
coherent
##olia
##ndon
howe
##image
meh
damaging
##brands
nondiscrimination
ctr
presidential
lakewood
ambiguities
stell
airspace
cnc
vale
ethc
tightening
langston
nfs
##qy
implication
rodriguez
qp
flint
7b
brookwood
brooke
exv31w2
morg
##teon
ampal
ost
euribor
##figer
rechargeable
eh
hose
oven
providian
probes
epit
shack
underw
idec
moh
pitt
##zx
##table
profici
mono
critici
carrollton
latham
##kim
makeup
##bright
disturbed
dresdner
75pt
fabricators
lyd
molyb
litigate
dn
##elux
ida
fibreboard
20040315
aligning
unwritten
usair
hilfiger
encroachments
chiquita
recurrence
surpass
farrell
##theby
telesales
blanch
capturing
seventeenth
jm
josh
adjusters
refurbished
astoria
nylon
##bg
ar2
viskase
dex322
vietnam
oner
warnings
rer
##homes
##tenstein
##858
e1
hwp
drugstore
culp
crompton
rn
injections
eat
amli
clarks
stow
##agh
hoover
##texaco
detached
forens
##crs
inflic
quadramed
##vm
missed
##996
##lyte
wellcare
3300
sludge
unt
invoke
##efeller
2035
##ectable
chevrontexaco
##walt
shah
respondents
##hole
kok
wester
##ardo
sotheby
rockefeller
gorman
anonymous
mtc
libel
pont
sentinel
pct
##lough
##erty
homeowner
boyle
usps
contour
escalated
apog
unassigned
3dfx
nephr
baked
naaqs
capri
deriving
harmonic
novelis
##atex
exacerbated
onerous
##312
recited
cogent
lightning
diagnose
hayward
qnb
dcs
fuse
fms
##anas
##194
undergoes
parsons
pueblo
nqs
synchronization
expedia
brenton
##218
welcome
sterilization
supplementally
settles
ers
slip
slides
ppc
summarizing
danielson
retrieve
yam
##iar
##sees
claw
mainland
gaas
lexicon
##adora
##ologix
ss7
unmet
##bard
affirms
reactiv
6022
##fj
cog
lop
possibilities
definitional
brazos
117335
roland
##paid
belv
cryogenic
evangeline
bvi
rin
##mere
disinf
##iller
textbooks
tips
unse
sandy
prides
##041
##888
chevrol
##economic
chevrolet
##aski
hidden
reality
quintiles
abrax
dessert
jaf
revokes
recaptured
stacked
sanchez
williston
boot
inamed
ict
##ught
dcc
##asota
##tini
tria
arvin
disclaimed
answering
reelection
consignee
sunamerica
bernardino
kac
pollock
##406
##zg
otcbb
tetra
##325
julie
hawkins
pdvsa
ethnic
##aigne
##olife
intu
##142
tracker
flyer
crosstex
##pak
20050330
ovonic
bump
phd
hematology
drought
buchan
thermoplas
anchors
##therapeu
effectuated
dbalt
folks
swim
nonrenewal
drex
##storm
##intel
1953
##urchased
##ibusiness
##ibe
agribusiness
cwa
nyfix
outbreak
smur
simulcasting
##fus
newborn
infants
blends
topeka
embark
fgic
##990
kornstein
mtv
drip
idea
smurfit
transcan
##681
biosurgery
ridg
remec
brows
retrocedant
##faction
framing
attracts
cemeteries
sunshine
##adian
ambassador
fowler
##timortgage
multipoint
michel
platt
garment
cousins
mei
##ateralized
needham
analyzers
gf
nfa
##nj
gulfport
misappropriate
metallic
adss
imbler
mam
transfusion
stillwater
cloth
##ialysis
competency
cinemark
distillate
demutual
peaks
##msi
cleaned
synfuel
ruther
conspic
tantalum
##lman
##atek
##licensed
amplification
transmont
##athy
safer
##261
cbiz
arterial
perma
cheng
quartz
ritz
evapor
weaken
opio
serum
##ersham
chequ
saratoga
hps
stee
reinvesting
##55119
eyetech
##entry
##isy
transmontaigne
commute
segmentation
honduras
dreamworks
bequest
mdl
osteotech
cricket
playtex
##olastic
medina
sentry
busey
individualized
recapitalize
rpc
##jury
coded
smallest
sorting
pkwy
instalment
disqualify
agere
2006030
identif
##ippany
athens
adi
bleeding
pneumatic
##hyc
qwh
##woven
negotiates
videocon
homecom
lanvision
akti
nonbanking
catalytica
##odi
weil
wto
mak
0228
5in
lading
nco
tmp
insweb
washing
configure
boatmen
chin
polycom
molybden
##alay
##wego
solids
fenoc
uniph
payload
easton
impressed
continuum
longview
haynes
sita
##lb
joins
##270
luk
##connect
lr
atg
decrane
hcr
newell
##otex
needles
##heit
##241
##685
biochemical
##662
rejecting
telexed
chromatography
cough
accelerates
trails
xpress
##far
tremont
##ucted
conveniently
wellman
2601
covenanted
rewarding
wests
electrol
##678
##vx
endpoints
spas
confers
##546
sunglass
hemisphere
b7
offerors
churchill
defraud
8ben
c4
formulating
macy
chapel
displacement
transalta
15c
##191
pols
##147
ampex
biopharmaceuticals
trunk
##349
lipid
gti
enb
ilco
divorce
##hq
query
velocity
wagers
heska
perjury
##eeter
sonesta
ket
wiz
##zw
##ibur
arist
visitor
rubbish
carpeting
arbitrary
1542
naperville
dmx
##kind
ischem
##flower
antibiotics
accretive
hic
##asys
dra
absences
archer
pesticides
cession
brom
##374
exhaustion
78o
unifi
cygnus
##998
lodgian
lmusa
kgaa
vyn
flue
telxon
prohibitive
actv
scholastic
##bock
chew
flame
unexpectedly
timken
buyouts
hdd
chef
##umi
jos
incyte
##andis
salable
roeb
##cio
separating
personalty
homesites
puls
koll
pfc
qc
raceway
hdtv
##dec
coltec
torrance
idm
depose
##vington
npa
##227
immunoass
lining
arcadia
lanes
esche
jcc
micromet
leucadia
nqsos
xy
aviv
uncollateralized
rounds
disparagement
pomeroy
bakersfield
l9
alarms
##edge
19980331
##271
blanks
clot
splitting
cpu
molybdenum
fear
dahlberg
mcconn
rejects
wickes
##kle
##estown
uniphase
paccar
##ecott
cancellable
byr
1801
tomato
##tures
approvable
kennecott
f1
charley
understated
shells
naples
mccoy
monmouth
systematically
idb
schol
excal
ebusiness
##aney
##irable
unco
nontrad
harrington
##inox
##gre
##isturb
ladenburg
kyoto
medis
brandon
1970s
cii
##zp
bombard
overcapacity
nontraditional
unacc
thunder
3600
jrm
adjudicate
writs
infineon
esquire
roch
tanner
citizenship
20060316
joints
tiger
##ocation
trying
solit
##808
fabricate
##gne
seizures
cpm
coerci
affluent
vertis
rutherford
sirs
heath
oswego
orthodontic
bcp
inks
hti
armt
##wyn
##trx
aldr
defs
dermatology
##ido
##agne
reproductive
oec
switchboard
merrim
caesars
ration
walth
hemodialysis
1938
travelo
##bold
##bron
argon
riots
##ilig
##238
aei
hoech
422a
nhc
homecare
##kamp
doubts
camping
alic
##utaneous
##adon
confectionery
abilene
disposables
mcguire
a20
naft
##nda
shadow
aastr
rods
##ooting
coeur
##osta
reconfigur
hoechst
##icides
genworth
hbi
comforce
flaw
nyiso
argosy
yarns
bcbsa
##copic
##ovac
slope
sulfate
sbi
##876
dissatisfaction
acg
notebooks
##756
roebuck
##mx
dfc
gale
##oia
guang
unlicensed
seaco
redes
##axin
oldest
jennings
toile
fabricating
correlate
petsmart
kiew
##gio
grinding
jewelers
##ellas
aros
##inea
delhi
conservatorship
perot
boykin
albertson
unl
homebuyers
##lr
fallen
doubletree
mopsc
##266
lipos
reedhyc
dismantling
slurry
reedhycalog
mccall
opuc
##products
##676
##aternity
##oie
arris
mpi
hammer
4c
abex
glacier
undesirable
buchanan
concurred
nps
thai
feli
drc
teletech
##686
##auga
norwood
ceco
##uf
prear
appended
pllc
##avan
intranets
##zoil
##ggish
zoom
sluggish
jafra
##hig
clia
unpurchased
mcnam
ibis
ntc
wants
multiannual
fingerhut
koppers
cochr
hosiery
sspg
fracture
pant
preemption
insurr
##143
pennzoil
rotating
cryolife
subdivided
gallery
ravens
miscalculations
cleans
disposs
##684
grafts
conversation
studying
##651
pulaski
mcclain
biomass
##tware
##ublish
button
macon
##355
boeh
adept
epme
deliberations
forres
npdes
prototyping
diminishing
slovakia
rearrang
8k
rocket
proceeded
convergys
##547
kmi
##eeney
##otek
ncuc
ua
##278
ppd
gbp
pagers
joaquin
0831
##tinence
grocers
stub
##hh
resumes
maurice
camco
kimco
compx
separability
examines
fay
atten
applebee
cortland
forrester
ack
incompatible
ncp
idi
precon
##313
##iko
aastrom
kiewit
##prise
msdw
grandchildren
playback
laborers
mixes
synerg
kcsr
chipp
neos
smtc
lnb
casec
imax
pgp
weinstein
##occup
felipe
##649
##aterials
smelting
robotic
intuitive
bravo
##337
veteran
##vention
waypoint
##ajority
prearr
casecnan
##ali
caiso
##898
##proof
hboc
hpt
vald
esa
dishes
dx
benelux
retard
sfp
donations
supermajority
pawns
decoration
tarrant
##zr
dyax
reeb
##ofre
structurally
donation
sublessees
transcanada
dcl
affirming
redesigned
cdos
palmetto
illiquidity
jasper
g2
deactiv
burbank
gmdb
nutrients
##ommerce
##associated
blc
##ahu
odor
##antz
denote
##304
incomes
firstbank
gainesville
wau
discovering
##imp
violence
##hab
sims
##542
recipes
narco
dogs
survivors
lancer
inhalation
informing
jak
scl
wabash
qualities
##blue
mta
encompassed
ester
polishing
highlight
cpe
wharf
maver
##656
##otox
bald
csxt
##172
insufficiency
refurbishing
1818
escalate
##enden
middletown
underperformance
reebok
shawn
mutatis
##luor
glenc
jacob
pra
usefulness
##activity
taxability
solaris
prodigy
rcp
perme
ipalco
##riad
yaec
##ulator
anna
erection
##648
##694
##stat
ej
mutandis
labone
epoch
cem
##antine
flown
kathryn
nights
0008
apo
genesys
unstable
rmi
vax
cahill
biomet
wolfe
bico
coaches
##oso
potter
identities
##379
spreading
arqu
monaco
desirability
ecd
reacquire
bsa
uici
19103
##174
##358
dece
##ensor
##entiary
msn
solicits
##escale
malfeasance
##795
hindered
nashua
##mail
maricop
##amb
syner
drums
wilcox
honors
springerville
packets
tension
##ayson
detecting
hardwood
##049
lakeside
unavoid
redundancies
maricopa
##liner
berth
##ecorp
passport
kog
unle
papuc
manipulate
##895
pineapple
fti
palco
besides
##eri
##idal
belts
uhf
maritrans
smr
microbi
waltham
patel
##vw
salad
freescale
##276
mmcfe
spherion
genlyte
holy
eloyalty
wh1
fraudulently
parenthetical
haver
nx
grouping
stories
iwo
##vus
financi
##019
fmr
enserch
##forth
irp
handy
##ovo
##749
motivating
nano
##high
sarasota
fonix
##asas
tritel
divesting
edelman
##asky
scaled
salespersons
glor
mx
vfc
differentiates
canterbury
##oge
cwmbs
excalibur
##zq
##omial
annot
clarion
##159
ventric
ratcliffe
ehr
fts
firmly
##xxxxxxxx
ecr
gcr
sfpp
jeffery
riser
importer
##blow
schoen
bcs
grapes
seaw
convincing
aura
servico
sponge
redirect
biops
constructs
disallowances
locke
woman
entrepreneurial
baux
courtes
potent
inancial
risky
incontinence
seamlessly
bmg
kum
vet
##ivol
copiers
writers
fein
worse
amg
hyde
inhale
vynpc
jda
volunteer
wn
##iak
cav
simulator
##xpress
##coni
yrs
pantry
atmosph
diablo
denise
linens
##246
remitting
##ynchronous
##ige
capstead
##359
bombardier
ora
roper
0625
jds
##x7
##illing
syc
confirmatory
perfusion
justification
rudolph
demutualization
sherwin
evidentiary
mckee
hyster
60603
judgmental
ji
refinements
nicol
cet
cfm
lexmark
fos
j2
summa
tourn
##uben
recalculation
siebert
solitario
qo
unitedhealth
alaris
##anders
guinea
checkers
cooperated
hemat
nephew
exposing
##application
mckinney
versar
transceivers
electromechanical
frustr
realmark
collector
pgt
acetate
eating
gad
##0415
bauxite
xr
carrols
spectral
vanderbilt
gcs
##alis
nationalization
hamb
relic
wallboard
hosts
jill
##cord
unassociated
crt
##irco
mandalay
parsippany
nafta
chino
warsaw
maverick
sku
waterm
##gements
amresco
hasbro
normalization
19990331
ibp
smt
electroph
iceland
bettin
brentwood
brownsville
##hoff
##termined
##igital
peri
enova
lyc
##fen
seeboard
centurytel
philippine
kaneb
hcl
##entan
offenses
0000914
saturdays
workshops
polska
solving
alvin
##avax
fahren
prevailed
xxiv
bruno
ginnie
1209
kab
tanger
financier
nationals
scsi
ignition
annoy
experimentation
predictability
aether
madrid
novelty
recessionary
eec
grower
cutter
landec
terminaling
##onucleo
epp
##thouse
connell
banana
augmentation
dwellings
iic
##nu
grossman
viewpoint
purely
girls
##mine
sji
##udyne
##forward
maz
##geries
##itchfield
##amming
waxman
timeline
guess
1445
logical
adjudic
stairways
mfb
uil
sasco
qlt
transwestern
##rax
nusco
4100
dus
##gue
humid
##013
wexford
eq
l0
drg
##161
rarely
kcc
caruso
hers
mdny
exv32w1
emcor
jackup
1945
preventative
sequoia
mlpf
certe
repays
##film
acron
stationers
1947
birtcher
annulled
certegy
hintz
metz
magnum
keefe
cors
shoen
redetermined
debarment
##ompetitive
##making
##744
##itions
depicts
reznick
smokeless
bma
##olab
fpc
tailings
pushed
boehringer
seasonally
hillsborough
hare
genoty
masc
##isible
scrubber
reexamination
ico
##search
securely
alerts
dillard
p1
alice
unidentified
remember
granada
##652
belvieu
##sons
dud
sak
linn
worldspan
bangor
##ento
eqr
##ente
arqule
##ided
saba
microcomputer
obert
zeb
##nation
##cet
charity
polices
chipsets
##ancere
##kj
anomal
noc
licences
##646
##zb
lacked
##361
mastec
##idata
##etys
seized
bren
phenom
kamp
##assee
##ppers
bareboat
commissioning
##linger
gravel
##z10
3500
deletions
disparity
numbering
fourths
##share
educators
embroid
agro
coy
nal
##322
coh
oats
##mw
##748
##exv21w1
##ocardial
agon
heid
##332
franchisors
earthlink
16867
000115
saturns
jess
20050329
eddie
martinez
townsend
renaissancere
daytona
##letters
fals
##pal
##ogr
##759
distinguishes
acoustic
loops
bour
2600
closeout
inkjet
##bet
localities
##ycles
ar1
vesta
##658
cultures
nordisk
workgroup
nui
##156
roofs
mentally
##opure
dss
stahl
##ligent
remits
##336
injure
orthopedics
brin
suretys
ober
aggr
paths
microelectronic
mbbls
##sl
competed
burdened
mrc
##541
eighteenth
##omercial
amalgamated
emanating
therapists
theoretical
naco
##745
sublicensing
aerojet
denton
anac
trusted
linde
gloria
gos
bcm
rie
asst
marg
seach
##ahi
1949
adjournments
cube
distinguishing
cia
pbr
qcii
##tf
##reon
ebitdar
##bmc
frivol
intervest
maem
madera
backgrounds
bairnco
bowman
monet
dlc
##hop
parkinson
##063
substantively
instructing
binomial
cassettes
doll
fka
ipps
exhibit10
approached
gmm
##centers
varco
surgeries
rhyth
tarragon
d1
relevance
accomplishing
handlers
sundays
mathematics
lerner
rentech
recruited
computational
##achy
butane
suther
##atings
fibrosis
simulators
kcsi
spieker
gibb
tjx
wap
respected
collapse
telesis
shingle
##yg
fritz
meadowbrook
oligonucleo
indors
disappoin
dpc
##uries
landes
distillers
ayer
reconstit
gust
##onte
fertility
strains
crestline
trusteed
optometr
reconfiguration
eft
##eres
##alliance
shi
magnes
tropicana
calabasas
wig
##vail
##ex23
jdi
pbo
datap
appreci
billboard
##haw
clement
colin
curtiss
fractures
cke
##pto
witt
disaggregated
wmc
##kos
infomercial
scaling
sclerosis
vectren
ucar
termed
talbot
conceptual
betting
##280
rebuilt
unavoidable
##du
tidewater
morph
##loyds
tahoe
1117
checkfree
infor
primex
lpc
fmbs
denis
handler
wong
amino
broadcaster
##777
nautil
tco
southside
betty
vor
resets
acceptability
##284
##ycom
hartman
tsmc
0000950135
elkhart
depreciating
solvay
##emarle
lbs
obsc
##279
cctv
hodg
recompletion
reich
trav
interag
mario
sewell
abry
standpoint
carbohydr
lloyds
mact
newpark
drake
telegraphed
pamida
albemarle
nautilus
paternity
notable
marily
rhi
motorcycles
pitch
brill
laminates
suretyship
##ifa
##338
caustic
##amo
mineralized
cooler
patches
mclennan
fahrenheit
edmund
carbonated
##eris
promised
operationally
commentary
##taylor
inventors
protests
remanufacturing
locomotive
suz
##stop
upstate
citimortgage
##757
jmg
teen
##rob
ift
##ifin
hybridon
exemptive
santander
anntaylor
0470
newsletters
luther
danka
investigatory
##andoah
consignor
ske
##sted
##stra
##nev
moc
##iec
conversations
extendible
##247
terence
bethel
cafes
shenandoah
katherine
capex
bst
##trie
##ighton
warfare
##wq
##jf
unhed
heated
mesqu
##itrade
dex211
cullen
1875
wellcome
solo
benchmar
kimball
##348
naf
neff
chemically
##251
folksamerica
fruits
manito
worldcorp
magnolia
##riz
colleg
watterson
##adine
straw
mcgin
warehouseman
##ureen
redeployment
editor
catalogue
cellulose
kad
sohu
goldendale
clor
##409
stanadyne
malfunctions
##zk
reconven
mcconnell
##waw
##agues
##sun
obra
ssc
ud
incrementally
##673
##stek
fcx
toprs
##otherapeutic
luggage
##million
weir
2036
##artz
##uously
fraser
revoking
vehicular
cbd
tallah
mesquite
combin
facial
prepaying
##kem
membr
cellstar
translates
ftr
paces
shot
hern
##683
allotments
obstruction
humphrey
embroidery
5b
##poration
invented
barker
##ync
##184
prearranged
helms
1948
argued
##atz
fairway
waus
##strip
sst
workovers
mercedes
##859
empowers
horsesh
valentis
envision
000079
gravity
##enol
isot
##usc
##afone
visx
oakwood
laminate
mco
qsp
##uron
paydown
raven
halifax
perpetuity
egain
##elixis
##genta
##naires
antiv
##unet
concourse
bot
skywest
gemstar
vodafone
monetization
gcc
1311
imco
tabulation
bly
pour
##reach
nelnet
videoconferencing
##estim
lea
avoids
pellets
facsim
1112
bclp
##info
##issa
enzon
wausau
nopr
officemax
medford
##herst
##047
obstacles
##oq
##cha
##181
indx
fmv
##keepers
triv
accrediting
sulfide
incin
repack
vegf
rcm
atmospheric
genesee
capitalsource
lx
plen
16a
1251
truserv
vm
##iero
checkmark
unrated
bph
vls
coiled
placer
hooper
s4
atmi
recognizable
bovine
##psy
freehold
ureth
gabriel
trh
##manage
conduci
housekeeping
galleria
##ushita
sbarro
analytic
assimilating
perceive
exelixis
moon
ncric
conducive
yeast
##nk
batches
transworld
##370
manitoba
tens
transcontinental
moto
ssa
amherst
phy
ggp
##pack
brakes
cyr
axs
dre
dmi
urinary
prerequisite
tighter
##bf
harcourt
##stadt
gprs
##koff
shipbuilding
angles
hardy
nmg
oatt
##eff
amti
##elly
xxxxxx00
duluth
##alities
marian
readings
##195
palisades
womm
tencor
parf
metromedia
bellingham
wommack
##vox
resili
plp
bugs
wei
midpoint
metris
2703
matsushita
##fice
charlie
##miter
cint
importers
escape
boundless
chilean
centralization
##352
##zio
##prom
wilfred
##213
winters
reopened
rifkin
nitrous
something
exempts
assignors
rooft
clipper
baron
##eteer
liberate
tremend
tore
astec
decay
groupings
attendants
##rak
swapped
shaped
artesian
conditioners
4069
sensorm
abrams
##adden
traveler
synag
##185
gtsi
frivolous
mystic
progressed
ameristar
assimilate
zdnet
peck
alag
donated
beans
kiss
uts
pasteur
semisub
eck
lorain
baird
forensic
##7600
readjusted
lillo
winne
galen
ilm
logistic
radiological
kana
abet
brc
refundings
diode
sabot
xped
##ardia
purified
primestar
##291
middleware
##hyth
rican
conductor
absorbs
##igent
geologists
bpi
##icin
ores
irmiter
##haul
##aloosa
sycamore
markups
brenda
carlo
promulgation
synchronous
advan
msil
adaptec
luke
lymphoma
semisubmers
approximation
##rugg
##aaq
rabo
##mis
##752
pairs
betts
explaining
ponds
nfc
trainers
mapco
##ogether
1325
biose
alagasco
locker
autoliv
##iffer
hyal
##labs
##but
wh14
refiled
sliding
socied
ewgs
##olve
uncollectable
altogether
netzero
impermissible
1x
compensates
objectively
shelton
fra
##ichi
spice
sealy
resells
ihf
miz
commuter
priceline
aired
comprehensively
##asy
ffp
fanning
espana
bett
dayrates
icl
lau
macc
pulitzer
aktien
pants
sunlink
solicitors
urc
bache
lomas
tutor
uswa
geos
sometime
silk
narrowing
b3
angin
indevus
believing
##acious
bowers
overturned
compania
kahn
cgi
shoney
cane
##urt
dennison
##642
segundo
fbo
##flu
trays
candel
glut
transceiver
versatile
fye
myriad
tallahassee
##my
holt
inadequacy
melt
hnc
arpu
bris
relieving
gif
mish
supergen
pronounced
angio
##avian
diana
halt
vaults
biosite
litchfield
uri
##666
remanufactured
credibility
implanted
toreador
boyc
clubhouse
##eteenth
wintrust
merchantable
packerware
lima
overage
##azoo
clarendon
nsos
powerc
organon
automating
##643
##182
nineteenth
compromising
ashford
shields
bei
mlc
##2p
##mentally
happens
lithograph
instructs
anhydrous
cintas
beazer
harmony
testi
hvf
tch
enumeration
usecc
counterfe
saic
##bag
cau
##pharma
rali
##anova
forgo
reclaimed
senetek
enforces
94111
paperweight
citrix
migrated
fcr
4200
##294
ftb
inciner
seacor
abx
thur
##993
redistribution
whistleblow
storag
nugs
##atched
photonics
02109
##estrian
##751
toro
##lund
##holm
barnwell
tidelands
mgc
##onent
maiden
repligen
addressable
postmark
museum
peaceably
abandoning
gecs
##ypn
richter
##0323
##9wl
expandable
odd
unwired
escheat
##enas
salis
##kor
unity
maureen
corecomm
##ematics
seachange
aoc
hits
uter
dried
pathogen
kwik
warrantholders
##globe
##vl
##voice
pins
qad
brace
distract
digene
parkvale
camel
atmos
highlighted
beams
laude
breakfast
dryers
kvaerner
pia
##pike
contran
treasuries
##br1
tuscar
ussc
mcs
approaching
a210
000129
##gluc
raytech
getting
aam
vag
stones
oncor
##285
coco
##8od
##xg
aims
algorithm
omp
##zt
dong
yan
cuis
revived
bondowners
sme
facsimiles
bhp
mainstream
rescue
natur
memo
rainwater
darby
expeditious
salisbury
batt
##ku
unsusp
broadcom
bowen
iroqu
##vb
##date
outlining
veeco
farmout
iroquois
##fre
mayor
19980401
reliastar
##391
learns
disparaging
turnarounds
lumen
##cape
##idy
shred
reddy
ramifications
##enius
allm
##owell
##azole
##273
radiant
truthful
joshua
redef
repap
##ovex
##bcomm
poors
superconduct
ets
nameplate
warnaco
trm
10010
walters
8124
ror
windstorm
benzene
seacoast
gnc
lithography
io
##onents
##elmer
##array
audible
ranger
1155
bruker
travelocity
##online
##establish
screened
transistors
thermoplastic
sutherland
##enh
##olex
expressway
courseware
bacon
cavalier
belk
1952
wt
prone
3145
planner
elastic
lube
orbcomm
hutchinson
##emann
maxy
##ledged
fgi
##ecor
nept
aron
sina
autozone
presumptive
kes
##qn
detainer
detector
renzi
##551
##wagen
elgin
activewear
docks
duct
gdp
##asol
1010
##apping
implantation
gleason
perkinelmer
ctl
tti
poli
3800
sealants
##187
myrtle
brett
captain
##raer
sgp
9002
##292
##deq
veterin
mistakes
mohave
##itec
machined
demp
equaling
horseshoe
lcc
coag
sbfm
slic
sixtieth
nypsc
deflation
voba
gaiam
embraer
arcade
illustrative
paydowns
converged
staying
recycle
2900
medc
##ynet
antif
schroeder
regeneron
covington
turnpike
donah
hopper
ethicon
tremendous
##urity
spansion
airtouch
shortcom
clim
faulding
##uxan
portsmouth
schulman
storagetek
shortcomings
##zes
sutter
##justed
inefficient
gund
jesse
sarm
##281
fsg
landscaped
multiplexing
instructor
##rine
##enb
##elin
countersignature
endeavours
hwy
osm
1925
##4i7
sabotage
instinet
buena
soap
marginally
victory
morristown
heyman
##2b
##oda
codified
automates
woodbury
interagency
allmerica
nch
exco
##yplus
##351
fundamentally
lorillard
charterers
pixel
inmate
##rogate
lakeview
gmacc
jimm
vwr
falk
willbros
signers
experiments
coolers
##acey
keymaster
quietly
ignored
boutique
##asted
6798
stephenson
brighton
##gear
caaa
swings
pioneered
##vu
ofs
forging
quicks
drillship
##173
egf
57th
netbank
landline
##vir
asr
sublicensed
macroeconomic
greeting
rituxan
##icting
marconi
##atore
##090
edgewater
fati
chu
italic
##887
##hw
veins
[...]
